{
  "version": "1.0",
  "truncation": null,
  "padding": null,
  "added_tokens": [
    {
      "id": 0,
      "content": "<pad>",
      "single_word": false,
      "lstrip": false,
      "rstrip": false,
      "normalized": false,
      "special": true
    },
    {
      "id": 1,
      "content": "<unk>",
      "single_word": false,
      "lstrip": false,
      "rstrip": false,
      "normalized": false,
      "special": true
    },
    {
      "id": 2,
      "content": "<bos>",
      "single_word": false,
      "lstrip": false,
      "rstrip": false,
      "normalized": false,
      "special": true
    },
    {
      "id": 3,
      "content": "<eos>",
      "single_word": false,
      "lstrip": false,
      "rstrip": false,
      "normalized": false,
      "special": true
    },
    {
      "id": 4,
      "content": "<sep>",
      "single_word": false,
      "lstrip": false,
      "rstrip": false,
      "normalized": false,
      "special": true
    },
    {
      "id": 5,
      "content": "<mask>",
      "single_word": false,
      "lstrip": false,
      "rstrip": false,
      "normalized": false,
      "special": true
    }
  ],
  "normalizer": null,
  "pre_tokenizer": {
    "type": "ByteLevel",
    "add_prefix_space": false,
    "trim_offsets": true,
    "use_regex": true
  },
  "post_processor": null,
  "decoder": {
    "type": "ByteLevel",
    "add_prefix_space": true,
    "trim_offsets": true,
    "use_regex": true
  },
  "model": {
    "type": "BPE",
    "dropout": null,
    "unk_token": "<unk>",
    "continuing_subword_prefix": null,
    "end_of_word_suffix": null,
    "fuse_unk": false,
    "byte_fallback": false,
    "ignore_merges": false,
    "vocab": {
      "<pad>": 0,
      "<unk>": 1,
      "<bos>": 2,
      "<eos>": 3,
      "<sep>": 4,
      "<mask>": 5,
      "!": 6,
      "\"": 7,
      "#": 8,
      "%": 9,
      "&": 10,
      "'": 11,
      "(": 12,
      ")": 13,
      "*": 14,
      "+": 15,
      ",": 16,
      "-": 17,
      ".": 18,
      "/": 19,
      "0": 20,
      "1": 21,
      "2": 22,
      "3": 23,
      "4": 24,
      "5": 25,
      "6": 26,
      "7": 27,
      "8": 28,
      "9": 29,
      ":": 30,
      ";": 31,
      "<": 32,
      "=": 33,
      ">": 34,
      "?": 35,
      "A": 36,
      "B": 37,
      "C": 38,
      "D": 39,
      "E": 40,
      "F": 41,
      "G": 42,
      "H": 43,
      "I": 44,
      "J": 45,
      "K": 46,
      "L": 47,
      "M": 48,
      "N": 49,
      "O": 50,
      "P": 51,
      "Q": 52,
      "R": 53,
      "S": 54,
      "T": 55,
      "U": 56,
      "V": 57,
      "W": 58,
      "X": 59,
      "Y": 60,
      "Z": 61,
      "[": 62,
      "\\": 63,
      "]": 64,
      "^": 65,
      "_": 66,
      "`": 67,
      "a": 68,
      "b": 69,
      "c": 70,
      "d": 71,
      "e": 72,
      "f": 73,
      "g": 74,
      "h": 75,
      "i": 76,
      "j": 77,
      "k": 78,
      "l": 79,
      "m": 80,
      "n": 81,
      "o": 82,
      "p": 83,
      "q": 84,
      "r": 85,
      "s": 86,
      "t": 87,
      "u": 88,
      "v": 89,
      "w": 90,
      "x": 91,
      "y": 92,
      "z": 93,
      "{": 94,
      "|": 95,
      "}": 96,
      "~": 97,
      "©": 98,
      "Ã": 99,
      "â": 100,
      "Ċ": 101,
      "č": 102,
      "Ġ": 103,
      "Ģ": 104,
      "ĵ": 105,
      "Ġt": 106,
      "in": 107,
      "Ġa": 108,
      "čĊ": 109,
      "he": 110,
      "on": 111,
      "er": 112,
      "re": 113,
      "Ġthe": 114,
      "Ġs": 115,
      "Ġo": 116,
      "Ġi": 117,
      "at": 118,
      "Ġc": 119,
      "en": 120,
      "ar": 121,
      "ion": 122,
      "Ġf": 123,
      "Ġp": 124,
      "Ġin": 125,
      "ed": 126,
      "al": 127,
      "or": 128,
      "Ġb": 129,
      "es": 130,
      "ct": 131,
      "Ġan": 132,
      "it": 133,
      "Ġof": 134,
      "st": 135,
      "Ġw": 136,
      "Ġis": 137,
      "Ġto": 138,
      "Ġn": 139,
      "le": 140,
      "Ġd": 141,
      "an": 142,
      "ent": 143,
      "Ġe": 144,
      "Ġm": 145,
      "ing": 146,
      "un": 147,
      "Ġand": 148,
      "Ġst": 149,
      "Ġl": 150,
      "ro": 151,
      "int": 152,
      "Ġre": 153,
      "am": 154,
      "ec": 155,
      "Ġth": 156,
      "ut": 157,
      "ic": 158,
      "se": 159,
      "Ġbe": 160,
      "ss": 161,
      "Ġv": 162,
      "ment": 163,
      "har": 164,
      "Ġex": 165,
      "The": 166,
      "ers": 167,
      "Ġcon": 168,
      "Ġ*": 169,
      "ation": 170,
      "Ġ(": 171,
      "et": 172,
      "if": 173,
      "ay": 174,
      "ig": 175,
      "ur": 176,
      "Ġit": 177,
      "ction": 178,
      "Ġpo": 179,
      "Ġint": 180,
      "Ġfor": 181,
      "ac": 182,
      "ot": 183,
      "om": 184,
      "de": 185,
      "ll": 186,
      "pe": 187,
      "Ġthat": 188,
      "Ġor": 189,
      "is": 190,
      "Ġar": 191,
      "ly": 192,
      "Ġare": 193,
      "Ġchar": 194,
      "us": 195,
      "unction": 196,
      "Ġh": 197,
      "pre": 198,
      "Ġ=": 199,
      "Ġpro": 200,
      "Ġon": 201,
      "ab": 202,
      "ith": 203,
      "act": 204,
      "Ġstr": 205,
      "Ġfunction": 206,
      "Ġfi": 207,
      "ve": 208,
      "ssion": 209,
      "Ġty": 210,
      "ecl": 211,
      "Ġpoint": 212,
      "per": 213,
      "pression": 214,
      "ine": 215,
      "ĠThe": 216,
      "ul": 217,
      "Ġg": 218,
      "ate": 219,
      "ce": 220,
      "Ġby": 221,
      "pt": 222,
      "urn": 223,
      "iz": 224,
      "Ġun": 225,
      "Ġwith": 226,
      "and": 227,
      "lo": 228,
      "ex": 229,
      "turn": 230,
      "her": 231,
      "Ġcharact": 232,
      "alu": 233,
      "Ġnot": 234,
      "um": 235,
      "Ġas": 236,
      "ad": 237,
      "im": 238,
      "qu": 239,
      "Ġif": 240,
      "id": 241,
      "Ġcom": 242,
      "Ġwh": 243,
      "ifi": 244,
      "eclar": 245,
      "ame": 246,
      "Ġtype": 247,
      "ĠA": 248,
      "ign": 249,
      "ĠI": 250,
      "gr": 251,
      "ist": 252,
      "ow": 253,
      "ator": 254,
      "put": 255,
      "as": 256,
      "Ġreturn": 257,
      "Ġ1": 258,
      "uct": 259,
      "ter": 260,
      "Ġ0": 261,
      "Ġoper": 262,
      "Ġvalu": 263,
      "ver": 264,
      ");": 265,
      "Ġsp": 266,
      "all": 267,
      "/*": 268,
      "ag": 269,
      "Ġ*/": 270,
      "gram": 271,
      "Ġde": 272,
      "ain": 273,
      "gu": 274,
      "Ġprogram": 275,
      "em": 276,
      "ke": 277,
      "rint": 278,
      "ĠC": 279,
      "ch": 280,
      "ore": 281,
      "ant": 282,
      "ray": 283,
      "ari": 284,
      "ple": 285,
      "ess": 286,
      "ition": 287,
      "eclaration": 288,
      "Ġus": 289,
      "ure": 290,
      "ĠS": 291,
      "Ġexpression": 292,
      "ou": 293,
      "fin": 294,
      "Ġpointer": 295,
      "il": 296,
      "Ġco": 297,
      "end": 298,
      "Ġcharacter": 299,
      "ect": 300,
      "str": 301,
      "Ġse": 302,
      "pl": 303,
      "ich": 304,
      "ments": 305,
      "Ġarray": 306,
      "are": 307,
      "Ġvari": 308,
      "char": 309,
      "Ġvalue": 310,
      "Ġmay": 311,
      "ther": 312,
      "rit": 313,
      "Ġle": 314,
      "Ġcall": 315,
      "Ġcan": 316,
      "ary": 317,
      "Ġal": 318,
      "Ġ<": 319,
      "Ġpar": 320,
      "Ġsu": 321,
      "Ġwhich": 322,
      "ial": 323,
      "cl": 324,
      "ĠF": 325,
      "Ġat": 326,
      "Ġargu": 327,
      "..": 328,
      "Ġne": 329,
      "Ġr": 330,
      "ib": 331,
      "ĠT": 332,
      "Ġdeclaration": 333,
      "ach": 334,
      "ust": 335,
      "able": 336,
      "el": 337,
      "Ġfile": 338,
      "Ġstruct": 339,
      "ave": 340,
      "ber": 341,
      "Ġcont": 342,
      "ill": 343,
      "Ġthis": 344,
      "Ġpre": 345,
      "les": 346,
      "ive": 347,
      "ize": 348,
      "Ġnum": 349,
      "ifier": 350,
      "ord": 351,
      "Ġinte": 352,
      "ĠE": 353,
      "Ġstring": 354,
      "rom": 355,
      "Ġ/*": 356,
      "Ġ'": 357,
      "Ġfrom": 358,
      "Ġhave": 359,
      "age": 360,
      "use": 361,
      "iv": 362,
      "ated": 363,
      "Ġone": 364,
      "Ġget": 365,
      "Ġspec": 366,
      "th": 367,
      "ong": 368,
      "Ġconst": 369,
      "Ġob": 370,
      "expression": 371,
      "igh": 372,
      "Ġso": 373,
      "Ġall": 374,
      "Ġwe": 375,
      "fer": 376,
      "oid": 377,
      "Ġwill": 378,
      "tern": 379,
      "Ġ-": 380,
      "ard": 381,
      "est": 382,
      "ise": 383,
      "Ġdefin": 384,
      "ire": 385,
      "Ġprint": 386,
      "cc": 387,
      "ace": 388,
      "Ġwhe": 389,
      "ult": 390,
      "ext": 391,
      "igned": 392,
      "Ġwrit": 393,
      "ject": 394,
      "Ġstructure": 395,
      "Ġother": 396,
      "Ġma": 397,
      "Ġstate": 398,
      "Ġinput": 399,
      "ĠW": 400,
      "Ġlo": 401,
      "ersion": 402,
      "Ġcomp": 403,
      "++": 404,
      "ile": 405,
      "ort": 406,
      "Ġits": 407,
      "loc": 408,
      "Ġca": 409,
      "itial": 410,
      "ir": 411,
      "ĠO": 412,
      "Ġany": 413,
      "dent": 414,
      "ree": 415,
      "for": 416,
      "Ġy": 417,
      "clu": 418,
      "Ġobject": 419,
      "op": 420,
      "ĠP": 421,
      "Ġcharacters": 422,
      "ally": 423,
      "Ġinteg": 424,
      "ight": 425,
      "ines": 426,
      "Ġfunctions": 427,
      "Ġnumber": 428,
      "Ġoperator": 429,
      "Ġconstant": 430,
      "Ġsh": 431,
      "Ġad": 432,
      "Ġfir": 433,
      "Ġfirst": 434,
      "Ġass": 435,
      "Ġused": 436,
      "Ġout": 437,
      "ĠIf": 438,
      "line": 439,
      "Ġap": 440,
      "err": 441,
      "Ġdo": 442,
      "Ġname": 443,
      "Ġident": 444,
      "ĠN": 445,
      "Ġmust": 446,
      "Ġsy": 447,
      "andard": 448,
      "Ġno": 449,
      "Ġsame": 450,
      "Ġinitial": 451,
      "Ġline": 452,
      "Ġlong": 453,
      "Ġ2": 454,
      "ence": 455,
      "ted": 456,
      "Ġhe": 457,
      "erm": 458,
      "Ġeach": 459,
      "Ġhas": 460,
      "Ġ{": 461,
      "ble": 462,
      "''": 463,
      "Ġform": 464,
      "``": 465,
      "Ġsize": 466,
      "ables": 467,
      "ft": 468,
      "nt": 469,
      "Ġen": 470,
      "Ġim": 471,
      "Ġread": 472,
      "Ġreturns": 473,
      "out": 474,
      "uld": 475,
      "Ġbut": 476,
      "Ġexam": 477,
      "his": 478,
      "Ġstandard": 479,
      "Ġfo": 480,
      "ond": 481,
      "Ġtyp": 482,
      "ha": 483,
      "ĠB": 484,
      "Ġres": 485,
      "uf": 486,
      "Ġargument": 487,
      "ero": 488,
      "Ġpart": 489,
      "Ġmo": 490,
      "eclare": 491,
      "ike": 492,
      "Ġnew": 493,
      "Ġvariables": 494,
      "up": 495,
      "ang": 496,
      "ĠIn": 497,
      "Ġinitializ": 498,
      "ide": 499,
      "its": 500,
      "Ġ&": 501,
      "Ġuse": 502,
      "Ġ``": 503,
      "zero": 504,
      "Ġoperand": 505,
      "Ġstatement": 506,
      "ol": 507,
      "loat": 508,
      "Ġthan": 509,
      "Ġ#": 510,
      "Ġconver": 511,
      "Ġinteger": 512,
      "ime": 513,
      "def": 514,
      "der": 515,
      "atic": 516,
      "ome": 517,
      "ouble": 518,
      "...": 519,
      "error": 520,
      "Ġtw": 521,
      "Ġset": 522,
      "amet": 523,
      "Ġ==": 524,
      "pend": 525,
      "so": 526,
      "ĠD": 527,
      "Ġexample": 528,
      "gh": 529,
      "get": 530,
      "Ġmore": 531,
      "Ġlist": 532,
      "Ġlike": 533,
      "Ġinto": 534,
      "po": 535,
      "signed": 536,
      "Ġconv": 537,
      "Ġ>": 538,
      "Ġdeclare": 539,
      "Ġonly": 540,
      "oc": 541,
      "clude": 542,
      "plic": 543,
      "Ġadd": 544,
      "print": 545,
      "Ġtr": 546,
      "Ġthere": 547,
      "eclarator": 548,
      "io": 549,
      "Ġarguments": 550,
      "und": 551,
      "Ġextern": 552,
      "Ġcontain": 553,
      "ast": 554,
      "ix": 555,
      "ten": 556,
      "Ġtwo": 557,
      "ken": 558,
      "list": 559,
      "ype": 560,
      "Ġx": 561,
      "Ġ'\\": 562,
      "Ġdefinition": 563,
      "irect": 564,
      "cise": 565,
      "void": 566,
      "Ġev": 567,
      "Ġalso": 568,
      "Ġsub": 569,
      "\",": 570,
      "wh": 571,
      "sp": 572,
      "arg": 573,
      "Ġnam": 574,
      "Ġmem": 575,
      "Ġparamet": 576,
      "Ġidentifier": 577,
      "cr": 578,
      "ĠM": 579,
      "Ġvariable": 580,
      "lock": 581,
      "Ġresult": 582,
      "ap": 583,
      "ould": 584,
      "Ġ%": 585,
      "Ġcalled": 586,
      "ass": 587,
      "stem": 588,
      "Ġ\"": 589,
      "ĠL": 590,
      "Ġend": 591,
      "Ġnext": 592,
      "qual": 593,
      "ies": 594,
      "Ġ3": 595,
      "Ġerror": 596,
      "Ġab": 597,
      "Ġfloat": 598,
      "plement": 599,
      "struct": 600,
      "Ġleft": 601,
      "Ġch": 602,
      "ack": 603,
      "->": 604,
      "ff": 605,
      "Ġ!": 606,
      "Ġdes": 607,
      "Ġcase": 608,
      "Ġzero": 609,
      "orage": 610,
      "LL": 611,
      "sent": 612,
      "Ġpointers": 613,
      "ĠFor": 614,
      "Ġright": 615,
      "ĠThis": 616,
      "form": 617,
      "hapt": 618,
      "Ġsome": 619,
      "ignment": 620,
      ").": 621,
      "rary": 622,
      "Ġke": 623,
      "Ġthen": 624,
      "Ġmain": 625,
      "Ġcomm": 626,
      "Ġspace": 627,
      "[]": 628,
      "Ġsystem": 629,
      "Ex": 630,
      "of": 631,
      "Ġj": 632,
      "Ġthey": 633,
      "std": 634,
      "Ġhow": 635,
      "00": 636,
      "Ġoutput": 637,
      "printf": 638,
      "()": 639,
      "Ġ+": 640,
      "Ġspecifi": 641,
      "Ġtypes": 642,
      "Ġdeclared": 643,
      "cre": 644,
      "tr": 645,
      "unt": 646,
      "ical": 647,
      "Ġunsigned": 648,
      "Ġ!=": 649,
      "co": 650,
      "Ġword": 651,
      "Ġvoid": 652,
      "ations": 653,
      "Ġwhen": 654,
      "Ġblock": 655,
      "Ġlib": 656,
      "llow": 657,
      "pro": 658,
      "define": 659,
      "(\"": 660,
      "py": 661,
      "ercise": 662,
      "ccur": 663,
      "Ġdoes": 664,
      "hapter": 665,
      "Ġway": 666,
      "Ġdirect": 667,
      "ithm": 668,
      "Ġvalues": 669,
      "eld": 670,
      "Ġimplement": 671,
      "Ġfollow": 672,
      "Ġconversion": 673,
      "Exercise": 674,
      "cess": 675,
      "ince": 676,
      "include": 677,
      "ative": 678,
      "Ġstorage": 679,
      "Ġtime": 680,
      "Ġdif": 681,
      "Ġdis": 682,
      "Ġdouble": 683,
      "ough": 684,
      "'s": 685,
      "ULL": 686,
      "Ġro": 687,
      "return": 688,
      "Ġnon": 689,
      "Ġdeclarations": 690,
      "Ġexternal": 691,
      "),": 692,
      "AX": 693,
      "ĠU": 694,
      "Ġlibrary": 695,
      "];": 696,
      "ity": 697,
      "ans": 698,
      "Ġele": 699,
      "Ġloop": 700,
      "ced": 701,
      "fore": 702,
      "Ġacc": 703,
      "Ġoccur": 704,
      "Ġdiffer": 705,
      "mp": 706,
      "Ġthem": 707,
      "ates": 708,
      "word": 709,
      "Ġbec": 710,
      "Ġprintf": 711,
      "wer": 712,
      "etic": 713,
      "Ġobjects": 714,
      "ak": 715,
      "ail": 716,
      "ip": 717,
      "Ġunion": 718,
      "ĠNULL": 719,
      "ream": 720,
      "ĠIt": 721,
      "Ġsequ": 722,
      "Ġkey": 723,
      "In": 724,
      "Ġversion": 725,
      "Ġdefined": 726,
      "Ġoperators": 727,
      "ithmetic": 728,
      "ces": 729,
      "wise": 730,
      "Ġel": 731,
      "defin": 732,
      "while": 733,
      "Ġdescr": 734,
      "par": 735,
      "Ġsign": 736,
      "Ġlines": 737,
      "Ġorder": 738,
      "cept": 739,
      "ible": 740,
      "Ġnames": 741,
      "gin": 742,
      "ĠR": 743,
      "Ġneed": 744,
      "ause": 745,
      "Ġinst": 746,
      "Ġpos": 747,
      "ifiers": 748,
      "Ġwhere": 749,
      "name": 750,
      "Ġbegin": 751,
      "Ġcompil": 752,
      "Ġmost": 753,
      "OF": 754,
      "fter": 755,
      "Ġpl": 756,
      "Ġfiles": 757,
      "Ġwrite": 758,
      "Ġconverted": 759,
      "Ġdisc": 760,
      "buf": 761,
      "con": 762,
      "ĠH": 763,
      "ind": 764,
      "hes": 765,
      "ener": 766,
      "imal": 767,
      "Ġalloc": 768,
      "Ġchang": 769,
      "SI": 770,
      "bers": 771,
      "Ġterm": 772,
      "alloc": 773,
      "Ġbuf": 774,
      "Ġeff": 775,
      "acro": 776,
      "LE": 777,
      "ase": 778,
      "od": 779,
      "opt": 780,
      "Ġqu": 781,
      "Ġdec": 782,
      "Ġbet": 783,
      "ptr": 784,
      "du": 785,
      "ok": 786,
      "Ġwritten": 787,
      "Ġhead": 788,
      "Ġtoken": 789,
      "Ġbefore": 790,
      "Ġinter": 791,
      "Ġarithmetic": 792,
      "Ġprov": 793,
      "Ġassignment": 794,
      "Ġparameter": 795,
      "Ġ5": 796,
      "ecut": 797,
      "pear": 798,
      "present": 799,
      "else": 800,
      "ILE": 801,
      "pen": 802,
      "Ġup": 803,
      "Ġfree": 804,
      "ite": 805,
      "Ġmacro": 806,
      "Ġrepresent": 807,
      "Ġgener": 808,
      "Ġprograms": 809,
      "Ġyou": 810,
      "Ġconstants": 811,
      "point": 812,
      "))": 813,
      "pr": 814,
      "Ġ...": 815,
      "ĠWe": 816,
      "Ġevalu": 817,
      "declarator": 818,
      "ied": 819,
      "Ġtext": 820,
      "rite": 821,
      "ĠEOF": 822,
      "ival": 823,
      "plicit": 824,
      "defined": 825,
      "ead": 826,
      "tab": 827,
      "we": 828,
      "Ġman": 829,
      "Ġrepl": 830,
      "ĠEx": 831,
      "te": 832,
      "Ġcons": 833,
      "Ġ((": 834,
      "clud": 835,
      "Ġimplementation": 836,
      "Ġdifferent": 837,
      "ode": 838,
      "Ġincre": 839,
      "Ġwor": 840,
      "Ġme": 841,
      "ingle": 842,
      "Ġlow": 843,
      "ice": 844,
      "Ġexecut": 845,
      "Ġarg": 846,
      "Ġspecif": 847,
      "Ġappear": 848,
      "Ġsequence": 849,
      "ef": 850,
      "ue": 851,
      "Ġafter": 852,
      "ither": 853,
      "Ġdet": 854,
      "Ġequ": 855,
      "Ġmat": 856,
      "econd": 857,
      "Ġgiv": 858,
      "Ġaccess": 859,
      "ever": 860,
      "len": 861,
      "Ġ4": 862,
      "Ġsim": 863,
      "Ġper": 864,
      "Ġpoints": 865,
      "umer": 866,
      "Ġcontro": 867,
      "Ġelse": 868,
      "Ġtermin": 869,
      "size": 870,
      "Ġsingle": 871,
      "Ġind": 872,
      "ory": 873,
      "Ġdig": 874,
      "other": 875,
      "Ġproper": 876,
      "Ġfield": 877,
      "Ġexpressions": 878,
      "Ġconvert": 879,
      "Ġfloating": 880,
      "Ġeffect": 881,
      "ween": 882,
      "Ġequival": 883,
      "can": 884,
      "ne": 885,
      "Ġ}": 886,
      "ional": 887,
      "Ġbr": 888,
      "Ġwould": 889,
      "angu": 890,
      "Ġrequ": 891,
      "Ġcount": 892,
      "ĠPar": 893,
      "ipt": 894,
      "Ġ|": 895,
      "ere": 896,
      "sel": 897,
      "Ġbeen": 898,
      "Ġexplicit": 899,
      "Ġsuch": 900,
      "Ġmake": 901,
      "Ġdiscu": 902,
      "Ġbetween": 903,
      "Ġequivalent": 904,
      "')": 905,
      "12": 906,
      "MAX": 907,
      "ld": 908,
      "Ġtest": 909,
      "Ġthese": 910,
      "state": 911,
      "ays": 912,
      "perator": 913,
      "Ġjust": 914,
      "Ġrout": 915,
      "ah": 916,
      "fix": 917,
      "one": 918,
      "Ġtheir": 919,
      "Ġcor": 920,
      "arch": 921,
      "Ġeither": 922,
      "Ġlangu": 923,
      "ision": 924,
      "Ġcopy": 925,
      "Ġ&&": 926,
      "Ġcontains": 927,
      "'t": 928,
      "hen": 929,
      "Ġsort": 930,
      "Ġinclud": 931,
      "Ġstream": 932,
      "oth": 933,
      "Ġstrc": 934,
      "stdio": 935,
      "Ġcorre": 936,
      "gth": 937,
      "edef": 938,
      "Ġmach": 939,
      "Ġstore": 940,
      "ular": 941,
      "gral": 942,
      "ĠChapter": 943,
      "Ġspecified": 944,
      "ear": 945,
      "ks": 946,
      "to": 947,
      "Ġta": 948,
      "Ġopen": 949,
      "Ġwhile": 950,
      "pendent": 951,
      "Ġbecause": 952,
      "statement": 953,
      "10": 954,
      "type": 955,
      "Ġtab": 956,
      "Ġsw": 957,
      "Ġrel": 958,
      "Ġexcept": 959,
      "Ġposs": 960,
      "Ġcalls": 961,
      "Ġmax": 962,
      "ĠWrite": 963,
      "Ġloc": 964,
      "Ġpartic": 965,
      "Ġposition": 966,
      ".)": 967,
      "Ġk": 968,
      "ata": 969,
      "ating": 970,
      "Ġlen": 971,
      "Ġrec": 972,
      "aces": 973,
      "Ġhand": 974,
      "low": 975,
      "ĠAn": 976,
      "Ġstatements": 977,
      "const": 978,
      "Ġcontrol": 979,
      "ep": 980,
      "ress": 981,
      "Ġcre": 982,
      "Ġperm": 983,
      "Ġitsel": 984,
      "dependent": 985,
      "Ġintegral": 986,
      "Ġheader": 987,
      "Ġitself": 988,
      "Ġ:": 989,
      "Ġent": 990,
      "Ġsince": 991,
      "Ġput": 992,
      "Ġpass": 993,
      "Ġboth": 994,
      "Ġanother": 995,
      "Ġreg": 996,
      "Ġpower": 997,
      "Ġinitialized": 998,
      "Ġoperands": 999,
      "ious": 1000,
      "Ġdescrib": 1001,
      "IN": 1002,
      "ax": 1003,
      "ning": 1004,
      "side": 1005,
      "ert": 1006,
      "Ġsecond": 1007,
      "Ġstatic": 1008,
      "Ġrem": 1009,
      "ecess": 1010,
      "ush": 1011,
      "ĠSt": 1012,
      "arent": 1013,
      "Ġpreced": 1014,
      "Ġshow": 1015,
      "Ġmember": 1016,
      "Ġmembers": 1017,
      "cope": 1018,
      "Ġlower": 1019,
      "ous": 1020,
      "val": 1021,
      "Ġdeclarator": 1022,
      "Ġlast": 1023,
      "Ġcond": 1024,
      "Ġdef": 1025,
      "Ġintegers": 1026,
      "Ġindic": 1027,
      "canf": 1028,
      "Ġparticular": 1029,
      "This": 1030,
      "ual": 1031,
      "Ġinform": 1032,
      "Ġdata": 1033,
      "Ġwithout": 1034,
      "imum": 1035,
      "veral": 1036,
      "ĠSe": 1037,
      "Ġsepar": 1038,
      "Ġseveral": 1039,
      "ĠOperator": 1040,
      "spec": 1041,
      "Ġabout": 1042,
      "process": 1043,
      "Ġprovid": 1044,
      "Ġgiven": 1045,
      "ahr": 1046,
      "ose": 1047,
      "Ġaut": 1048,
      "reak": 1049,
      "Ġfe": 1050,
      "Ġpr": 1051,
      "Ġstd": 1052,
      "Ġ(*": 1053,
      "omatic": 1054,
      "Ġlet": 1055,
      "Ġgetchar": 1056,
      "Ġgetline": 1057,
      "Ġcast": 1058,
      "fp": 1059,
      "ost": 1060,
      "ved": 1061,
      "yp": 1062,
      "Ġed": 1063,
      "read": 1064,
      "Ġopt": 1065,
      "Ġnecess": 1066,
      "urce": 1067,
      "Ġreturned": 1068,
      "ĠCon": 1069,
      "Ġstructures": 1070,
      "Ġparameters": 1071,
      "Ġinstead": 1072,
      "Par": 1073,
      "dd": 1074,
      "Ġtem": 1075,
      "onth": 1076,
      "Ġsigned": 1077,
      "orm": 1078,
      "Ġbits": 1079,
      "Ġwas": 1080,
      "ance": 1081,
      "Ġrefer": 1082,
      "Ġfound": 1083,
      "Ġaddress": 1084,
      "(\"%": 1085,
      "Ġlanguage": 1086,
      "Ġinformation": 1087,
      "11": 1088,
      "double": 1089,
      "ient": 1090,
      "less": 1091,
      "Ġ7": 1092,
      "Ġfind": 1093,
      "Ġparent": 1094,
      "Ġback": 1095,
      "ĠAr": 1096,
      "Ġ10": 1097,
      "Ġsource": 1098,
      "++)": 1099,
      "oci": 1100,
      "Ġeven": 1101,
      "spond": 1102,
      "Ġcorrespond": 1103,
      "Ġlength": 1104,
      "Ġcondition": 1105,
      "vious": 1106,
      "ized": 1107,
      "ĠAN": 1108,
      "Ġcould": 1109,
      "ulti": 1110,
      "Ġshould": 1111,
      "Ġformat": 1112,
      "Ġdigits": 1113,
      "Ġmachine": 1114,
      "cat": 1115,
      "ful": 1116,
      "ren": 1117,
      "Ġbit": 1118,
      "rou": 1119,
      "Ġthree": 1120,
      "Ġprocess": 1121,
      "Ġgo": 1122,
      "Ġwithin": 1123,
      "Ġarrays": 1124,
      "ĠFunction": 1125,
      "ĠTh": 1126,
      "Ġwriting": 1127,
      "Ġcompare": 1128,
      "Ġenumer": 1129,
      "Ġelement": 1130,
      "Ġelements": 1131,
      "Ġbuffer": 1132,
      "Ġevaluated": 1133,
      "Ġdiscuss": 1134,
      "ault": 1135,
      "declaration": 1136,
      "lag": 1137,
      "lines": 1138,
      "mb": 1139,
      "ull": 1140,
      "yle": 1141,
      "Ġ6": 1142,
      "Ġday": 1143,
      "Ġlarg": 1144,
      "ically": 1145,
      "set": 1146,
      "Ġcomput": 1147,
      "Ġcode": 1148,
      "though": 1149,
      "Ġassoci": 1150,
      "Ġdirectory": 1151,
      "Ġpossible": 1152,
      "Ġautomatic": 1153,
      "Ġnecessary": 1154,
      "oint": 1155,
      "Ġ++": 1156,
      "ink": 1157,
      "Ġsm": 1158,
      "Ġscope": 1159,
      "Ġinv": 1160,
      "itive": 1161,
      "Ġequal": 1162,
      "Ġval": 1163,
      "aced": 1164,
      "Ġsee": 1165,
      "Ġfollowing": 1166,
      "Ġdecimal": 1167,
      "Ġedition": 1168,
      "FILE": 1169,
      "IX": 1170,
      "lan": 1171,
      "the": 1172,
      "Ġ?": 1173,
      "Ġ\\": 1174,
      "Ġ_": 1175,
      "Ġpa": 1176,
      "Ġbreak": 1177,
      "Ġexp": 1178,
      "ures": 1179,
      "Ġspecifier": 1180,
      "Ġappl": 1181,
      "Ġhere": 1182,
      "Ġ>=": 1183,
      "Ġhowever": 1184,
      "Ġparenthes": 1185,
      "Ġcorresponding": 1186,
      "gal": 1187,
      "gative": 1188,
      "lle": 1189,
      "pp": 1190,
      "ĠV": 1191,
      "hed": 1192,
      "Ġbo": 1193,
      "iter": 1194,
      "itch": 1195,
      "ents": 1196,
      "ational": 1197,
      "ules": 1198,
      "Ġunget": 1199,
      "ĠStr": 1200,
      "Ġyear": 1201,
      "Ġcommon": 1202,
      "Ġ||": 1203,
      "Ġstored": 1204,
      "rough": 1205,
      "cision": 1206,
      "dig": 1207,
      "now": 1208,
      "ove": 1209,
      "inary": 1210,
      "ions": 1211,
      "left": 1212,
      "Ġmonth": 1213,
      "sequ": 1214,
      "igin": 1215,
      "ister": 1216,
      "plete": 1217,
      "Ġwhether": 1218,
      "Ġconsist": 1219,
      "\");": 1220,
      "If": 1221,
      "not": 1222,
      "Ġtable": 1223,
      "Ġover": 1224,
      "Ġcl": 1225,
      "Ġeas": 1226,
      "ctions": 1227,
      "Ġprodu": 1228,
      "abel": 1229,
      "los": 1230,
      "Ġwhite": 1231,
      "clus": 1232,
      "Ġrules": 1233,
      "Ġpreprocess": 1234,
      "Ġplace": 1235,
      "Ġchange": 1236,
      "Ġsmall": 1237,
      "ry": 1238,
      "ting": 1239,
      "ustr": 1240,
      "hell": 1241,
      "itted": 1242,
      "stfix": 1243,
      "Ġmin": 1244,
      "Ġmalloc": 1245,
      "Ġthrough": 1246,
      "Ġ*,": 1247,
      "ĠThere": 1248,
      "Ġgro": 1249,
      "izes": 1250,
      "Ġwhat": 1251,
      "Ġmak": 1252,
      "open": 1253,
      "Ġshort": 1254,
      "Ġnewline": 1255,
      "Ġinitializer": 1256,
      "qualifier": 1257,
      "Ġupper": 1258,
      "Ġincrement": 1259,
      "Ġrequire": 1260,
      "ĠFunctions": 1261,
      "NIX": 1262,
      "OR": 1263,
      "com": 1264,
      "ict": 1265,
      "valu": 1266,
      "Ġill": 1267,
      "attern": 1268,
      "Ġinclude": 1269,
      "urs": 1270,
      "Ġorigin": 1271,
      "Ġundefined": 1272,
      "ĠAs": 1273,
      "Ġprevious": 1274,
      "Ġotherwise": 1275,
      "Ġmade": 1276,
      "ĠPoint": 1277,
      "Ġsynt": 1278,
      "Ġtypedef": 1279,
      "Ġnamed": 1280,
      "[],": 1281,
      "ĠUNIX": 1282,
      "Ġbeginning": 1283,
      "Ġquot": 1284,
      "Ġtaken": 1285,
      "INE": 1286,
      "iteral": 1287,
      "digit": 1288,
      "Ġillustr": 1289,
      "],": 1290,
      "Ġtag": 1291,
      "Ġag": 1292,
      "reat": 1293,
      "Ġdone": 1294,
      "Ġmight": 1295,
      "Ġexist": 1296,
      "There": 1297,
      "dex": 1298,
      "pect": 1299,
      "Ġusing": 1300,
      "Ġatof": 1301,
      "Ġstrings": 1302,
      "Ġdefinitions": 1303,
      "Ġcommand": 1304,
      "Ġgeneral": 1305,
      "Ġdescribed": 1306,
      "ĠANSI": 1307,
      "An": 1308,
      "LINE": 1309,
      "Ġ8": 1310,
      "Ġpush": 1311,
      "Ġpattern": 1312,
      "Ġdist": 1313,
      "Ġstack": 1314,
      "Ġdepend": 1315,
      "Ġleast": 1316,
      "Ġpresent": 1317,
      "Ġprecision": 1318,
      "Ġprinted": 1319,
      "ange": 1320,
      "argv": 1321,
      "Ġfollowed": 1322,
      "Ġcompiler": 1323,
      "Ġspecific": 1324,
      "Ġlocal": 1325,
      "Ġprovides": 1326,
      "Ġoptional": 1327,
      "';": 1328,
      ",''": 1329,
      "ON": 1330,
      "day": 1331,
      "iate": 1332,
      "ield": 1333,
      "uch": 1334,
      "Ġ/": 1335,
      "ĠG": 1336,
      "Ġoften": 1337,
      "Ġmulti": 1338,
      "uses": 1339,
      "Ġunder": 1340,
      "ider": 1341,
      "Ġgetch": 1342,
      "Ġenough": 1343,
      "Ġtrans": 1344,
      "ĠMAX": 1345,
      "SIZ": 1346,
      "Ġreplace": 1347,
      "Ġroutine": 1348,
      "Ġseparate": 1349,
      "Ġungetch": 1350,
      "Ġpreprocessor": 1351,
      "gical": 1352,
      "ier": 1353,
      "mot": 1354,
      "ves": 1355,
      "Ġq": 1356,
      "rent": 1357,
      "ather": 1358,
      "Ġcur": 1359,
      "Ġfre": 1360,
      "Ġbig": 1361,
      "Ġnow": 1362,
      "ently": 1363,
      "Ġstat": 1364,
      "Ġlim": 1365,
      "Ġless": 1366,
      "ecimal": 1367,
      "Ġpop": 1368,
      "Ġpromot": 1369,
      "Ġalread": 1370,
      "ĠFILE": 1371,
      "Ġspecial": 1372,
      "Ġwell": 1373,
      "Ġ20": 1374,
      "Ġsizeof": 1375,
      "Ġtrue": 1376,
      "ails": 1377,
      "Ġdescript": 1378,
      "Ġmany": 1379,
      "Ġexecuted": 1380,
      "Ġappears": 1381,
      "Ġprecedence": 1382,
      "Ġdiscussed": 1383,
      "Ġgroup": 1384,
      "Ġalready": 1385,
      "ER": 1386,
      "fers": 1387,
      "gn": 1388,
      "node": 1389,
      "ra": 1390,
      "ually": 1391,
      "ways": 1392,
      "Ġes": 1393,
      "Ġblan": 1394,
      "ities": 1395,
      "Ġtoo": 1396,
      "Ġnorm": 1397,
      "Ġdiv": 1398,
      "Ġliteral": 1399,
      "ift": 1400,
      "Ġonce": 1401,
      "acter": 1402,
      "Ġreturning": 1403,
      "Ġuses": 1404,
      "ilar": 1405,
      "Ġlead": 1406,
      "Ġalways": 1407,
      "Ġoutside": 1408,
      "Ġmod": 1409,
      "pendix": 1410,
      "cript": 1411,
      "Ġconversions": 1412,
      "Ġoccurs": 1413,
      "Ġkeyword": 1414,
      "Ġmeans": 1415,
      "Ġexplicitly": 1416,
      "Ġregister": 1417,
      "Ġdefault": 1418,
      "ĠSection": 1419,
      "Ġparentheses": 1420,
      "Ġmakes": 1421,
      "Ġcurrent": 1422,
      "AN": 1423,
      "bit": 1424,
      "ca": 1425,
      "ences": 1426,
      "Ġfahr": 1427,
      "Ġbase": 1428,
      "Ġstep": 1429,
      "Ġlabel": 1430,
      "rodu": 1431,
      "Ġrestr": 1432,
      "Ġthus": 1433,
      "ified": 1434,
      "Ġ<=": 1435,
      "Ġlook": 1436,
      "Ġcompar": 1437,
      "Ġidentifiers": 1438,
      "Ġinitializers": 1439,
      "Ġ31": 1440,
      "Ġspecifies": 1441,
      "Ġwords": 1442,
      "Ġspecify": 1443,
      "Ġdeterm": 1444,
      "Ġperform": 1445,
      "Ġconverts": 1446,
      "Ġbraces": 1447,
      "Ġswitch": 1448,
      "Ġtemp": 1449,
      "mbol": 1450,
      "As": 1451,
      "dcl": 1452,
      "dir": 1453,
      "ek": 1454,
      "sort": 1455,
      "til": 1456,
      "time": 1457,
      "ĠJ": 1458,
      "here": 1459,
      "ens": 1460,
      "Ġoff": 1461,
      "Ġwere": 1462,
      "ention": 1463,
      "Ġconstr": 1464,
      "ify": 1465,
      "Ġunary": 1466,
      "[])": 1467,
      "ĠUn": 1468,
      "Ġoccurren": 1469,
      "Ġrepresentation": 1470,
      "Ġroutines": 1471,
      "Ġremain": 1472,
      "ĠOperators": 1473,
      "Ġapplied": 1474,
      "hing": 1475,
      "no": 1476,
      "ppendix": 1477,
      "sy": 1478,
      "script": 1479,
      "xad": 1480,
      "stream": 1481,
      "Ġmid": 1482,
      "Ġmuch": 1483,
      "unsigned": 1484,
      "Ġlink": 1485,
      "search": 1486,
      "Ġbeing": 1487,
      "ison": 1488,
      "Ġsearch": 1489,
      "Ġcalling": 1490,
      "Ġnumer": 1491,
      "++;": 1492,
      "Ġappro": 1493,
      "old": 1494,
      "Ġconven": 1495,
      "Ġsignal": 1496,
      "Ġreplaced": 1497,
      "Ġmatch": 1498,
      "Ġknow": 1499,
      "caten": 1500,
      "Ġenumeration": 1501,
      "ĠStruct": 1502,
      "clusive": 1503,
      "hello": 1504,
      "ĠPointers": 1505,
      "Ġreplacement": 1506,
      "xadecimal": 1507,
      "])": 1508,
      "][": 1509,
      "ck": 1510,
      "ius": 1511,
      "right": 1512,
      "tes": 1513,
      "tem": 1514,
      "vi": 1515,
      "Ġtree": 1516,
      "Ġtak": 1517,
      "Ġcal": 1518,
      "art": 1519,
      "Ġflag": 1520,
      "Ġexpr": 1521,
      "Ġ*)": 1522,
      "omet": 1523,
      "Ġunit": 1524,
      "Ġuntil": 1525,
      "imes": 1526,
      "idth": 1527,
      "ĠCom": 1528,
      "Ġrather": 1529,
      "ested": 1530,
      "Ġothers": 1531,
      "ĠWhen": 1532,
      "Ġadj": 1533,
      "Ġsymbol": 1534,
      "Ġrecurs": 1535,
      "Ġclass": 1536,
      "losed": 1537,
      "value": 1538,
      "DI": 1539,
      "case": 1540,
      "kip": 1541,
      "sius": 1542,
      "version": 1543,
      "where": 1544,
      "Ġtnode": 1545,
      "Ġbas": 1546,
      "Ġem": 1547,
      "ics": 1548,
      "ific": 1549,
      "pressions": 1550,
      "pty": 1551,
      "ization": 1552,
      "ident": 1553,
      "Ġcop": 1554,
      "Ġsuff": 1555,
      "Ġnegative": 1556,
      "Ġcontin": 1557,
      "ively": 1558,
      "Ġnumbers": 1559,
      "ternal": 1560,
      "Ġcontaining": 1561,
      "listopt": 1562,
      "Ġsubsequ": 1563,
      "Ġabove": 1564,
      "Ġbegins": 1565,
      "pointer": 1566,
      "Ġargv": 1567,
      "Ġincluding": 1568,
      "Ġswap": 1569,
      "Ġcomparison": 1570,
      "--": 1571,
      "KE": 1572,
      "fd": 1573,
      "float": 1574,
      "ie": 1575,
      "red": 1576,
      "Ġsum": 1577,
      "style": 1578,
      "Ġwidth": 1579,
      "Ġtop": 1580,
      "Ġtoget": 1581,
      "Ġpostfix": 1582,
      "Ġintrodu": 1583,
      "Ġcomplete": 1584,
      "Ġ17": 1585,
      "itional": 1586,
      "ility": 1587,
      "string": 1588,
      "Ġsup": 1589,
      "ĠEach": 1590,
      "ĠOn": 1591,
      "ĠBut": 1592,
      "Ġmode": 1593,
      "Ġuseful": 1594,
      "plicated": 1595,
      "Ġsubscript": 1596,
      "())": 1597,
      "ĠRe": 1598,
      "Ġexecution": 1599,
      "Ġpropert": 1600,
      "Ġstrcmp": 1601,
      "Ġpract": 1602,
      "ĠThus": 1603,
      "Ġconstru": 1604,
      "Ġconvenient": 1605,
      "identifier": 1606,
      "Ġtogether": 1607,
      "It": 1608,
      "nam": 1609,
      "port": 1610,
      "tain": 1611,
      "Ġside": 1612,
      "Ġscanf": 1613,
      "Ġsomet": 1614,
      "Ġold": 1615,
      "Ġign": 1616,
      "ature": 1617,
      "ctal": 1618,
      "Ġlat": 1619,
      "round": 1620,
      "ecause": 1621,
      "Ġva": 1622,
      "haracter": 1623,
      "Ġconcaten": 1624,
      "Ġgu": 1625,
      "imens": 1626,
      "Ġ18": 1627,
      "verse": 1628,
      "ples": 1629,
      "Ġcontents": 1630,
      "ĠOther": 1631,
      "ĠOne": 1632,
      "Ġadv": 1633,
      "Ġassigned": 1634,
      "Ġlongest": 1635,
      "Ġhexadecimal": 1636,
      "Ġinitialization": 1637,
      "Ġkeytab": 1638,
      "Ġintern": 1639,
      "ĠExpressions": 1640,
      "Ġconsider": 1641,
      "Ġworld": 1642,
      "ertain": 1643,
      "specifier": 1644,
      "ĠArray": 1645,
      "Ġbook": 1646,
      "Ġillustrate": 1647,
      "Ġleading": 1648,
      "Ġnumeric": 1649,
      "':": 1650,
      ".,": 1651,
      ".''": 1652,
      "13": 1653,
      "Chapter": 1654,
      "].": 1655,
      "jmp": 1656,
      "lation": 1657,
      "mar": 1658,
      "tree": 1659,
      "typ": 1660,
      "Ġ,": 1661,
      "Ġam": 1662,
      "arant": 1663,
      "Ġfopen": 1664,
      "Ġbinary": 1665,
      "ctype": 1666,
      "aning": 1667,
      "Ġlvalue": 1668,
      "Ġhigh": 1669,
      "Ġhold": 1670,
      "Ġprot": 1671,
      "lose": 1672,
      "Ġnotation": 1673,
      "Ġcomplicated": 1674,
      "Ġoperation": 1675,
      "Ġoperating": 1676,
      "ages": 1677,
      "Ġprints": 1678,
      "Ġcauses": 1679,
      "Ġidentical": 1680,
      "Ġnode": 1681,
      "Ġreading": 1682,
      "pose": 1683,
      "creen": 1684,
      "Ġstrcpy": 1685,
      "Ġassociated": 1686,
      "Ġsyntax": 1687,
      "Ġqsort": 1688,
      "Ġlinkage": 1689,
      "Ġguarant": 1690,
      "Ġguarante": 1691,
      ")(": 1692,
      "When": 1693,
      "ches": 1694,
      "declare": 1695,
      "dimens": 1696,
      "file": 1697,
      "mat": 1698,
      "max": 1699,
      "ound": 1700,
      "sh": 1701,
      "ters": 1702,
      "ving": 1703,
      "heck": 1704,
      "Ġom": 1705,
      "Ġear": 1706,
      "seek": 1707,
      "Ġexit": 1708,
      "urther": 1709,
      "oto": 1710,
      "Ġbytes": 1711,
      "add": 1712,
      "ĠAl": 1713,
      "ases": 1714,
      "Ġ16": 1715,
      "Ġ100": 1716,
      "very": 1717,
      "alls": 1718,
      "Ġcannot": 1719,
      "elsius": 1720,
      "ording": 1721,
      "Ġshift": 1722,
      "lineptr": 1723,
      "Ġenv": 1724,
      "pos": 1725,
      "Ġblocks": 1726,
      "Ġneeded": 1727,
      "Ġinstance": 1728,
      "Ġpositive": 1729,
      "Ġprovide": 1730,
      "Ġtake": 1731,
      "Ġrelational": 1732,
      "Ġkind": 1733,
      "Ġcreate": 1734,
      "Ġputchar": 1735,
      "Ġstdout": 1736,
      "Ġinvol": 1737,
      "Ġdescriptor": 1738,
      "Ġtakes": 1739,
      "Ġempty": 1740,
      "Ġignore": 1741,
      "ĠOtherwise": 1742,
      "dimensional": 1743,
      "cond": 1744,
      "direct": 1745,
      "fahr": 1746,
      "iss": 1747,
      "lp": 1748,
      "long": 1749,
      "our": 1750,
      "scanf": 1751,
      "tc": 1752,
      "ud": 1753,
      "Ġ)": 1754,
      "Ġac": 1755,
      "Ġour": 1756,
      "Ġcertain": 1757,
      "Ġpi": 1758,
      "Ġbod": 1759,
      "Ġetc": 1760,
      "union": 1761,
      "Ġreverse": 1762,
      "utput": 1763,
      "Ġproble": 1764,
      "Ġstrlen": 1765,
      "vel": 1766,
      "Ġwhose": 1767,
      "ĠAppendix": 1768,
      "Ġprogramm": 1769,
      "ĠSince": 1770,
      "Ġcolle": 1771,
      "Ġalthough": 1772,
      "Ġprecise": 1773,
      "Ġ--": 1774,
      "ccess": 1775,
      "Ġassign": 1776,
      "Ġhelp": 1777,
      "Ġreads": 1778,
      "count": 1779,
      "Ġunions": 1780,
      "ĠHow": 1781,
      "Ġargc": 1782,
      "constant": 1783,
      "Ġpassed": 1784,
      "Ġletter": 1785,
      "Ġlarge": 1786,
      "cape": 1787,
      "Ġproblem": 1788,
      "Since": 1789,
      "We": 1790,
      "free": 1791,
      "ger": 1792,
      "nc": 1793,
      "og": 1794,
      "vail": 1795,
      "};": 1796,
      "ĠK": 1797,
      "Ġhar": 1798,
      "Ġqual": 1799,
      "Ġsa": 1800,
      "Ġsizes": 1801,
      "Ġcs": 1802,
      "Ġcheck": 1803,
      "Ġindex": 1804,
      "Ġdir": 1805,
      "Ġrect": 1806,
      "Ġrefers": 1807,
      "ech": 1808,
      "Ġthing": 1809,
      "Ġthose": 1810,
      "Ġbeha": 1811,
      "uring": 1812,
      "omes": 1813,
      "Ġgr": 1814,
      "ash": 1815,
      "Ġ19": 1816,
      "eclarations": 1817,
      "stract": 1818,
      "Ġrun": 1819,
      "ĠOutput": 1820,
      "Ġhash": 1821,
      "Ġenc": 1822,
      "Ġexamples": 1823,
      "Ġparts": 1824,
      "ĠInput": 1825,
      "Ġadded": 1826,
      "Ġaddition": 1827,
      "Ġbecomes": 1828,
      "ipul": 1829,
      "Ġcompilers": 1830,
      "Ġchanged": 1831,
      "Ġchanges": 1832,
      "Ġmacros": 1833,
      "Ġmanipul": 1834,
      "Ġdetails": 1835,
      "Ġsimilar": 1836,
      "Ġeffects": 1837,
      "Ġincluded": 1838,
      "Ġhandle": 1839,
      "specifiers": 1840,
      "ĠConversion": 1841,
      "Ġpair": 1842,
      "llegal": 1843,
      "Ġeasy": 1844,
      "Ġoriginal": 1845,
      "Ġdistin": 1846,
      "ĠMAXLINE": 1847,
      "Ġescape": 1848,
      "Ġperformed": 1849,
      "Ġproperties": 1850,
      "Ġinternal": 1851,
      "Ġprotot": 1852,
      "Ġbody": 1853,
      "vailable": 1854,
      "',": 1855,
      "();": 1856,
      "));": 1857,
      "20": 1858,
      "32": 1859,
      "YS": 1860,
      "ia": 1861,
      "sw": 1862,
      "Ġ9": 1863,
      "Ġu": 1864,
      "Ġturn": 1865,
      "insearch": 1866,
      "Ġavailable": 1867,
      "Ġskip": 1868,
      "Ġscreen": 1869,
      "Ġct": 1870,
      "Ġchapter": 1871,
      "enc": 1872,
      "array": 1873,
      "Ġfar": 1874,
      "Ġinside": 1875,
      "Ġanal": 1876,
      "static": 1877,
      "Ġwide": 1878,
      "Ġstyle": 1879,
      "Ġconf": 1880,
      "isible": 1881,
      "Ġfilen": 1882,
      "Ġgreat": 1883,
      "ilities": 1884,
      "Ġaltern": 1885,
      "Ġassum": 1886,
      "Ġimport": 1887,
      "ameter": 1888,
      "aph": 1889,
      "Ġ+=": 1890,
      "Ġsequences": 1891,
      "parameter": 1892,
      "priate": 1893,
      "Ġevaluation": 1894,
      "Ġmeaning": 1895,
      "Ġsimple": 1896,
      "Ġdigit": 1897,
      "Ġrequest": 1898,
      "Ġdiscussion": 1899,
      "Ġsorting": 1900,
      "Ġentry": 1901,
      "ĠStandard": 1902,
      "Ġconditional": 1903,
      "Ġcompared": 1904,
      "ĠVari": 1905,
      "Ġtranslation": 1906,
      "Ġnormally": 1907,
      "sys": 1908,
      "ĠStructures": 1909,
      "Ġcalc": 1910,
      "Ġsubsequent": 1911,
      "ĠArrays": 1912,
      "Ġimportant": 1913,
      "AR": 1914,
      "Al": 1915,
      "UF": 1916,
      "cs": 1917,
      "cal": 1918,
      "flow": 1919,
      "ount": 1920,
      "ply": 1921,
      "Ġact": 1922,
      "Ġoctal": 1923,
      "atur": 1924,
      "atis": 1925,
      "Ġcat": 1926,
      "Ġcle": 1927,
      "Ġfd": 1928,
      "Ġpt": 1929,
      "Ġport": 1930,
      "Ġnull": 1931,
      "ution": 1932,
      "ĠThen": 1933,
      "ĠThese": 1934,
      "extern": 1935,
      "ĠCharacter": 1936,
      "essage": 1937,
      "Ġuser": 1938,
      "ild": 1939,
      "Ġsection": 1940,
      "Ġlegal": 1941,
      "Ġgetc": 1942,
      "Ġprinting": 1943,
      "iron": 1944,
      "plicative": 1945,
      "white": 1946,
      "argc": 1947,
      "format": 1948,
      "Ġsystems": 1949,
      "ailing": 1950,
      "Ġtokens": 1951,
      "Ġinterpre": 1952,
      "Ġterminates": 1953,
      "Ġpermitted": 1954,
      "Ġentire": 1955,
      "Ġshown": 1956,
      "Ġletters": 1957,
      "Ġproduce": 1958,
      "Ġrequired": 1959,
      "SIZE": 1960,
      "Ġblanks": 1961,
      "AND": 1962,
      "Ġrestri": 1963,
      "Ġappropriate": 1964,
      "vior": 1965,
      "Ġflags": 1966,
      "Ġsuffix": 1967,
      "typedef": 1968,
      "Ġomitted": 1969,
      "Ġenviron": 1970,
      "Ġbehavior": 1971,
      "Ġanalog": 1972,
      "Ġcalcul": 1973,
      "atisf": 1974,
      "(*": 1975,
      "17": 1976,
      ">.": 1977,
      "dp": 1978,
      "equal": 1979,
      "gre": 1980,
      "lier": 1981,
      "non": 1982,
      "ner": 1983,
      "nect": 1984,
      "ser": 1985,
      "Ġ[": 1986,
      "Ġz": 1987,
      "Ġsatisf": 1988,
      "Ġillegal": 1989,
      "Ġcare": 1990,
      "Ġfac": 1991,
      "Ġfsize": 1992,
      "Ġfra": 1993,
      "itu": 1994,
      "Ġnlines": 1995,
      "Ġdcl": 1996,
      "Ġthir": 1997,
      "Ġthough": 1998,
      "Ġexpect": 1999,
      "Ġconnect": 2000,
      "Ġ*);": 2001,
      "press": 2002,
      "atever": 2003,
      "ĠAdd": 2004,
      "ason": 2005,
      "Ġ12": 2006,
      "Ġusually": 2007,
      "thing": 2008,
      "ĠWith": 2009,
      "Ġlonger": 2010,
      "ĠDeclarations": 2011,
      "Ġspecifiers": 2012,
      "Ġfollows": 2013,
      "Ġsignific": 2014,
      "Ġcompiled": 2015,
      "Ġdiscard": 2016,
      "Ġquant": 2017,
      "Ġ...)": 2018,
      "Ġdefine": 2019,
      "ypes": 2020,
      "Ġgood": 2021,
      "Ġconsists": 2022,
      "Ġagain": 2023,
      "Ġdepends": 2024,
      "ONG": 2025,
      "Ġlimit": 2026,
      "Ġpromoted": 2027,
      "Ġliterals": 2028,
      "Ġcontinue": 2029,
      "Ġpractice": 2030,
      "Ġearlier": 2031,
      "Ġthird": 2032,
      "AL": 2033,
      "EN": 2034,
      "br": 2035,
      "back": 2036,
      "cmp": 2037,
      "dinary": 2038,
      "flag": 2039,
      "field": 2040,
      "lim": 2041,
      "matic": 2042,
      "ob": 2043,
      "ped": 2044,
      "rand": 2045,
      "tp": 2046,
      "year": 2047,
      "ĠY": 2048,
      "Ġ~": 2049,
      "Ġtm": 2050,
      "ery": 2051,
      "Ġser": 2052,
      "Ġfact": 2053,
      "Ġinode": 2054,
      "Ġincom": 2055,
      "Ġduring": 2056,
      "Ġevery": 2057,
      "unary": 2058,
      "Ġstop": 2059,
      "Ġrest": 2060,
      "Ġreason": 2061,
      "acent": 2062,
      "Ġones": 2063,
      "lower": 2064,
      "logical": 2065,
      "que": 2066,
      "Ġwhatever": 2067,
      "asing": 2068,
      "Ġ14": 2069,
      "Ġoperations": 2070,
      "Ġdeal": 2071,
      "Ġcol": 2072,
      "ended": 2073,
      "Ġvarious": 2074,
      "Ġlevel": 2075,
      "Ġalignment": 2076,
      "ially": 2077,
      "ĠTo": 2078,
      "elif": 2079,
      "Ġcontext": 2080,
      "Ġgetword": 2081,
      "irection": 2082,
      "opy": 2083,
      "gets": 2084,
      "Ġtrailing": 2085,
      "which": 2086,
      "Ġimplementations": 2087,
      "Ġdifference": 2088,
      "Ġquest": 2089,
      "Ġdecre": 2090,
      "Ġaccessed": 2091,
      "Ġsimpl": 2092,
      "Ġtabs": 2093,
      "Ġmaximum": 2094,
      "ĠState": 2095,
      "Ġstdin": 2096,
      "Ġtemper": 2097,
      "ĠThat": 2098,
      "Ġspecification": 2099,
      "Ġoccurrence": 2100,
      "DIR": 2101,
      "Ġpiec": 2102,
      "Ġqualifiers": 2103,
      "Ġenvironment": 2104,
      "Ġfraction": 2105,
      "15": 2106,
      "CI": 2107,
      "Each": 2108,
      "For": 2109,
      "base": 2110,
      "core": 2111,
      "fill": 2112,
      "face": 2113,
      "min": 2114,
      "med": 2115,
      "mode": 2116,
      "oi": 2117,
      "ps": 2118,
      "sign": 2119,
      "ule": 2120,
      "write": 2121,
      "yond": 2122,
      "Ġtre": 2123,
      "initial": 2124,
      "index": 2125,
      "Ġaround": 2126,
      "onent": 2127,
      "Ġsem": 2128,
      "atile": 2129,
      "Ġcar": 2130,
      "Ġcases": 2131,
      "Ġfp": 2132,
      "Ġfin": 2133,
      "Ġfurther": 2134,
      "Ġpus": 2135,
      "stant": 2136,
      "Ġwant": 2137,
      "Ġnested": 2138,
      "Ġnatur": 2139,
      "Ġdid": 2140,
      "Ġmere": 2141,
      "ammar": 2142,
      "ute": 2143,
      "ick": 2144,
      "Ġbeyond": 2145,
      "Ġ*.": 2146,
      "igu": 2147,
      "igher": 2148,
      "Ġunless": 2149,
      "expr": 2150,
      "Ġnothing": 2151,
      "ĠAll": 2152,
      "ĠInt": 2153,
      "tered": 2154,
      "gument": 2155,
      "chang": 2156,
      "Ġusual": 2157,
      "ĠSy": 2158,
      "Ġsupp": 2159,
      "Ġsuccess": 2160,
      "ĠFile": 2161,
      "Ġatoi": 2162,
      "Ġrule": 2163,
      "Ġgetint": 2164,
      "Ġobtain": 2165,
      "Ġforms": 2166,
      "ĠBecause": 2167,
      "Ġ##": 2168,
      "Ġcomma": 2169,
      "Ġloops": 2170,
      "Ġaccording": 2171,
      "Ġplaced": 2172,
      "Ġbetter": 2173,
      "eader": 2174,
      "Ġincrements": 2175,
      "Ġwork": 2176,
      "Ġmatter": 2177,
      "Ġterminated": 2178,
      "Ġproperly": 2179,
      "Ġfields": 2180,
      "negative": 2181,
      "Ġbrace": 2182,
      "Ġtests": 2183,
      "Ġincludes": 2184,
      "Ġrecord": 2185,
      "ĠAny": 2186,
      "Ġpreceded": 2187,
      "Ġdeclarators": 2188,
      "ĠSee": 2189,
      "Ġexpand": 2190,
      "Ġbound": 2191,
      "comp": 2192,
      "Ġunderst": 2193,
      "Ġfrequ": 2194,
      "Ġstatus": 2195,
      "temp": 2196,
      "Ġbasic": 2197,
      "Ġconstruction": 2198,
      "maximum": 2199,
      "Ġcollect": 2200,
      "echan": 2201,
      "Ġprototype": 2202,
      "Ġgreater": 2203,
      "Ġcalculator": 2204,
      "Ġincomplete": 2205,
      "mediate": 2206,
      "14": 2207,
      ">,": 2208,
      "LT": 2209,
      "TE": 2210,
      "cnt": 2211,
      "fe": 2212,
      "fil": 2213,
      "gor": 2214,
      "gan": 2215,
      "sl": 2216,
      "ws": 2217,
      "âĢ": 2218,
      "ĠâĢ": 2219,
      "ined": 2220,
      "Ġsur": 2221,
      "Ġow": 2222,
      "Ġindependent": 2223,
      "alk": 2224,
      "Ġbinsearch": 2225,
      "Ġndigit": 2226,
      "Ġmention": 2227,
      "Ġmechan": 2228,
      "Ġstar": 2229,
      "Ġrev": 2230,
      "ames": 2231,
      "icient": 2232,
      "otice": 2233,
      "ish": 2234,
      "Ġarr": 2235,
      "Ġarbit": 2236,
      "Ġhigher": 2237,
      "Ġpointed": 2238,
      "ĠThey": 2239,
      "Ġgoto": 2240,
      "ides": 2241,
      "Ġcomb": 2242,
      "Ġwho": 2243,
      "change": 2244,
      "ared": 2245,
      "Ġrand": 2246,
      "Ġrange": 2247,
      "Ġprefix": 2248,
      "Ġallow": 2249,
      "Ġdefines": 2250,
      "ĠOR": 2251,
      "ĠPre": 2252,
      "Ġenum": 2253,
      "Ġimpl": 2254,
      "Ġimmediate": 2255,
      "Ġreser": 2256,
      "olatile": 2257,
      "Ġ>>": 2258,
      "Ġsubtr": 2259,
      "Ġmemory": 2260,
      "assignment": 2261,
      "ĠLo": 2262,
      "Ġerrors": 2263,
      "Ġabs": 2264,
      "Ġdesign": 2265,
      "Ġkeep": 2266,
      "Ġnone": 2267,
      "ansion": 2268,
      "Ġallocbuf": 2269,
      "Ġrepresented": 2270,
      "Ġgenerally": 2271,
      "ĠExternal": 2272,
      "MAXLINE": 2273,
      "Ġlanguages": 2274,
      "Ġcorrect": 2275,
      "Ġmachines": 2276,
      "Ġpossib": 2277,
      "Ġlocation": 2278,
      "Ġputc": 2279,
      "Ġshows": 2280,
      "Ġprovided": 2281,
      "Ġfew": 2282,
      "Ġlarger": 2283,
      "sets": 2284,
      "Ġvalid": 2285,
      "Ġeasier": 2286,
      "Ġquotes": 2287,
      "Ġblank": 2288,
      "Ġkeywords": 2289,
      "Ġoccurrences": 2290,
      "Ġsymbolic": 2291,
      "KEYS": 2292,
      "named": 2293,
      "Ġsometimes": 2294,
      "Ġignored": 2295,
      "Ġhard": 2296,
      "Ġdistinct": 2297,
      "Ġfilename": 2298,
      "Although": 2299,
      "Ġclear": 2300,
      "Ġrestrictions": 2301,
      "Ġanalogous": 2302,
      "Ġsignificant": 2303,
      "Ġmerely": 2304,
      "ĠâĢĵ": 2305,
      "'.": 2306,
      "31": 2307,
      "IF": 2308,
      "Let": 2309,
      "SCI": 2310,
      "ched": 2311,
      "copy": 2312,
      "ian": 2313,
      "ling": 2314,
      "main": 2315,
      "mod": 2316,
      "most": 2317,
      "numer": 2318,
      "oo": 2319,
      "pa": 2320,
      "pec": 2321,
      "qr": 2322,
      "ub": 2323,
      "inally": 2324,
      "onents": 2325,
      "rel": 2326,
      "Ġsays": 2327,
      "Ġsitu": 2328,
      "Ġop": 2329,
      "Ġip": 2330,
      "ename": 2331,
      "alp": 2332,
      "Ġwar": 2333,
      "Ġnc": 2334,
      "unc": 2335,
      "Ġstill": 2336,
      "intain": 2337,
      "Ġrepe": 2338,
      "Ġbelow": 2339,
      "Ġvisible": 2340,
      "Ġvery": 2341,
      "Ġexten": 2342,
      "urpose": 2343,
      "Ġordinary": 2344,
      "Ġstrindex": 2345,
      "peri": 2346,
      "ceed": 2347,
      "imary": 2348,
      "Ġcomments": 2349,
      "ĠASCI": 2350,
      "ascal": 2351,
      "agn": 2352,
      "Ġdele": 2353,
      "ĠSo": 2354,
      "Ġcaller": 2355,
      "Ġalong": 2356,
      "ĠFort": 2357,
      "Ġattem": 2358,
      "ives": 2359,
      "ired": 2360,
      "Ġmaintain": 2361,
      "Ġcomponents": 2362,
      "irst": 2363,
      "Ġapply": 2364,
      "Ġinitialize": 2365,
      "Ġ22": 2366,
      "Ġens": 2367,
      "Ġfour": 2368,
      "default": 2369,
      "postfix": 2370,
      "Ġ30": 2371,
      "Ġchild": 2372,
      "Ġbecome": 2373,
      "Ġversions": 2374,
      "Ġheaders": 2375,
      "Ġgives": 2376,
      "Ġterminating": 2377,
      "Ġrelated": 2378,
      "Ġremo": 2379,
      "Ġindicates": 2380,
      "Ġseparated": 2381,
      "Ġstderr": 2382,
      "ĠConstant": 2383,
      "ully": 2384,
      "Ġdaytab": 2385,
      "Ġapplies": 2386,
      "ĠString": 2387,
      "Ġoverflow": 2388,
      "Ġminimum": 2389,
      "Ġnormal": 2390,
      "Ġlabels": 2391,
      "Ġrestrict": 2392,
      "Ġoffset": 2393,
      "Ġadjust": 2394,
      "Ġadjacent": 2395,
      "Ġrecursive": 2396,
      "Ġcopies": 2397,
      "Ġcopied": 2398,
      "Ġlater": 2399,
      "Ġaccept": 2400,
      "ĠHowever": 2401,
      "Ġgrammar": 2402,
      "ĠConversions": 2403,
      "Ġpieces": 2404,
      "Ġtreated": 2405,
      "Ġnatural": 2406,
      "filename": 2407,
      "Ġarbitrary": 2408,
      "qrt": 2409,
      "Ġextens": 2410,
      "ĠASCII": 2411,
      "Ġattempt": 2412,
      "((": 2413,
      "18": 2414,
      "19": 2415,
      "==": 2416,
      "AD": 2417,
      "AT": 2418,
      "CH": 2419,
      "MIN": 2420,
      "OC": 2421,
      "WOR": 2422,
      "by": 2423,
      "close": 2424,
      "dle": 2425,
      "ell": 2426,
      "function": 2427,
      "lib": 2428,
      "lush": 2429,
      "mem": 2430,
      "num": 2431,
      "ran": 2432,
      "va": 2433,
      "with": 2434,
      "Ġerr": 2435,
      "Ġtreat": 2436,
      "Ġtimes": 2437,
      "hematic": 2438,
      "ons": 2439,
      "erc": 2440,
      "ered": 2441,
      "eration": 2442,
      "Ġide": 2443,
      "atures": 2444,
      "enum": 2445,
      "Ġfr": 2446,
      "Ġfprintf": 2447,
      "alse": 2448,
      "Ġbu": 2449,
      "stit": 2450,
      "Ġdon": 2451,
      "Ġmar": 2452,
      "ross": 2453,
      "Ġvers": 2454,
      "Ġexact": 2455,
      "Ġextr": 2456,
      "ets": 2457,
      "Ġitem": 2458,
      "Ġiteration": 2459,
      "Ġorgan": 2460,
      "ably": 2461,
      "Ġuni": 2462,
      "Ġunnamed": 2463,
      "imilar": 2464,
      "puts": 2465,
      "Ġspl": 2466,
      "Ġseen": 2467,
      "Ġlea": 2468,
      "Ġleap": 2469,
      "Ġnever": 2470,
      "ĠType": 2471,
      "Ġprefer": 2472,
      "Ġgetop": 2473,
      "Ġcompile": 2474,
      "Ġcompound": 2475,
      "itialization": 2476,
      "Ġyield": 2477,
      "Ġyour": 2478,
      "ĠPascal": 2479,
      "Ġshor": 2480,
      "'',": 2481,
      "Ġsets": 2482,
      "getchar": 2483,
      "Ġresulting": 2484,
      "Ġ\"%": 2485,
      "Ġends": 2486,
      "Ġ32": 2487,
      "Ġ300": 2488,
      "Ġcho": 2489,
      "LLOC": 2490,
      "hapters": 2491,
      "prog": 2492,
      "Ġdoesn": 2493,
      "Ġways": 2494,
      "Ġdirectly": 2495,
      "part": 2496,
      "Ġcompilation": 2497,
      "Ġallocp": 2498,
      "Ġallocator": 2499,
      "Ġefficient": 2500,
      "Ġincreasing": 2501,
      "sizeof": 2502,
      "Ġ},": 2503,
      "Ġstrcat": 2504,
      "token": 2505,
      "Ġindicate": 2506,
      "Ġfewer": 2507,
      "Ġcomputation": 2508,
      "Ġexponent": 2509,
      "sequence": 2510,
      "Ġpreviously": 2511,
      "Ġsyntact": 2512,
      "Ġquoted": 2513,
      "Ġtags": 2514,
      "Ġexisting": 2515,
      "Ġpromotion": 2516,
      "Ġlooks": 2517,
      "Ġdetermine": 2518,
      "Ġdetermines": 2519,
      "Ġrecursively": 2520,
      "Ġamong": 2521,
      "declares": 2522,
      "Ġassignments": 2523,
      "Ġenclosed": 2524,
      "ĠVariables": 2525,
      "Ġsatisfied": 2526,
      "Ġfacilities": 2527,
      "ĠStatements": 2528,
      "Ġtemperature": 2529,
      "fillbuf": 2530,
      "Ġfinal": 2531,
      "Ġpushed": 2532,
      "changed": 2533,
      "Ġunderstand": 2534,
      "Ġmentioned": 2535,
      "Ġsubtract": 2536,
      "WORD": 2537,
      "Ġexactly": 2538,
      "100": 2539,
      "67": 2540,
      "AB": 2541,
      "DR": 2542,
      "RONG": 2543,
      "]);": 2544,
      "bits": 2545,
      "calls": 2546,
      "dup": 2547,
      "found": 2548,
      "gg": 2549,
      "gate": 2550,
      "ission": 2551,
      "mt": 2552,
      "nl": 2553,
      "np": 2554,
      "ned": 2555,
      "next": 2556,
      "operator": 2557,
      "tle": 2558,
      "then": 2559,
      "writ": 2560,
      "Ġ[]": 2561,
      "Ġsl": 2562,
      "Ġsay": 2563,
      "Ġid": 2564,
      "Ġcelsius": 2565,
      "Ġfalse": 2566,
      "Ġpadd": 2567,
      "Ġinner": 2568,
      "Ġbp": 2569,
      "Ġiss": 2570,
      "entr": 2571,
      "entype": 2572,
      "ingu": 2573,
      "unic": 2574,
      "Ġstart": 2575,
      "Ġred": 2576,
      "Ġreal": 2577,
      "Ġreco": 2578,
      "ices": 2579,
      "icol": 2580,
      "Ġvolatile": 2581,
      "Ġext": 2582,
      "Ġconc": 2583,
      "Ġ(``": 2584,
      "Ġ(--": 2585,
      "lled": 2586,
      "ism": 2587,
      "lying": 2588,
      "Ġchars": 2589,
      "abstract": 2590,
      "umn": 2591,
      "ump": 2592,
      "Ġcomple": 2593,
      "ists": 2594,
      "Ġ15": 2595,
      "aries": 2596,
      "ĠSome": 2597,
      "Ġalgor": 2598,
      "Ġ<<": 2599,
      "Ġsuit": 2600,
      "ĠTypes": 2601,
      "ordin": 2602,
      "Ġ'-": 2603,
      "irent": 2604,
      "ĠWRONG": 2605,
      "Ġload": 2606,
      "++]": 2607,
      "local": 2608,
      "Ġshared": 2609,
      "ĠNA": 2610,
      "Ġformal": 2611,
      "Ġenco": 2612,
      "ĠBit": 2613,
      "Ġlists": 2614,
      "Ġdeclares": 2615,
      "Ġtry": 2616,
      "space": 2617,
      "ĠMod": 2618,
      "stdarg": 2619,
      "stdlib": 2620,
      "Ġoccurred": 2621,
      "Ġallocated": 2622,
      "Ġdecision": 2623,
      "Ġworks": 2624,
      "Ġaccessing": 2625,
      "Ġ};": 2626,
      "Ġsorted": 2627,
      "Ġcreat": 2628,
      "Ġpermission": 2629,
      "Ġpasses": 2630,
      "valid": 2631,
      "Ġfinds": 2632,
      "ĠAND": 2633,
      "Ġcompares": 2634,
      "Ġcomputed": 2635,
      "Ġautomatically": 2636,
      "Ġexpansion": 2637,
      "Ġyears": 2638,
      "Ġagree": 2639,
      "Ġdistingu": 2640,
      "Ġconstructions": 2641,
      "Ġsomething": 2642,
      "Ġguaranteed": 2643,
      "Ġkinds": 2644,
      "conditional": 2645,
      "Ġprogramming": 2646,
      "Ġchecking": 2647,
      "Ġrectang": 2648,
      "Ġthings": 2649,
      "Ġalternative": 2650,
      "UFSIZ": 2651,
      "Ġportable": 2652,
      "Ġinterpret": 2653,
      "gregate": 2654,
      "Ġconnected": 2655,
      "Ġstops": 2656,
      "Ġcolumn": 2657,
      "Ġdecrement": 2658,
      "Ġsemicol": 2659,
      "ĠInte": 2660,
      "Ġsupport": 2661,
      "Ġobtained": 2662,
      "slash": 2663,
      "Ġwhole": 2664,
      "Ġimmediately": 2665,
      "alpha": 2666,
      "ĠConstants": 2667,
      "Ġunique": 2668,
      "imilarly": 2669,
      "Ġalgorithm": 2670,
      "ĠModify": 2671,
      "16": 2672,
      "37": 2673,
      "FLT": 2674,
      "ME": 2675,
      "More": 2676,
      "One": 2677,
      "Str": 2678,
      "To": 2679,
      "VAL": 2680,
      "]...": 2681,
      "ake": 2682,
      "bo": 2683,
      "den": 2684,
      "div": 2685,
      "ey": 2686,
      "fully": 2687,
      "flush": 2688,
      "high": 2689,
      "led": 2690,
      "mid": 2691,
      "ror": 2692,
      "sval": 2693,
      "ues": 2694,
      "ven": 2695,
      "way": 2696,
      "walk": 2697,
      "Ġ.": 2698,
      "Ġ^": 2699,
      "Ġtas": 2700,
      "init": 2701,
      "ont": 2702,
      "Ġsure": 2703,
      "Ġsix": 2704,
      "ionally": 2705,
      "Ġfet": 2706,
      "Ġfast": 2707,
      "Ġfails": 2708,
      "Ġfclose": 2709,
      "Ġpe": 2710,
      "Ġpers": 2711,
      "Ġindent": 2712,
      "Ġanno": 2713,
      "Ġwro": 2714,
      "Ġnp": 2715,
      "Ġnlist": 2716,
      "Ġdate": 2717,
      "ances": 2718,
      "ential": 2719,
      "Ġmiss": 2720,
      "Ġretain": 2721,
      "Ġvary": 2722,
      "Ġ*;": 2723,
      "Ġints": 2724,
      "Ġforce": 2725,
      "ote": 2726,
      "ished": 2727,
      "Ġhis": 2728,
      "Ġprog": 2729,
      "Ġonto": 2730,
      "Ġstrt": 2731,
      "Ġfix": 2732,
      "Ġund": 2733,
      "Ġunchanged": 2734,
      "Ġnote": 2735,
      "Ġaside": 2736,
      "Ġcomplement": 2737,
      "ĠAt": 2738,
      "graph": 2739,
      "own": 2740,
      "Ġdev": 2741,
      "key": 2742,
      "ĠCl": 2743,
      "ured": 2744,
      "ĠScope": 2745,
      "Ġcoordin": 2746,
      "endif": 2747,
      "Ġseed": 2748,
      "ĠFirst": 2749,
      "elines": 2750,
      "Ġprev": 2751,
      "order": 2752,
      "iven": 2753,
      "Ġobvious": 2754,
      "ardless": 2755,
      "Ġprintd": 2756,
      "Ġwrites": 2757,
      "Ġwritelines": 2758,
      "Ġlogical": 2759,
      "Ġcap": 2760,
      "ĠOur": 2761,
      "Ġanything": 2762,
      "dentifiers": 2763,
      "Ġyet": 2764,
      "Ġouter": 2765,
      "ĠNKEYS": 2766,
      "Ġlineptr": 2767,
      "'')": 2768,
      "Ġtypically": 2769,
      "haps": 2770,
      "ĠBy": 2771,
      "ĠBlock": 2772,
      "Ġnewlines": 2773,
      "Ġsetjmp": 2774,
      "Ġadditive": 2775,
      "Ġtrunc": 2776,
      "eclarators": 2777,
      "iob": 2778,
      "Ġsubtree": 2779,
      "ĠLine": 2780,
      "stderr": 2781,
      "atively": 2782,
      "defines": 2783,
      "Ġneeds": 2784,
      "Ġplaces": 2785,
      "ĠHDR": 2786,
      "pens": 2787,
      "Ġrepresentable": 2788,
      "declaratoropt": 2789,
      "Ġmatches": 2790,
      "Ġcounts": 2791,
      "Ġpositions": 2792,
      "Ġcreates": 2793,
      "Ġindicated": 2794,
      "Ġfeature": 2795,
      "Ġcasts": 2796,
      "ormally": 2797,
      "Ġreferred": 2798,
      "ĠArithmetic": 2799,
      "Ġbitwise": 2800,
      "Ġenumerator": 2801,
      "Ġlargest": 2802,
      "Ġequality": 2803,
      "Ġparenthesized": 2804,
      "Ġconsisting": 2805,
      "clusion": 2806,
      "Ġsmallest": 2807,
      "Ġincremented": 2808,
      "Ġdepending": 2809,
      "Ġpresented": 2810,
      "Ġmultiple": 2811,
      "Ġmultiplicative": 2812,
      "Ġfreed": 2813,
      "causes": 2814,
      "Ġlookup": 2815,
      "Ġmiddle": 2816,
      "Ġknown": 2817,
      "ĠStructure": 2818,
      "Ġintroduced": 2819,
      "Ġintroduces": 2820,
      "Ġlatter": 2821,
      "Ġadvant": 2822,
      "Ġactual": 2823,
      "Ġexpected": 2824,
      "Ġdiscarded": 2825,
      "Ġquantity": 2826,
      "ĠYou": 2827,
      "Ġquestion": 2828,
      "Ġfrequently": 2829,
      "feed": 2830,
      "Ġimplies": 2831,
      "modifier": 2832,
      "numerations": 2833,
      "ĠFortran": 2834,
      "CHAR": 2835,
      "Ġsplit": 2836,
      "Ġwrote": 2837,
      "');": 2838,
      ")->": 2839,
      "24": 2840,
      "36": 2841,
      "767": 2842,
      ":%": 2843,
      "BL": 2844,
      "By": 2845,
      "GE": 2846,
      "RE": 2847,
      "Rec": 2848,
      "Se": 2849,
      "WR": 2850,
      "after": 2851,
      "do": 2852,
      "eous": 2853,
      "fprintf": 2854,
      "has": 2855,
      "iom": 2856,
      "ily": 2857,
      "iagn": 2858,
      "like": 2859,
      "ma": 2860,
      "mm": 2861,
      "more": 2862,
      "month": 2863,
      "oa": 2864,
      "ph": 2865,
      "ri": 2866,
      "tmp": 2867,
      "wo": 2868,
      "Ġtent": 2869,
      "ination": 2870,
      "Ġaction": 2871,
      "Ġable": 2872,
      "Ġafree": 2873,
      "head": 2874,
      "Ġsqrt": 2875,
      "ativ": 2876,
      "Ġcalloc": 2877,
      "Ġclosed": 2878,
      "Ġclose": 2879,
      "ense": 2880,
      "enumer": 2881,
      "Ġfit": 2882,
      "Ġferror": 2883,
      "Ġfputs": 2884,
      "Ġph": 2885,
      "Ġptr": 2886,
      "Ġpurpose": 2887,
      "Ġins": 2888,
      "Ġbad": 2889,
      "start": 2890,
      "lect": 2891,
      "Ġdays": 2892,
      "Ġemp": 2893,
      "Ġmessage": 2894,
      "units": 2895,
      "untered": 2896,
      "inte": 2897,
      "Ġvice": 2898,
      "Ġvert": 2899,
      "Ġexpress": 2900,
      "Ġexperi": 2901,
      "These": 2902,
      "erscore": 2903,
      "ety": 2904,
      "Ġitoa": 2905,
      "acing": 2906,
      "lling": 2907,
      "ises": 2908,
      "isdigit": 2909,
      "Ġart": 2910,
      "Ġhad": 2911,
      "ability": 2912,
      "izer": 2913,
      "Ġunits": 2914,
      "Ġunequal": 2915,
      "Ġaspect": 2916,
      "Ġcome": 2917,
      "Ġcomes": 2918,
      "ĠIN": 2919,
      "rintf": 2920,
      "ĠCond": 2921,
      "arily": 2922,
      "ĠSE": 2923,
      "ĠST": 2924,
      "Ġexpressionopt": 2925,
      "Ġcope": 2926,
      "ends": 2927,
      "endar": 2928,
      "strlen": 2929,
      "Ġsugg": 2930,
      "Ġnumcmp": 2931,
      "ived": 2932,
      "Ġgets": 2933,
      "Ġobser": 2934,
      "expressionopt": 2935,
      "Ġsol": 2936,
      "ests": 2937,
      "ĠWh": 2938,
      "Ġcompact": 2939,
      "Ġcause": 2940,
      "ĠPr": 2941,
      "Ġappend": 2942,
      "ĠNon": 2943,
      "ĠNormally": 2944,
      "Ġ200": 2945,
      "Ġreaddir": 2946,
      "ĠBas": 2947,
      "ĠInitialization": 2948,
      "getc": 2949,
      "getline": 2950,
      "Ġlikely": 2951,
      "plication": 2952,
      "Ġresults": 2953,
      "Ġabstract": 2954,
      "ĠFormat": 2955,
      "Ġsomewhere": 2956,
      "Ġkept": 2957,
      "Ġcommunic": 2958,
      "[];": 2959,
      "Ġimplemented": 2960,
      "Ġrows": 2961,
      "Ġthemsel": 2962,
      "Ġelif": 2963,
      "Ġinstall": 2964,
      "ĠHere": 2965,
      "Ġgenerate": 2966,
      "Ġmanual": 2967,
      "cluding": 2968,
      "Ġperhaps": 2969,
      "Ġconverting": 2970,
      "Ġbrack": 2971,
      "Ġcounting": 2972,
      "ĠAnd": 2973,
      "Ġpermit": 2974,
      "Ġregardless": 2975,
      "Ġdescribes": 2976,
      "ĠStorage": 2977,
      "Ġfeatures": 2978,
      "ĠCont": 2979,
      "dddd": 2980,
      "Ġreference": 2981,
      "Ġbackslash": 2982,
      "Ġconditions": 2983,
      "ultiplicative": 2984,
      "Ġprocessing": 2985,
      "Ġgoes": 2986,
      "Ġcomputes": 2987,
      "Ġ??": 2988,
      "Ġproduces": 2989,
      "Ġsmaller": 2990,
      "Ġminprintf": 2991,
      "ĠPointer": 2992,
      "Ġseparately": 2993,
      "Ġspecialized": 2994,
      "Ġespec": 2995,
      "Ġmodify": 2996,
      "Ġremainder": 2997,
      "Ġcalendar": 2998,
      "Ġsummar": 2999,
      "ĠRewrite": 3000,
      "math": 3001,
      "short": 3002,
      "ĠAlso": 3003,
      "Ġ1000": 3004,
      "Ġprecisely": 3005,
      "Ġmanipulate": 3006,
      "specifiersopt": 3007,
      "syscalls": 3008,
      "brk": 3009,
      "Ġfractional": 3010,
      "minimum": 3011,
      "initializer": 3012,
      "iguous": 3013,
      "Ġsurround": 3014,
      "Ġown": 3015,
      "Ġmechanism": 3016,
      "Ġstarted": 3017,
      "Ġrevers": 3018,
      "Ġrestricted": 3019,
      "hematical": 3020,
      "Ġversa": 3021,
      "Ġextra": 3022,
      "Ġidiom": 3023,
      "Ġsuitable": 3024,
      "Ġ'-')": 3025,
      "Ġencountered": 3026,
      "ĠBitwise": 3027,
      "Ġinterpretation": 3028,
      "Ġannoun": 3029,
      "Ġmissing": 3030,
      "Ġfixed": 3031,
      "Ġunderscore": 3032,
      "ĠClass": 3033,
      "Ġadvantage": 3034,
      "ativity": 3035,
      "enumerator": 3036,
      "Ġvertical": 3037,
      "ĠConditional": 3038,
      "ĠFormatted": 3039,
      "Ġthemselves": 3040,
      "Ġespecially": 3041,
      "\";": 3042,
      ")-": 3043,
      ")/": 3044,
      "AC": 3045,
      "Ar": 3046,
      "Appendix": 3047,
      "Because": 3048,
      "DBL": 3049,
      "Finally": 3050,
      "Header": 3051,
      "IC": 3052,
      "IR": 3053,
      "LY": 3054,
      "NULL": 3055,
      "Notice": 3056,
      "On": 3057,
      "Table": 3058,
      "UT": 3059,
      "Wh": 3060,
      "With": 3061,
      "bj": 3062,
      "bp": 3063,
      "bject": 3064,
      "efore": 3065,
      "gister": 3066,
      "ho": 3067,
      "just": 3068,
      "ler": 3069,
      "lict": 3070,
      "pf": 3071,
      "pn": 3072,
      "ries": 3073,
      "raph": 3074,
      "swer": 3075,
      "ugu": 3076,
      "ward": 3077,
      "Ġ;": 3078,
      "Ġtalloc": 3079,
      "ino": 3080,
      "Ġach": 3081,
      "Ġavoid": 3082,
      "Ġamb": 3083,
      "heit": 3084,
      "Ġsc": 3085,
      "Ġspe": 3086,
      "Ġsave": 3087,
      "Ġclos": 3088,
      "Ġchapters": 3089,
      "Ġfull": 3090,
      "Ġfseek": 3091,
      "Ġfgets": 3092,
      "Ġpast": 3093,
      "Ġinit": 3094,
      "oring": 3095,
      "orary": 3096,
      "Ġbest": 3097,
      "esides": 3098,
      "Ġanswer": 3099,
      "ited": 3100,
      "stat": 3101,
      "Ġisdigit": 3102,
      "Ġnor": 3103,
      "lection": 3104,
      "leap": 3105,
      "Ġden": 3106,
      "Ġdown": 3107,
      "any": 3108,
      "Ġell": 3109,
      "Ġlseek": 3110,
      "rol": 3111,
      "ample": 3112,
      "utype": 3113,
      "mentary": 3114,
      "Ġ*(": 3115,
      "Ġ**": 3116,
      "igraph": 3117,
      "Ġintended": 3118,
      "isalpha": 3119,
      "Ġhap": 3120,
      "Ġgap": 3121,
      "Ġuns": 3122,
      "Ġunspec": 3123,
      "external": 3124,
      "idden": 3125,
      "ĠAss": 3126,
      "putchar": 3127,
      "Ġ13": 3128,
      "verted": 3129,
      "cho": 3130,
      "Ġvariety": 3131,
      "character": 3132,
      "Ġlex": 3133,
      "Ġparse": 3134,
      "ĠFah": 3135,
      "ĠFurther": 3136,
      "ĠTr": 3137,
      "agement": 3138,
      "ivate": 3139,
      "Ġlog": 3140,
      "ightly": 3141,
      "Ġnobj": 3142,
      "ermost": 3143,
      "Ġimplicit": 3144,
      "Ġreadlines": 3145,
      "Ġtypical": 3146,
      "ĠBUFSIZ": 3147,
      "uppose": 3148,
      "loating": 3149,
      "...)": 3150,
      "ĠDirent": 3151,
      "ĠDeclarators": 3152,
      "ĠDIR": 3153,
      "Ġconvention": 3154,
      "Ġadding": 3155,
      "Ġaddtree": 3156,
      "undant": 3157,
      "Ġcontained": 3158,
      "Ġsubject": 3159,
      "Ġsubstit": 3160,
      "ĠMore": 3161,
      "ĠMost": 3162,
      "Ġdesired": 3163,
      "Ġzeros": 3164,
      "Ġrightmost": 3165,
      "Ġjob": 3166,
      "stddef": 3167,
      "Ġroom": 3168,
      "Ġkeybo": 3169,
      "ĠHeader": 3170,
      "SIG": 3171,
      "Ġterms": 3172,
      "Ġbufp": 3173,
      "Ġinterface": 3174,
      "Ġinterchange": 3175,
      "Ġfreep": 3176,
      "Ġrepresents": 3177,
      "Ġworth": 3178,
      "Ġmeant": 3179,
      "Ġdetail": 3180,
      "Ġterminal": 3181,
      "Ġtermination": 3182,
      "new": 3183,
      "Ġrequested": 3184,
      "Ġmakepoint": 3185,
      "Ġtested": 3186,
      "Ġcopying": 3187,
      "Ġstores": 3188,
      "Ġexceptions": 3189,
      "Ġentered": 3190,
      "Ġputs": 3191,
      "Ġpassing": 3192,
      "Ġregist": 3193,
      "Ġindicator": 3194,
      "Ġparticularly": 3195,
      "Ġprivate": 3196,
      "Ġformatted": 3197,
      "renheit": 3198,
      "Ġenumerations": 3199,
      "Ġbuffering": 3200,
      "Ġrequires": 3201,
      "Ġtypedefs": 3202,
      "Any": 3203,
      "Ġspecifications": 3204,
      "ONLY": 3205,
      "daytab": 3206,
      "Ġdescription": 3207,
      "Ġgroups": 3208,
      "ERM": 3209,
      "raw": 3210,
      "Ġdivid": 3211,
      "Ġdivide": 3212,
      "Ġdivision": 3213,
      "ĠJo": 3214,
      "Ġremains": 3215,
      "Ġsearching": 3216,
      "Ġbased": 3217,
      "Ġsubsequently": 3218,
      "ieve": 3219,
      "Ġsuppress": 3220,
      "Ġpractical": 3221,
      "Ġconcatenate": 3222,
      "Ġconcatenated": 3223,
      "Ġamount": 3224,
      "Ġguarantees": 3225,
      "declared": 3226,
      "ĠAlthough": 3227,
      "Ġinvolving": 3228,
      "udi": 3229,
      "Ġacross": 3230,
      "Ġprogrammers": 3231,
      "Ġdirwalk": 3232,
      "swap": 3233,
      "ency": 3234,
      "Ġconflict": 3235,
      "Ġassume": 3236,
      "Ġsuffixed": 3237,
      "equality": 3238,
      "Ġexpects": 3239,
      "Ġ123": 3240,
      "Ġquantities": 3241,
      "flags": 3242,
      "limits": 3243,
      "Ġcontexts": 3244,
      "signal": 3245,
      "ĠSystem": 3246,
      "Ġsuccessive": 3247,
      "Ġrecords": 3248,
      "Ġexpanded": 3249,
      "Ġboundary": 3250,
      "Ġreserved": 3251,
      "ĠLogical": 3252,
      "Ġabsence": 3253,
      "Ġcorrectly": 3254,
      "Ġsituations": 3255,
      "Ġrepeated": 3256,
      "Ġmaintained": 3257,
      "Ġensure": 3258,
      "Ġextension": 3259,
      "member": 3260,
      "Ġerrno": 3261,
      "Ġmark": 3262,
      "Ġitems": 3263,
      "Ġorganization": 3264,
      "Ġleaving": 3265,
      "Ġyields": 3266,
      "LLOCSIZE": 3267,
      "Ġredundant": 3268,
      "Ġcompleted": 3269,
      "Ġrectangle": 3270,
      "Ġsemicolon": 3271,
      "Ġpeo": 3272,
      "iagnost": 3273,
      "riage": 3274,
      "Ġtentative": 3275,
      "Ġbrackets": 3276,
      "ugust": 3277,
      "Ġunspecified": 3278,
      "ĠFahrenheit": 3279,
      "ĠFurthermore": 3280,
      "Ġkeyboard": 3281,
      "-]": 3282,
      "66": 3283,
      "Character": 3284,
      "ES": 3285,
      "EX": 3286,
      "EOF": 3287,
      "Function": 3288,
      "Here": 3289,
      "Most": 3290,
      "OS": 3291,
      "Point": 3292,
      "PEN": 3293,
      "RD": 3294,
      "SE": 3295,
      "SH": 3296,
      "St": 3297,
      "Th": 3298,
      "Two": 3299,
      "UL": 3300,
      "aise": 3301,
      "break": 3302,
      "cn": 3303,
      "cp": 3304,
      "cu": 3305,
      "cpy": 3306,
      "des": 3307,
      "dfd": 3308,
      "ew": 3309,
      "ez": 3310,
      "fgets": 3311,
      "gap": 3312,
      "hh": 3313,
      "hand": 3314,
      "hash": 3315,
      "iop": 3316,
      "ief": 3317,
      "know": 3318,
      "kentype": 3319,
      "mary": 3320,
      "malloc": 3321,
      "message": 3322,
      "multiplicative": 3323,
      "ndef": 3324,
      "nlines": 3325,
      "pop": 3326,
      "push": 3327,
      "rast": 3328,
      "rror": 3329,
      "sen": 3330,
      "sprintf": 3331,
      "says": 3332,
      "uary": 3333,
      "vant": 3334,
      "ware": 3335,
      "will": 3336,
      "ym": 3337,
      "ys": 3338,
      "inclusive": 3339,
      "including": 3340,
      "Ġaff": 3341,
      "ern": 3342,
      "reen": 3343,
      "rect": 3344,
      "refers": 3345,
      "Ġscan": 3346,
      "Ġsense": 3347,
      "Ġopend": 3348,
      "Ġcp": 3349,
      "argument": 3350,
      "Ġfail": 3351,
      "Ġpict": 3352,
      "edia": 3353,
      "ctime": 3354,
      "Ġansw": 3355,
      "Ġwr": 3356,
      "Ġwchar": 3357,
      "Ġisn": 3358,
      "Ġtokentype": 3359,
      "let": 3360,
      "lead": 3361,
      "levant": 3362,
      "Ġdirection": 3363,
      "aneous": 3364,
      "Ġmet": 3365,
      "Ġmix": 3366,
      "une": 3367,
      "Ġstates": 3368,
      "row": 3369,
      "root": 3370,
      "rogram": 3371,
      "Ġref": 3372,
      "Ġrece": 3373,
      "amb": 3374,
      "ecre": 3375,
      "utomatic": 3376,
      "Ġexclusive": 3377,
      "Ġexchange": 3378,
      "Ġexceed": 3379,
      "Ġexerc": 3380,
      "Ġconstruct": 3381,
      "Ġconne": 3382,
      "Ġ*=": 3383,
      "Ġ*++": 3384,
      "Ġpopp": 3385,
      "used": 3386,
      "Ġhist": 3387,
      "abs": 3388,
      "Ġstrong": 3389,
      "Ġstrdup": 3390,
      "Ġfill": 3391,
      "Ġgive": 3392,
      "Ġbyte": 3393,
      "Ġunrel": 3394,
      "Ġunknow": 3395,
      "exp": 3396,
      "exit": 3397,
      "exclusive": 3398,
      "Ġnother": 3399,
      "umes": 3400,
      "ĠALLOCSIZE": 3401,
      "ĠIdentifiers": 3402,
      "putc": 3403,
      "vert": 3404,
      "Ġspaces": 3405,
      "Ġsprintf": 3406,
      "guments": 3407,
      "ĠCelsius": 3408,
      "ĠCount": 3409,
      "ĠSh": 3410,
      "ĠSub": 3411,
      "Ġcoun": 3412,
      "Ġcour": 3413,
      "Ġsear": 3414,
      "Ġalter": 3415,
      "Ġaligned": 3416,
      "Ġaltered": 3417,
      "Ġalph": 3418,
      "class": 3419,
      "ĠFloating": 3420,
      "Ġattr": 3421,
      "Ġrudi": 3422,
      "Ġraise": 3423,
      "ibut": 3424,
      "ibility": 3425,
      "ĠTable": 3426,
      "elational": 3427,
      "Ġfilecopy": 3428,
      "Ġcontrast": 3429,
      "ĠEX": 3430,
      "ĠError": 3431,
      "Ġgettoken": 3432,
      "thand": 3433,
      "fered": 3434,
      "Ġ-=": 3435,
      "esting": 3436,
      "ĠWi": 3437,
      "ĠOUT": 3438,
      "ĠObject": 3439,
      "ĠPERM": 3440,
      "ĠProgram": 3441,
      "Ġdocu": 3442,
      "ĠNo": 3443,
      "ĠNotice": 3444,
      "Ġsynon": 3445,
      "output": 3446,
      "Ġpartition": 3447,
      "Ġmoment": 3448,
      "upper": 3449,
      "anges": 3450,
      "ĠInclusion": 3451,
      "olute": 3452,
      "ĠDes": 3453,
      "getch": 3454,
      "Ġadds": 3455,
      "Ġsubstatement": 3456,
      "appear": 3457,
      "ĠLet": 3458,
      "stdin": 3459,
      "crement": 3460,
      "(\"\\": 3461,
      "Ġdirective": 3462,
      "bufp": 3463,
      "cont": 3464,
      "converted": 3465,
      "oked": 3466,
      "Ġ...,": 3467,
      "Ġreplaces": 3468,
      "ĠExample": 3469,
      "length": 3470,
      "Ġcontrolled": 3471,
      "Ġ|=": 3472,
      "Ġtesting": 3473,
      "Ġstreams": 3474,
      "Ġopening": 3475,
      "Ġhandling": 3476,
      "Ġcontrols": 3477,
      "Ġcreated": 3478,
      "Ġperms": 3479,
      "Ġpermits": 3480,
      "Ġdescribe": 3481,
      "Ġremove": 3482,
      "Ġauto": 3483,
      "Ġprimary": 3484,
      "ĠArgument": 3485,
      "ĠArguments": 3486,
      "Ġlengths": 3487,
      "Ġprocessed": 3488,
      "Ġgoing": 3489,
      "Ġclar": 3490,
      "Ġproduced": 3491,
      "abeled": 3492,
      "Ġmaking": 3493,
      "Ġaggregate": 3494,
      "Ġexists": 3495,
      "Ġexistence": 3496,
      "Ġunderg": 3497,
      "ĠMAXWORD": 3498,
      "Ġbigger": 3499,
      "ERN": 3500,
      "Ġmodul": 3501,
      "Ġcurrently": 3502,
      "Ġspecifying": 3503,
      "Ġtemporary": 3504,
      "entionally": 3505,
      "Ġapproach": 3506,
      "Ġsignals": 3507,
      "Ġmatching": 3508,
      "ĠComm": 3509,
      "ĠComp": 3510,
      "Ġclasses": 3511,
      "Ġcomparisons": 3512,
      "Ġsuppl": 3513,
      "ĠOnly": 3514,
      "Ġconcatenation": 3515,
      "shift": 3516,
      "additive": 3517,
      "Ġ168": 3518,
      "Ġinvolved": 3519,
      "Ġsaved": 3520,
      "Ġ198": 3521,
      "Ġhashtab": 3522,
      "32767": 3523,
      "Ġalternate": 3524,
      "ĠVariable": 3525,
      "Ġinterpreted": 3526,
      "Ġ[-]": 3527,
      "Ġagainst": 3528,
      "Ġquestions": 3529,
      "Ġsimplest": 3530,
      "Ġarrange": 3531,
      "Ġcombined": 3532,
      "relational": 3533,
      "Ġwarning": 3534,
      "Ġremoved": 3535,
      "Ġacceptable": 3536,
      "ATIC": 3537,
      "ells": 3538,
      "number": 3539,
      "Ġidea": 3540,
      "Ġshorthand": 3541,
      "Ġsyntactically": 3542,
      "Ġpadding": 3543,
      "Ġrecogn": 3544,
      "Ġextended": 3545,
      "ĠNAME": 3546,
      "Ġdistinguish": 3547,
      "Ġpersists": 3548,
      "Ġfeatured": 3549,
      "READ": 3550,
      "Ġclosedir": 3551,
      "Ġinsert": 3552,
      "Ġemphas": 3553,
      "Ġartic": 3554,
      "ĠSTATIC": 3555,
      "ĠControl": 3556,
      "Ġsummarizes": 3557,
      "Ġreverses": 3558,
      "Ġambigu": 3559,
      "Ġhappens": 3560,
      "Ġpeople": 3561,
      "ugustus": 3562,
      "Ġopendir": 3563,
      "Ġanswers": 3564,
      "leading": 3565,
      "Ġexercises": 3566,
      "Ġunrelated": 3567,
      "Ġunknown": 3568,
      "ĠCounting": 3569,
      "ĠPERMS": 3570,
      "Ġsynonym": 3571,
      "'\\": 3572,
      "*(": 3573,
      "/%": 3574,
      "45": 3575,
      "55": 3576,
      "77": 3577,
      "BUF": 3578,
      "Con": 3579,
      "Celsius": 3580,
      "EK": 3581,
      "IG": 3582,
      "ITE": 3583,
      "OKE": 3584,
      "Pre": 3585,
      "RT": 3586,
      "RAN": 3587,
      "RAD": 3588,
      "So": 3589,
      "Some": 3590,
      "Second": 3591,
      "Similarly": 3592,
      "TERN": 3593,
      "TOKE": 3594,
      "UN": 3595,
      "Un": 3596,
      "You": 3597,
      "aut": 3598,
      "bre": 3599,
      "binsearch": 3600,
      "ci": 3601,
      "col": 3602,
      "dif": 3603,
      "date": 3604,
      "efin": 3605,
      "fcnt": 3606,
      "fmt": 3607,
      "ge": 3608,
      "goto": 3609,
      "hod": 3610,
      "hour": 3611,
      "jor": 3612,
      "lus": 3613,
      "link": 3614,
      "me": 3615,
      "nwhite": 3616,
      "ograph": 3617,
      "ping": 3618,
      "raries": 3619,
      "son": 3620,
      "tok": 3621,
      "ug": 3622,
      "wor": 3623,
      "yy": 3624,
      "||": 3625,
      "ĠX": 3626,
      "Ġ]": 3627,
      "Ġess": 3628,
      "Ġest": 3629,
      "Ġqualifier": 3630,
      "inst": 3631,
      "inue": 3632,
      "heless": 3633,
      "erial": 3634,
      "refer": 3635,
      "register": 3636,
      "Ġsin": 3637,
      "Ġshell": 3638,
      "Ġsscanf": 3639,
      "Ġsrand": 3640,
      "Ġsque": 3641,
      "Ġsbrk": 3642,
      "Ġival": 3643,
      "ath": 3644,
      "ater": 3645,
      "Ġclock": 3646,
      "Ġcentr": 3647,
      "enced": 3648,
      "ength": 3649,
      "Ġfam": 3650,
      "Ġflow": 3651,
      "Ġfscanf": 3652,
      "Ġfmt": 3653,
      "Ġfflush": 3654,
      "Ġpp": 3655,
      "Ġpse": 3656,
      "Ġpage": 3657,
      "Ġinn": 3658,
      "Ġinde": 3659,
      "Ġinclusive": 3660,
      "alnum": 3661,
      "oriz": 3662,
      "ories": 3663,
      "Ġbro": 3664,
      "Ġbind": 3665,
      "storage": 3666,
      "stbuf": 3667,
      "Ġtolower": 3668,
      "Ġnl": 3669,
      "Ġnice": 3670,
      "Ġnunits": 3671,
      "Ġdom": 3672,
      "Ġdiagnost": 3673,
      "enty": 3674,
      "Ġecho": 3675,
      "Ġmult": 3676,
      "ingly": 3677,
      "Ġstbuf": 3678,
      "Ġlin": 3679,
      "Ġredu": 3680,
      "see": 3681,
      "Ġexha": 3682,
      "Ġconcept": 3683,
      "Ġ(!": 3684,
      "etheless": 3685,
      "ifting": 3686,
      "ached": 3687,
      "Ġhide": 3688,
      "precision": 3689,
      "Ġproceed": 3690,
      "Ġglo": 3691,
      "izing": 3692,
      "Ġask": 3693,
      "idual": 3694,
      "Ġcomment": 3695,
      "Ġwhy": 3696,
      "ĠAcc": 3697,
      "ĠAfter": 3698,
      "ĠAccess": 3699,
      "ĠAutomatic": 3700,
      "vered": 3701,
      "alling": 3702,
      "agma": 3703,
      "Ġdeep": 3704,
      "chr": 3705,
      "ĠSecond": 3706,
      "ĠSYS": 3707,
      "ĠSimilarly": 3708,
      "finite": 3709,
      "endp": 3710,
      "ected": 3711,
      "strcat": 3712,
      "Ġseem": 3713,
      "plain": 3714,
      "Ġlear": 3715,
      "ĠFinally": 3716,
      "Ġatt": 3717,
      "Ġnear": 3718,
      "ĠTime": 3719,
      "ĠTyp": 3720,
      "Ġcontiguous": 3721,
      "ĠEnumerations": 3722,
      "ĠERAN": 3723,
      "Ġ'+": 3724,
      "ivial": 3725,
      "that": 3726,
      "Ġconstit": 3727,
      "Ġmajor": 3728,
      "Ġcompat": 3729,
      "++,": 3730,
      "ĠOr": 3731,
      "ĠOper": 3732,
      "reeptr": 3733,
      "ops": 3734,
      "ĠPol": 3735,
      "ĠPAR": 3736,
      "Ġshifting": 3737,
      "Ġassert": 3738,
      "Ġapart": 3739,
      "Ġidentified": 3740,
      "Ġlongjmp": 3741,
      "''.": 3742,
      "Ġformfeed": 3743,
      "ftime": 3744,
      "Ġrespect": 3745,
      "Ġresumes": 3746,
      "Ġinitializes": 3747,
      "Ġ&=": 3748,
      "Ġ#,": 3749,
      "defn": 3750,
      "Ġtwice": 3751,
      "getword": 3752,
      "Ġmorecore": 3753,
      "what": 3754,
      "ĠMacro": 3755,
      "ĠMake": 3756,
      "assert": 3757,
      "ĠLe": 3758,
      "ĠLink": 3759,
      "plementation": 3760,
      "Ġsomewhat": 3761,
      "Ġcommas": 3762,
      "000": 3763,
      "());": 3764,
      "()))": 3765,
      "true": 3766,
      "Ġlibraries": 3767,
      "Ġrole": 3768,
      "ĠUse": 3769,
      "ipher": 3770,
      "Input": 3771,
      "Ġelim": 3772,
      "definition": 3773,
      "ĠRec": 3774,
      "buffered": 3775,
      "Ġallocation": 3776,
      "Ġdecide": 3777,
      "okup": 3778,
      "Ġgenerated": 3779,
      "Ġevaluate": 3780,
      "Ġmanagement": 3781,
      "Ġ((*": 3782,
      "Ġworry": 3783,
      "Ġperipher": 3784,
      "Ġindiv": 3785,
      "Ġbrief": 3786,
      "Ġopened": 3787,
      "Ġrelations": 3788,
      "Ġrelatively": 3789,
      "Ġexception": 3790,
      "Ġlocated": 3791,
      "Ġhandles": 3792,
      "Ġentries": 3793,
      "arenthes": 3794,
      "Ġindices": 3795,
      "processor": 3796,
      "Ġfeof": 3797,
      "Pars": 3798,
      "Ġreferences": 3799,
      "Ġformats": 3800,
      "Ġbuffered": 3801,
      "Ġ60": 3802,
      "setjmp": 3803,
      "Ġcompute": 3804,
      "Ġassociativity": 3805,
      "Ġinvoked": 3806,
      "Ġungetc": 3807,
      "Ġpreprocessing": 3808,
      "Ġminimal": 3809,
      "ĠTherefore": 3810,
      "Ġincrementing": 3811,
      "Ġoriginally": 3812,
      "Ġquote": 3813,
      "Ġpushback": 3814,
      "Ġ/=": 3815,
      "Ġfrees": 3816,
      "Ġlimits": 3817,
      "ERR": 3818,
      "Ġmodified": 3819,
      "Ġsteps": 3820,
      "Ġlabeled": 3821,
      "roduction": 3822,
      "Ġdetermined": 3823,
      "Ġlinked": 3824,
      "Ġtreeprint": 3825,
      "Ġtaking": 3826,
      "kipedia": 3827,
      "ieved": 3828,
      "Ġtopic": 3829,
      "Ġ174": 3830,
      "ĠRev": 3831,
      "Ġproperty": 3832,
      "Ġconveniently": 3833,
      "Ġ184": 3834,
      "Ġguarantee": 3835,
      "ordingly": 3836,
      "udo": 3837,
      "ncpy": 3838,
      "Ġharder": 3839,
      "Ġrunning": 3840,
      "Ġhashval": 3841,
      "ĠMAXLINES": 3842,
      "Ġprototypes": 3843,
      "switch": 3844,
      "Ġskipped": 3845,
      "enclosed": 3846,
      "Ġassumed": 3847,
      "Ġcarefully": 3848,
      "ĠAddress": 3849,
      "ĠWithin": 3850,
      "ENS": 3851,
      "random": 3852,
      "Ġserve": 3853,
      "Ġeverything": 3854,
      "Ġcarry": 3855,
      "Ġcarriage": 3856,
      "Ġsurpr": 3857,
      "Ġowner": 3858,
      "Ġstarting": 3859,
      "Ġreserve": 3860,
      "Ġabsolute": 3861,
      "Ġpossibilities": 3862,
      "ooo": 3863,
      "Ġsituation": 3864,
      "Ġrepeat": 3865,
      "Ġnormalized": 3866,
      "Ġadjusted": 3867,
      "Ġfrag": 3868,
      "Ġbuild": 3869,
      "Ġshorter": 3870,
      "Ġchosen": 3871,
      "Ġsyntactic": 3872,
      "Ġsubtracted": 3873,
      "Ġsubtracting": 3874,
      "written": 3875,
      "Ġslot": 3876,
      "Ġslightly": 3877,
      "Ġissues": 3878,
      "entrate": 3879,
      "Ġstarts": 3880,
      "Ġconcentrate": 3881,
      "Ġloaded": 3882,
      "Ġpermissions": 3883,
      "String": 3884,
      "Ġtasks": 3885,
      "ontal": 3886,
      "Ġfaster": 3887,
      "Ġdevice": 3888,
      "Ġcoordinates": 3889,
      "WRITE": 3890,
      "integer": 3891,
      "Ġaspects": 3892,
      "ĠSEEK": 3893,
      "Ġobserv": 3894,
      "Ġsolution": 3895,
      "Ġannounces": 3896,
      "pfa": 3897,
      "Ġimplicitly": 3898,
      "newline": 3899,
      "Ġregisters": 3900,
      "ĠJoh": 3901,
      "RDONLY": 3902,
      "Ġaffect": 3903,
      "Ġwrong": 3904,
      "letter": 3905,
      "Ġmethod": 3906,
      "Ġreflect": 3907,
      "Ġcourse": 3908,
      "Ġalphab": 3909,
      "Ġattribut": 3910,
      "Ġrudimentary": 3911,
      "ĠWikipedia": 3912,
      "ĠObjects": 3913,
      "Ġarticle": 3914,
      "Ġambiguity": 3915,
      "RADIX": 3916,
      "TERNAL": 3917,
      "TOKEN": 3918,
      "auto": 3919,
      "brevi": 3920,
      "efinition": 3921,
      "fcntl": 3922,
      "Ġsqueez": 3923,
      "Ġcentral": 3924,
      "Ġpseudo": 3925,
      "orizontal": 3926,
      "Ġexhaust": 3927,
      "Ġglob": 3928,
      "ĠAccordingly": 3929,
      "ĠERANGE": 3930,
      "ĠPolish": 3931,
      "ĠPARENS": 3932,
      "ĠLinkage": 3933,
      "!=": 3934,
      "\")": 3935,
      "\".": 3936,
      "(...)": 3937,
      ")+": 3938,
      ")[": 3939,
      "*)": 3940,
      "*/": 3941,
      "**)": 3942,
      "+\"": 3943,
      "+/": 3944,
      "-'": 3945,
      "28": 3946,
      "30": 3947,
      "40": 3948,
      "60": 3949,
      "<<": 3950,
      ">)": 3951,
      "At": 3952,
      "BF": 3953,
      "BS": 3954,
      "BER": 3955,
      "Cons": 3956,
      "DE": 3957,
      "Enumerations": 3958,
      "FF": 3959,
      "Fe": 3960,
      "Given": 3961,
      "IT": 3962,
      "June": 3963,
      "MT": 3964,
      "Many": 3965,
      "MBER": 3966,
      "No": 3967,
      "Now": 3968,
      "NKEYS": 3969,
      "OM": 3970,
      "Our": 3971,
      "Other": 3972,
      "PER": 3973,
      "Qual": 3974,
      "RAC": 3975,
      "TS": 3976,
      "TAB": 3977,
      "Us": 3978,
      "UMBER": 3979,
      "Vari": 3980,
      "]))": 3981,
      "av": 3982,
      "action": 3983,
      "bage": 3984,
      "blan": 3985,
      "che": 3986,
      "cor": 3987,
      "cks": 3988,
      "dr": 3989,
      "ding": 3990,
      "decimal": 3991,
      "eard": 3992,
      "eaning": 3993,
      "fopen": 3994,
      "fcn": 3995,
      "gers": 3996,
      "gener": 3997,
      "have": 3998,
      "ians": 3999,
      "lf": 4000,
      "lic": 4001,
      "lse": 4002,
      "lder": 4003,
      "last": 4004,
      "lap": 4005,
      "lsius": 4006,
      "lseek": 4007,
      "lished": 4008,
      "labeled": 4009,
      "mer": 4010,
      "man": 4011,
      "mas": 4012,
      "mtab": 4013,
      "mtime": 4014,
      "nis": 4015,
      "necess": 4016,
      "oes": 4017,
      "over": 4018,
      "occur": 4019,
      "ood": 4020,
      "octal": 4021,
      "px": 4022,
      "pper": 4023,
      "pace": 4024,
      "purpose": 4025,
      "qsort": 4026,
      "rre": 4027,
      "ring": 4028,
      "sum": 4029,
      "screen": 4030,
      "sqrt": 4031,
      "ts": 4032,
      "ued": 4033,
      "vbuf": 4034,
      "xhh": 4035,
      "Ġutype": 4036,
      "ĠQual": 4037,
      "Ġtar": 4038,
      "Ġtmp": 4039,
      "independent": 4040,
      "hether": 4041,
      "hexadecimal": 4042,
      "erived": 4043,
      "Ġsig": 4044,
      "Ġsqu": 4045,
      "Ġscal": 4046,
      "Ġolder": 4047,
      "Ġirre": 4048,
      "atat": 4049,
      "athematical": 4050,
      "Ġcent": 4051,
      "Ġcate": 4052,
      "Ġcrit": 4053,
      "Ġcells": 4054,
      "ennis": 4055,
      "arbage": 4056,
      "Ġfore": 4057,
      "Ġfits": 4058,
      "Ġflus": 4059,
      "Ġpick": 4060,
      "Ġinfinite": 4061,
      "Ġincor": 4062,
      "alf": 4063,
      "orial": 4064,
      "Ġbot": 4065,
      "itim": 4066,
      "ittle": 4067,
      "stered": 4068,
      "Ġisol": 4069,
      "Ġisspace": 4070,
      "Ġnw": 4071,
      "Ġnwhite": 4072,
      "Ġdere": 4073,
      "Ġdraw": 4074,
      "Ġmand": 4075,
      "Ġmas": 4076,
      "Ġmess": 4077,
      "Ġmagn": 4078,
      "unit": 4079,
      "undef": 4080,
      "Ġstand": 4081,
      "Ġstages": 4082,
      "Ġstoring": 4083,
      "Ġlittle": 4084,
      "rout": 4085,
      "Ġredirect": 4086,
      "Ġredeclared": 4087,
      "uth": 4088,
      "utorial": 4089,
      "icks": 4090,
      "icograph": 4091,
      "Ġbel": 4092,
      "Ġbehave": 4093,
      "Ġvprintf": 4094,
      "Ġvia": 4095,
      "Ġconcise": 4096,
      "Ġ*'": 4097,
      "Ġ()": 4098,
      "eter": 4099,
      "etting": 4100,
      "ifndef": 4101,
      "ury": 4102,
      "Ġpow": 4103,
      "Ġintent": 4104,
      "Ġforces": 4105,
      "oman": 4106,
      "dev": 4107,
      "llo": 4108,
      "ising": 4109,
      "Ġarise": 4110,
      "Ġarea": 4111,
      "usr": 4112,
      "usual": 4113,
      "Ġho": 4114,
      "Ġhost": 4115,
      "Ġhidden": 4116,
      "Ġhdr": 4117,
      "Ġhalf": 4118,
      "Ġprob": 4119,
      "Ġprogre": 4120,
      "abor": 4121,
      "ablished": 4122,
      "actically": 4123,
      "Ġstrict": 4124,
      "velo": 4125,
      "perial": 4126,
      "ulation": 4127,
      "Ġgarbage": 4128,
      "ately": 4129,
      "celsius": 4130,
      "Ġundcl": 4131,
      "Ġunbuffered": 4132,
      "Ġunnecess": 4133,
      "andom": 4134,
      "log": 4135,
      "exical": 4136,
      "except": 4137,
      "Ġnotion": 4138,
      "Ġnotations": 4139,
      "ume": 4140,
      "adians": 4141,
      "ifies": 4142,
      "eclaring": 4143,
      "ĠIm": 4144,
      "istics": 4145,
      "Ġ00": 4146,
      "Ġ01": 4147,
      "agic": 4148,
      "aggregate": 4149,
      "ember": 4150,
      "ĠCh": 4151,
      "ĠCast": 4152,
      "ĠCalls": 4153,
      "chive": 4154,
      "antics": 4155,
      "ĠScanf": 4156,
      "ĠSuch": 4157,
      "ĠSpec": 4158,
      "ĠSuppose": 4159,
      "ilt": 4160,
      "iled": 4161,
      "Ġcost": 4162,
      "Ġcoerc": 4163,
      "Ġcharacteristics": 4164,
      "stru": 4165,
      "strcmp": 4166,
      "strdup": 4167,
      "strcpy": 4168,
      "Ġvaries": 4169,
      "Ġvariant": 4170,
      "Ġleave": 4171,
      "Ġcanon": 4172,
      "Ġparser": 4173,
      "ĠFLT": 4174,
      "Ġrare": 4175,
      "Ġranges": 4176,
      "Ġradians": 4177,
      "Ġprep": 4178,
      "ĠEven": 4179,
      "ivers": 4180,
      "Ġgetbits": 4181,
      "Ġsoon": 4182,
      "Ġweek": 4183,
      "ference": 4184,
      "Ġ-,": 4185,
      "Ġ-.": 4186,
      "Ġmastered": 4187,
      "ĠOpen": 4188,
      "ĠPost": 4189,
      "ĠPeter": 4190,
      "Ġoutline": 4191,
      "Ġidentify": 4192,
      "ĠNote": 4193,
      "ĠNUMBER": 4194,
      "Ġ25": 4195,
      "Ġ29": 4196,
      "Ġ212": 4197,
      "Ġhello": 4198,
      "''),": 4199,
      "Ġformer": 4200,
      "ntax": 4201,
      "ntactically": 4202,
      "Ġimpro": 4203,
      "Ġimperial": 4204,
      "ĠBC": 4205,
      "ĠBRAC": 4206,
      "Ġresp": 4207,
      "eropt": 4208,
      "Ġpartly": 4209,
      "Ġmoved": 4210,
      "ĠInter": 4211,
      "ĠIncrement": 4212,
      "Ġtwenty": 4213,
      "Ġsetting": 4214,
      "ĠDon": 4215,
      "ĠDave": 4216,
      "ĠDirect": 4217,
      "ĠData": 4218,
      "ĠDefinition": 4219,
      "ĠDennis": 4220,
      "getpos": 4221,
      "Ġlisted": 4222,
      "poss": 4223,
      "pound": 4224,
      "Ġadditional": 4225,
      "prints": 4226,
      "Ġtrack": 4227,
      "Ġtrivial": 4228,
      "Ġtruth": 4229,
      "Ġtherefore": 4230,
      "Ġsubset": 4231,
      "Ġsubaggregate": 4232,
      "Ġidentifieropt": 4233,
      "ĠMS": 4234,
      "ĠMan": 4235,
      "ĠMulti": 4236,
      "ĠMeaning": 4237,
      "ĠMathematical": 4238,
      "ĠLists": 4239,
      "ĠLength": 4240,
      "ĠLexical": 4241,
      "Ġ35": 4242,
      "Ġabort": 4243,
      "Ġabsent": 4244,
      "Ġdesigned": 4245,
      "[]);": 4246,
      "stdout": 4247,
      "0000": 4248,
      "Ġ+,": 4249,
      "trans": 4250,
      "cos": 4251,
      "Ġdirectives": 4252,
      "Ġdisappear": 4253,
      "Ġrow": 4254,
      "returns": 4255,
      "Ġaccom": 4256,
      "Ġaccount": 4257,
      "akes": 4258,
      "ĠIts": 4259,
      "Ġelabor": 4260,
      "ĠRelational": 4261,
      "ĠRoman": 4262,
      "ĠRandom": 4263,
      "Ġplus": 4264,
      "Ġplain": 4265,
      "Ġallocate": 4266,
      "allocbuf": 4267,
      "Ġquicks": 4268,
      "Ġgeneric": 4269,
      "pointeropt": 4270,
      "ĠExp": 4271,
      "ĠExcept": 4272,
      "Ġconsecut": 4273,
      "Ġmeet": 4274,
      "Ġargs": 4275,
      "Ġspecifically": 4276,
      "Ġappearance": 4277,
      "Ġdetab": 4278,
      "Ġmathematical": 4279,
      "Ġmaterial": 4280,
      "Ġgiving": 4281,
      "Ġaccessible": 4282,
      "everal": 4283,
      "Ġsimply": 4284,
      "Ġcontrolling": 4285,
      "Ġterminate": 4286,
      "Ġindirection": 4287,
      "Ġbran": 4288,
      "ĠPars": 4289,
      "Ġequivalents": 4290,
      "123": 4291,
      "MAXVAL": 4292,
      "MAXTOKEN": 4293,
      "oneous": 4294,
      "Ġopens": 4295,
      "Ġrecom": 4296,
      "Ġhandler": 4297,
      "Ġperman": 4298,
      "Ġdescribing": 4299,
      "INT": 4300,
      "Ġpreceding": 4301,
      "Ġindicating": 4302,
      "processing": 4303,
      "Ġedit": 4304,
      "Ġoption": 4305,
      "Ġoptionally": 4306,
      "Ġnecessarily": 4307,
      "ormal": 4308,
      "Ġreferring": 4309,
      "Ġaddresses": 4310,
      "Ġbackward": 4311,
      "Ġbitcount": 4312,
      "Ġprocessor": 4313,
      "Ġdiscusses": 4314,
      "setpos": 4315,
      "Ġassociation": 4316,
      "Ġassociate": 4317,
      "Ġassociative": 4318,
      "Ġinvisible": 4319,
      "there": 4320,
      "ĠVoid": 4321,
      "Ġmonthname": 4322,
      "Ġconsistent": 4323,
      "Ġconsistently": 4324,
      "Ġoverlap": 4325,
      "Ġproduction": 4326,
      "losing": 4327,
      "Ġthroughout": 4328,
      "Ġrequirements": 4329,
      "values": 4330,
      "ursion": 4331,
      "Ġillustration": 4332,
      "Ġillustrates": 4333,
      "pected": 4334,
      "Ġgenerality": 4335,
      "Another": 4336,
      "ields": 4337,
      "ĠGiven": 4338,
      "Ġmultiplication": 4339,
      "Ġtransl": 4340,
      "Ġtransfer": 4341,
      "Ġtransform": 4342,
      "Ġleads": 4343,
      "Ġmodific": 4344,
      "dirbuf": 4345,
      "[])()": 4346,
      "ĠUnary": 4347,
      "ĠUnions": 4348,
      "ĠUnlike": 4349,
      "Ġremaining": 4350,
      "system": 4351,
      "ĠComments": 4352,
      "DIG": 4353,
      "KETS": 4354,
      "Ġsummary": 4355,
      "Ġintroduction": 4356,
      "Ġcompletely": 4357,
      "Ġ171": 4358,
      "Ġ173": 4359,
      "Ġsuppression": 4360,
      "Ġmodel": 4361,
      "Ġsubscripts": 4362,
      "Ġsubscripting": 4363,
      "Ġadvance": 4364,
      "Ġadvances": 4365,
      "Ġconsidered": 4366,
      "types": 4367,
      "Ġomit": 4368,
      "Ġearly": 4369,
      "Ġexited": 4370,
      "Ġinvolve": 4371,
      "Ġinvolves": 4372,
      "Ġdescriptors": 4373,
      "condition": 4374,
      "Ġcertainly": 4375,
      "Ġpipe": 4376,
      "Ġassigning": 4377,
      "Ġhelpful": 4378,
      "Ġproblems": 4379,
      "Ġsaid": 4380,
      "Ġdirdcl": 4381,
      "Ġenclosing": 4382,
      "Ġmanipulation": 4383,
      "Ġdistinction": 4384,
      "Ġfilenames": 4385,
      "Ġassumes": 4386,
      "Ġmeaningful": 4387,
      "Ġactually": 4388,
      "Ġclean": 4389,
      "Ġrestriction": 4390,
      "Ġsatisfy": 4391,
      "Ġfacility": 4392,
      "itude": 4393,
      "Ġthought": 4394,
      "Ġlimited": 4395,
      "fields": 4396,
      "Ġ148": 4397,
      "Ġcolon": 4398,
      "Ġsimplified": 4399,
      "ĠStatement": 4400,
      "Ġsemantics": 4401,
      "ĠIntroduction": 4402,
      "Ġaccordingly": 4403,
      "Ġcollecting": 4404,
      "TEM": 4405,
      "Ġcombination": 4406,
      "ĠPreced": 4407,
      "Ġimplied": 4408,
      "Ġ>>=": 4409,
      "ĠLoops": 4410,
      "MAXLINES": 4411,
      "Ġpossibly": 4412,
      "Ġpossibility": 4413,
      "Ġhardware": 4414,
      "IFDIR": 4415,
      "IFMT": 4416,
      "Ġdelete": 4417,
      "Ġensures": 4418,
      "Ġremoves": 4419,
      "Ġrestrictive": 4420,
      "Ġadjustment": 4421,
      "without": 4422,
      "Ġerroneous": 4423,
      "Ġtreats": 4424,
      "Ġleaves": 4425,
      "Ġchoose": 4426,
      "parts": 4427,
      "sequenceopt": 4428,
      "Ġpadded": 4429,
      "ĠNALLOC": 4430,
      "Ġdecremented": 4431,
      "ĠIntegral": 4432,
      "ĠInteger": 4433,
      "Ġsupports": 4434,
      "flushbuf": 4435,
      "Ġtask": 4436,
      "Ġfetches": 4437,
      "Ġindentation": 4438,
      "Ġstrtol": 4439,
      "Ġcoordinate": 4440,
      "Ġprevp": 4441,
      "ĠBlockno": 4442,
      "Recall": 4443,
      "See": 4444,
      "tmpnam": 4445,
      "Ġexperience": 4446,
      "Ġsuggest": 4447,
      "ĠWhat": 4448,
      "ĠNonetheless": 4449,
      "ĠBasic": 4450,
      "ĠBasics": 4451,
      "Ġcommunicate": 4452,
      "Archive": 4453,
      "Ġachieve": 4454,
      "Ġcloses": 4455,
      "Ġdenot": 4456,
      "ĠAssignment": 4457,
      "Ġlexical": 4458,
      "Ġsubstitut": 4459,
      "Ġdivided": 4460,
      "Ġsuppresses": 4461,
      "EXP": 4462,
      "Thus": 4463,
      "hashval": 4464,
      "Ġstrongly": 4465,
      "ĠShould": 4466,
      "Ġdocument": 4467,
      "Ġmodulo": 4468,
      "ĠCommand": 4469,
      "Ġ1988": 4470,
      "Preface": 4471,
      "diff": 4472,
      "tokentype": 4473,
      "Ġestablished": 4474,
      "referential": 4475,
      "Ġinnermost": 4476,
      "Ġdomain": 4477,
      "Ġmultip": 4478,
      "Ġdeeply": 4479,
      "ĠSYSTEM": 4480,
      "Ġlearn": 4481,
      "ĠTypedef": 4482,
      "Ġ'+'": 4483,
      "ĠOperations": 4484,
      "Ġrespectively": 4485,
      "Ġelimin": 4486,
      "Ġperipheral": 4487,
      "arentheses": 4488,
      "Ġfragment": 4489,
      "Ġobservation": 4490,
      "ĠJohn": 4491,
      "Ġattributes": 4492,
      "breviated": 4493,
      "Ġsqueeze": 4494,
      "+/-": 4495,
      "Consider": 4496,
      "earday": 4497,
      "ĠQualifiers": 4498,
      "Ġtarget": 4499,
      "Ġirrelevant": 4500,
      "atatype": 4501,
      "Ġforever": 4502,
      "Ġmask": 4503,
      "Ġprogression": 4504,
      "Ġunnecessary": 4505,
      "ĠSpecifiers": 4506,
      "ĠBRACKETS": 4507,
      "translation": 4508,
      "Ġquicksort": 4509,
      "Ġbackwards": 4510,
      "\"))": 4511,
      "%.": 4512,
      "&_": 4513,
      "'ll": 4514,
      "(&": 4515,
      "(-": 4516,
      ")\\": 4517,
      ")++": 4518,
      "*.": 4519,
      ",%": 4520,
      ".')": 4521,
      "01": 4522,
      "077": 4523,
      "22": 4524,
      "23": 4525,
      "35": 4526,
      "48": 4527,
      "59": 4528,
      "655": 4529,
      ";)": 4530,
      ";''": 4531,
      ">;": 4532,
      "??": 4533,
      "Ab": 4534,
      "All": 4535,
      "ASH": 4536,
      "Augustus": 4537,
      "BC": 4538,
      "Br": 4539,
      "Block": 4540,
      "BUFSIZ": 4541,
      "Before": 4542,
      "Com": 4543,
      "Certain": 4544,
      "Declarations": 4545,
      "DOS": 4546,
      "ELL": 4547,
      "FI": 4548,
      "Illegal": 4549,
      "Identifiers": 4550,
      "Jan": 4551,
      "LO": 4552,
      "LONG": 4553,
      "MAN": 4554,
      "OW": 4555,
      "OPEN": 4556,
      "PPER": 4557,
      "Sy": 4558,
      "Suppose": 4559,
      "Several": 4560,
      "Treeptr": 4561,
      "UGE": 4562,
      "[-": 4563,
      "ade": 4564,
      "apt": 4565,
      "aving": 4566,
      "be": 4567,
      "bor": 4568,
      "bidden": 4569,
      "cap": 4570,
      "calloc": 4571,
      "dj": 4572,
      "det": 4573,
      "duct": 4574,
      "draw": 4575,
      "decre": 4576,
      "fre": 4577,
      "gain": 4578,
      "gitim": 4579,
      "hip": 4580,
      "iar": 4581,
      "iers": 4582,
      "iation": 4583,
      "ience": 4584,
      "ktime": 4585,
      "light": 4586,
      "ms": 4587,
      "mon": 4588,
      "must": 4589,
      "mong": 4590,
      "move": 4591,
      "na": 4592,
      "nd": 4593,
      "nf": 4594,
      "nother": 4595,
      "ncat": 4596,
      "normal": 4597,
      "os": 4598,
      "oin": 4599,
      "oing": 4600,
      "ogram": 4601,
      "ober": 4602,
      "off": 4603,
      "por": 4604,
      "pet": 4605,
      "pow": 4606,
      "pmessage": 4607,
      "ried": 4608,
      "rather": 4609,
      "sing": 4610,
      "sis": 4611,
      "save": 4612,
      "since": 4613,
      "single": 4614,
      "second": 4615,
      "sized": 4616,
      "tom": 4617,
      "tou": 4618,
      "uss": 4619,
      "uly": 4620,
      "uplic": 4621,
      "vent": 4622,
      "volatile": 4623,
      "vices": 4624,
      "wind": 4625,
      "xx": 4626,
      "yc": 4627,
      "yles": 4628,
      "ĠZ": 4629,
      "Ġtend": 4630,
      "Ġtail": 4631,
      "Ġtrou": 4632,
      "ining": 4633,
      "incre": 4634,
      "infile": 4635,
      "inrect": 4636,
      "Ġade": 4637,
      "Ġaccur": 4638,
      "Ġaug": 4639,
      "het": 4640,
      "onal": 4641,
      "onast": 4642,
      "erned": 4643,
      "rea": 4644,
      "rec": 4645,
      "res": 4646,
      "Ġsec": 4647,
      "Ġsight": 4648,
      "Ġscr": 4649,
      "Ġsens": 4650,
      "Ġocc": 4651,
      "Ġiop": 4652,
      "attle": 4653,
      "eno": 4654,
      "env": 4655,
      "enough": 4656,
      "ars": 4657,
      "Ġfall": 4658,
      "Ġfund": 4659,
      "Ġfalls": 4660,
      "Ġfpos": 4661,
      "Ġfully": 4662,
      "Ġfstat": 4663,
      "Ġfgetpos": 4664,
      "Ġfsetpos": 4665,
      "Ġpf": 4666,
      "Ġple": 4667,
      "Ġpain": 4668,
      "Ġpack": 4669,
      "Ġpip": 4670,
      "Ġpmessage": 4671,
      "Ġpci": 4672,
      "Ġino": 4673,
      "Ġinvalid": 4674,
      "Ġinclusion": 4675,
      "Ġinstru": 4676,
      "als": 4677,
      "alle": 4678,
      "ors": 4679,
      "origin": 4680,
      "Ġbless": 4681,
      "itect": 4682,
      "step": 4683,
      "Ġisalpha": 4684,
      "Ġisupper": 4685,
      "Ġnu": 4686,
      "Ġnest": 4687,
      "Ġnature": 4688,
      "ley": 4689,
      "level": 4690,
      "Ġdp": 4691,
      "Ġdro": 4692,
      "Ġdatatype": 4693,
      "Ġduplic": 4694,
      "anced": 4695,
      "ental": 4696,
      "entional": 4697,
      "Ġemb": 4698,
      "Ġmis": 4699,
      "ungetch": 4700,
      "Ġstated": 4701,
      "Ġstory": 4702,
      "Ġstud": 4703,
      "Ġstyles": 4704,
      "Ġls": 4705,
      "Ġldiv": 4706,
      "ints": 4707,
      "inter": 4708,
      "Ġreach": 4709,
      "ammatic": 4710,
      "amental": 4711,
      "utative": 4712,
      "semb": 4713,
      "Ġbee": 4714,
      "sscanf": 4715,
      "Ġvac": 4716,
      "Ġvfprintf": 4717,
      "Ġvsprintf": 4718,
      "Ġexpens": 4719,
      "Ġexplain": 4720,
      "Ġconsp": 4721,
      "Ġ*))": 4722,
      "Ġ(\"": 4723,
      "Ġ(%": 4724,
      "Ġ(,": 4725,
      "Ġ(<": 4726,
      "Ġ(++": 4727,
      "Ġ(&_": 4728,
      "ifted": 4729,
      "ayed": 4730,
      "Ġpot": 4731,
      "Ġforbidden": 4732,
      "isor": 4733,
      "isable": 4734,
      "isalnum": 4735,
      "Ġarch": 4736,
      "Ġhorizontal": 4737,
      "preprocessor": 4738,
      "Ġ=,": 4739,
      "Ġproced": 4740,
      "acters": 4741,
      "Ġstrftime": 4742,
      "Ġfive": 4743,
      "Ġpointing": 4744,
      "ulate": 4745,
      "Ġunre": 4746,
      "Ġundef": 4747,
      "Ġuninitial": 4748,
      "Ġunlike": 4749,
      "Ġunamb": 4750,
      "Ġunusual": 4751,
      "Ġwithdraw": 4752,
      "anded": 4753,
      "loy": 4754,
      "lookup": 4755,
      "expected": 4756,
      "Ġnoted": 4757,
      "Ġnotice": 4758,
      "adic": 4759,
      "ima": 4760,
      "imization": 4761,
      "implementation": 4762,
      "quate": 4763,
      "idually": 4764,
      "ĠAugustus": 4765,
      "ĠAgain": 4766,
      "ĠArea": 4767,
      "istent": 4768,
      "ased": 4769,
      "teration": 4770,
      "Ġ02": 4771,
      "Ġ04": 4772,
      "Ġ066": 4773,
      "Ġoperate": 4774,
      "Ġoperates": 4775,
      "Ġdependent": 4776,
      "Ġdelim": 4777,
      "Ġdeath": 4778,
      "Ġdevelo": 4779,
      "empty": 4780,
      "ĠCopy": 4781,
      "itioning": 4782,
      "Ġusers": 4783,
      "ĠSw": 4784,
      "ĠSplic": 4785,
      "ĠShell": 4786,
      "ĠSTE": 4787,
      "ĠSIG": 4788,
      "oug": 4789,
      "find": 4790,
      "iles": 4791,
      "iliar": 4792,
      "Ġcovered": 4793,
      "ending": 4794,
      "endir": 4795,
      "strt": 4796,
      "strstr": 4797,
      "strncpy": 4798,
      "Ġseven": 4799,
      "Ġself": 4800,
      "Ġlegitim": 4801,
      "Ġalone": 4802,
      "Ġparalle": 4803,
      "Ġsuf": 4804,
      "ĠFields": 4805,
      "ĠFLO": 4806,
      "Ġneither": 4807,
      "ĠTak": 4808,
      "Ġpres": 4809,
      "ĠEmp": 4810,
      "Ġ'(": 4811,
      "Ġ')": 4812,
      "Ġ'*": 4813,
      "Ġ'.')": 4814,
      "Ġobey": 4815,
      "ighan": 4816,
      "Ġ->": 4817,
      "ultaneous": 4818,
      "ĠWhether": 4819,
      "++);": 4820,
      "ĠOPEN": 4821,
      "Ġanywhere": 4822,
      "Ġyearday": 4823,
      "opendir": 4824,
      "Ġadopt": 4825,
      "Ġoutermost": 4826,
      "Ġapplic": 4827,
      "Ġappendix": 4828,
      "Ġapplication": 4829,
      "errno": 4830,
      "Ġnamely": 4831,
      "ĠNe": 4832,
      "ĠNor": 4833,
      "ĠNames": 4834,
      "ĠNew": 4835,
      "Ġlinear": 4836,
      "Ġ23": 4837,
      "Ġ24": 4838,
      "Ġ28": 4839,
      "Ġ220": 4840,
      "erman": 4841,
      "Ġformul": 4842,
      "Ġenh": 4843,
      "Ġenable": 4844,
      "Ġenfor": 4845,
      "Ġencount": 4846,
      "Ġreader": 4847,
      "Ġreadily": 4848,
      "Ġexamine": 4849,
      "ĠBill": 4850,
      "ĠBlan": 4851,
      "ĠBesides": 4852,
      "ĠBELL": 4853,
      "Ġmove": 4854,
      "Ġmoves": 4855,
      "ikewise": 4856,
      "Ġnews": 4857,
      "Ġinitializations": 4858,
      "Ġ&,": 4859,
      "Ġ``,": 4860,
      "Ġ``.": 4861,
      "olved": 4862,
      "olution": 4863,
      "...]": 4864,
      "Ġsetvbuf": 4865,
      "ĠDo": 4866,
      "ĠDec": 4867,
      "ĠDuring": 4868,
      "ĠDoug": 4869,
      "gettoken": 4870,
      "Ġconventional": 4871,
      "ocation": 4872,
      "Ġtrim": 4873,
      "Ġtried": 4874,
      "Ġtrigraph": 4875,
      "iod": 4876,
      "unday": 4877,
      "Ġexternally": 4878,
      "aste": 4879,
      "Ġxcat": 4880,
      "irectly": 4881,
      "Ġevent": 4882,
      "Ġsubse": 4883,
      "Ġsubexpression": 4884,
      "Ġsubarray": 4885,
      "Ġsubtle": 4886,
      "span": 4887,
      "Ġnaming": 4888,
      "crib": 4889,
      "ĠMc": 4890,
      "ĠMar": 4891,
      "Ġ%,": 4892,
      "Ġ%.": 4893,
      "Ġ%=": 4894,
      "Ġ\");": 4895,
      "ĠLangu": 4896,
      "ĠLOW": 4897,
      "quality": 4898,
      "Ġabc": 4899,
      "Ġfloats": 4900,
      "Ġchun": 4901,
      "Ġchain": 4902,
      "formation": 4903,
      "Ġcommutative": 4904,
      "External": 4905,
      "Ġjump": 4906,
      "Ġdiffers": 4907,
      "Ġdisag": 4908,
      "Ġroot": 4909,
      "Ġround": 4910,
      "ĠUPPER": 4911,
      "words": 4912,
      "ipsis": 4913,
      "Initialization": 4914,
      "ĠRome": 4915,
      "ĠRitch": 4916,
      "Ġinstances": 4917,
      "Ġwherever": 4918,
      "Ġplacing": 4919,
      "Ġplayed": 4920,
      "concaten": 4921,
      "conversion": 4922,
      "ĠHe": 4923,
      "ĠHo": 4924,
      "ĠHence": 4925,
      "ĠHUGE": 4926,
      "Ġallocates": 4927,
      "allocp": 4928,
      "LEN": 4929,
      "Ġquick": 4930,
      "Ġinterle": 4931,
      "Ġ51": 4932,
      "Ġ52": 4933,
      "Ġupdate": 4934,
      "Ġrepresenting": 4935,
      "Ġgeneration": 4936,
      "primary": 4937,
      "Ġ...);": 4938,
      "Ġ...''": 4939,
      "Ġ...).": 4940,
      "Ġevaluates": 4941,
      "week": 4942,
      "ĠExt": 4943,
      "ĠExperi": 4944,
      "tell": 4945,
      "Ġincrease": 4946,
      "Ġworst": 4947,
      "Ġmean": 4948,
      "Ġexecute": 4949,
      "Ġexecuting": 4950,
      "Ġexecutable": 4951,
      "Ġdetected": 4952,
      "Ġmatched": 4953,
      "everthe": 4954,
      "Ġ40": 4955,
      "Ġperiod": 4956,
      "Ġelsewhere": 4957,
      "Ġindirectly": 4958,
      "Ġeffective": 4959,
      "MAXWORD": 4960,
      "fixed": 4961,
      "Ġrelation": 4962,
      "Ġrelies": 4963,
      "Ġrelative": 4964,
      "Ġmaxline": 4965,
      "Ġparticip": 4966,
      "Ġrecently": 4967,
      "ĠAnother": 4968,
      "Ġcreation": 4969,
      "Ġcreating": 4970,
      "Ġentab": 4971,
      "Ġregion": 4972,
      "Ġregular": 4973,
      "ĠStar": 4974,
      "Ġshowed": 4975,
      "Ġshowing": 4976,
      "Ġproviding": 4977,
      "Ġprice": 4978,
      "Ġpragma": 4979,
      "Ġ(*++": 4980,
      "Ġ(*(*": 4981,
      "Ġoptimization": 4982,
      "Ġ101": 4983,
      "Ġ1024": 4984,
      "ociativity": 4985,
      "Ġcorresponds": 4986,
      "Ġprocesses": 4987,
      "Ġ65": 4988,
      "Ġcomputing": 4989,
      "Ġcomputations": 4990,
      "Ġ++,": 4991,
      "Ġsmax": 4992,
      "Ġinvocation": 4993,
      "Ġequals": 4994,
      "Ġ\\\"": 4995,
      "Ġ\\\\": 4996,
      "Ġbreaking": 4997,
      "pping": 4998,
      "ĠValu": 4999,
      "ĠVTAB": 5000,
      "Ġ||,": 5001,
      "Ġ||.": 5002,
      "digits": 5003,
      "Ġoverhead": 5004,
      "Ġminus": 5005,
      "Ġgrow": 5006,
      "ursive": 5007,
      "ĠAsk": 5008,
      "Ġquotient": 5009,
      "Ġ/,": 5010,
      "ĠGreen": 5011,
      "Ġunderflow": 5012,
      "Ġpromotions": 5013,
      "Ġ207": 5014,
      "Ġdescriptions": 5015,
      "Ġgrouping": 5016,
      "Ġdivisor": 5017,
      "Ġmodest": 5018,
      "bitwise": 5019,
      "Ġperforms": 5020,
      "mbolic": 5021,
      "dirname": 5022,
      "ĠJan": 5023,
      "Ġoffic": 5024,
      "symtab": 5025,
      "searching": 5026,
      "Ġconvenience": 5027,
      "Ġrecursion": 5028,
      "DIFF": 5029,
      "Ġsuffice": 5030,
      "Ġsuffices": 5031,
      "Ġcontinues": 5032,
      "Ġcontinued": 5033,
      "--)": 5034,
      "floating": 5035,
      "Ġtopics": 5036,
      "Ġ176": 5037,
      "Ġ177": 5038,
      "Ġsuppose": 5039,
      "Ġconcatenates": 5040,
      "Ġ183": 5041,
      "Ġadvisable": 5042,
      "Ġinternally": 5043,
      "Ġconsiderable": 5044,
      "treeprint": 5045,
      "shifted": 5046,
      "Ġ169": 5047,
      "posed": 5048,
      "posite": 5049,
      "issible": 5050,
      "isspace": 5051,
      "Ġprogrammer": 5052,
      "Ġcollection": 5053,
      "Ġassigns": 5054,
      "freep": 5055,
      "ncmp": 5056,
      "ĠKey": 5057,
      "ĠKern": 5058,
      "Ġqualified": 5059,
      "Ġsafe": 5060,
      "Ġindexing": 5061,
      "Ġdirbuf": 5062,
      "echn": 5063,
      "Ġ199": 5064,
      "Ġruns": 5065,
      "Ġmanipulated": 5066,
      "Ġpairs": 5067,
      "iagram": 5068,
      "encies": 5069,
      "Ġconfus": 5070,
      "Ġconfused": 5071,
      "Ġptinrect": 5072,
      "Ġportability": 5073,
      "Ġsuffixes": 5074,
      "(*++": 5075,
      "Ġsignificance": 5076,
      "bruary": 5077,
      "ĠYES": 5078,
      "Ġserious": 5079,
      "Ġservices": 5080,
      "Ġrestore": 5081,
      "Ġdeals": 5082,
      "Ġdecreasing": 5083,
      "Ġtemperatures": 5084,
      "Ġpiece": 5085,
      "Ġdidn": 5086,
      "icky": 5087,
      "changes": 5088,
      "ĠSymbolic": 5089,
      "Ġsuccessful": 5090,
      "Ġbounds": 5091,
      "Ġboundaries": 5092,
      "Ġunderstood": 5093,
      "Ġcollected": 5094,
      "gories": 5095,
      "Ġarrives": 5096,
      "Ġrandom": 5097,
      "Ġallows": 5098,
      "Ġallowed": 5099,
      "ĠPreprocessing": 5100,
      "Ġdesignator": 5101,
      "Ġkeeping": 5102,
      "Ġclearerr": 5103,
      "Ġopposite": 5104,
      "Ġdeleting": 5105,
      "Ġdeletes": 5106,
      "Ġ226": 5107,
      "Ġfourth": 5108,
      "Ġchildren": 5109,
      "198": 5110,
      "Ġtreatment": 5111,
      "Ġideas": 5112,
      "Ġbug": 5113,
      "Ġbuilt": 5114,
      "Ġpreferable": 5115,
      "1000": 5116,
      "Ġ[]);": 5117,
      "Ġissue": 5118,
      "Ġredirection": 5119,
      "Ġconcerned": 5120,
      "Ġcomplex": 5121,
      "Ġ<<=": 5122,
      "localtime": 5123,
      "Ġdistinguished": 5124,
      "Ġcolumns": 5125,
      "Ġsemicolons": 5126,
      "Ġsupported": 5127,
      "dividual": 5128,
      "Ġ^=": 5129,
      "Ġfetch": 5130,
      "Ġfastest": 5131,
      "Ġpersonal": 5132,
      "Ġindented": 5133,
      "Ġstrtok": 5134,
      "Ġdevices": 5135,
      "keyword": 5136,
      "keytab": 5137,
      "Ġcapability": 5138,
      "Ġtruncated": 5139,
      ":%-": 5140,
      "mmet": 5141,
      "header": 5142,
      "Ġphr": 5143,
      "Ġphases": 5144,
      "Ġptrdiff": 5145,
      "Ġexpressed": 5146,
      "Ġinstalled": 5147,
      "dddddd": 5148,
      "Ġmodifying": 5149,
      "Ġsurrounded": 5150,
      "Ġsurrounding": 5151,
      "While": 5152,
      "Within": 5153,
      "Ġachieved": 5154,
      "Ġscans": 5155,
      "Ġspelled": 5156,
      "Ġpaste": 5157,
      "Ġellipsis": 5158,
      "Ġlexicograph": 5159,
      "ĠTrigraph": 5160,
      "Ġlogically": 5161,
      "ĠDIRSIZ": 5162,
      "Ġsubstitution": 5163,
      "Ġdetailed": 5164,
      "Ġindicators": 5165,
      "Ġdividing": 5166,
      "Ġrepeatedly": 5167,
      "Pointer": 5168,
      "Pointers": 5169,
      "SET": 5170,
      "SHRT": 5171,
      "handling": 5172,
      "handler": 5173,
      "reenode": 5174,
      "Ġscanned": 5175,
      "Ġpicture": 5176,
      "Ġmixed": 5177,
      "Ġreceived": 5178,
      "Ġexceeds": 5179,
      "Ġconstructed": 5180,
      "Ġconnection": 5181,
      "Ġconnections": 5182,
      "Ġpopped": 5183,
      "Ġpopping": 5184,
      "Ġhistogram": 5185,
      "Ġfills": 5186,
      "ĠSubstit": 5187,
      "Ġcounted": 5188,
      "Ġsearches": 5189,
      "Ġsearched": 5190,
      "ĠEXTERNAL": 5191,
      "continue": 5192,
      "Ġundergone": 5193,
      "Ġundergoes": 5194,
      "ĠCompil": 5195,
      "Ġsupplied": 5196,
      "Conversion": 5197,
      "UNBUF": 5198,
      "Unsigned": 5199,
      "means": 5200,
      "world": 5201,
      "Ġessential": 5202,
      "instead": 5203,
      "Ġfamily": 5204,
      "Ġindeed": 5205,
      "Ġbroken": 5206,
      "Ġdiagnostic": 5207,
      "Ġlineno": 5208,
      "Ġreduced": 5209,
      "Ġconceptionally": 5210,
      "Ġattached": 5211,
      "Ġconstitute": 5212,
      "Ġcompatible": 5213,
      "ĠOrdinary": 5214,
      "ĠRecursion": 5215,
      "Ġindividually": 5216,
      "Ġrelationship": 5217,
      "ĠRevise": 5218,
      "Ġsurprising": 5219,
      "Ġreflecting": 5220,
      "Ġalphabetic": 5221,
      "Ġexhausted": 5222,
      "Ġglobal": 5223,
      "Usage": 5224,
      "Variables": 5225,
      "blank": 5226,
      "generator": 5227,
      "meric": 5228,
      "tsang": 5229,
      "Ġtmpnam": 5230,
      "Ġsquare": 5231,
      "Ġcentury": 5232,
      "Ġcategories": 5233,
      "Ġflushes": 5234,
      "Ġincorpor": 5235,
      "Ġbottom": 5236,
      "Ġisolated": 5237,
      "Ġderefer": 5238,
      "Ġmessages": 5239,
      "routines": 5240,
      "Ġredirected": 5241,
      "Ġhope": 5242,
      "Ġprobably": 5243,
      "ĠCasts": 5244,
      "Ġprepared": 5245,
      "ĠPostfix": 5246,
      "Ġrespons": 5247,
      "possible": 5248,
      "Ġconsecutive": 5249,
      "Ġbranch": 5250,
      "Ġtransferred": 5251,
      "Ġtransformations": 5252,
      "Ġmodifications": 5253,
      "Ġomitting": 5254,
      "ĠPrecedence": 5255,
      "Ġdenotes": 5256,
      "Ġsubstituted": 5257,
      "Ġmultiplying": 5258,
      "Ġeliminates": 5259,
      "ASHSIZE": 5260,
      "capes": 5261,
      "djacent": 5262,
      "increments": 5263,
      "Ġadequate": 5264,
      "Ġaugment": 5265,
      "onastery": 5266,
      "Ġsensible": 5267,
      "Ġfundamental": 5268,
      "Ġpipes": 5269,
      "itecture": 5270,
      "Ġduplicate": 5271,
      "Ġembed": 5272,
      "Ġvacated": 5273,
      "Ġexpensive": 5274,
      "Ġarchitecture": 5275,
      "Ġuninitialized": 5276,
      "Ġunambiguous": 5277,
      "Ġwithdrawn": 5278,
      "Ġ0666": 5279,
      "ĠSplicing": 5280,
      "ĠSTEP": 5281,
      "Ġparallel": 5282,
      "ĠFLOAT": 5283,
      "ĠTaktsang": 5284,
      "ĠEmpire": 5285,
      "ultaneously": 5286,
      "Ġencounters": 5287,
      "ĠBlanks": 5288,
      "ĠLanguage": 5289,
      "ĠLOWER": 5290,
      "ĠRitchie": 5291,
      "concatenate": 5292,
      "evertheless": 5293,
      "ĠGreenspan": 5294,
      "ĠKeywords": 5295,
      "ĠKernighan": 5296,
      "Ġlexicographically": 5297,
      "\"),": 5298,
      "&&": 5299,
      "'-": 5300,
      "'];": 5301,
      "(\",": 5302,
      ")''": 5303,
      ")*(": 5304,
      "+=": 5305,
      "26": 5306,
      "29": 5307,
      "214": 5308,
      "38": 5309,
      "47": 5310,
      "400": 5311,
      "53": 5312,
      "61": 5313,
      "68": 5314,
      "748": 5315,
      "768": 5316,
      "80": 5317,
      ";;)": 5318,
      ">>": 5319,
      ">.)": 5320,
      "?:": 5321,
      "AI": 5322,
      "AP": 5323,
      "Ah": 5324,
      "Ass": 5325,
      "Alan": 5326,
      "AME": 5327,
      "Be": 5328,
      "But": 5329,
      "Besides": 5330,
      "Chapters": 5331,
      "Declarators": 5332,
      "DOM": 5333,
      "EB": 5334,
      "EC": 5335,
      "EP": 5336,
      "Else": 5337,
      "Grand": 5338,
      "Going": 5339,
      "How": 5340,
      "Il": 5341,
      "Im": 5342,
      "IOF": 5343,
      "ION": 5344,
      "Le": 5345,
      "LON": 5346,
      "Mar": 5347,
      "MON": 5348,
      "MOS": 5349,
      "Nom": 5350,
      "Names": 5351,
      "New": 5352,
      "NAME": 5353,
      "OP": 5354,
      "PR": 5355,
      "PAT": 5356,
      "Parentheses": 5357,
      "PFI": 5358,
      "Re": 5359,
      "Rather": 5360,
      "Relational": 5361,
      "SCHAR": 5362,
      "Tr": 5363,
      "UG": 5364,
      "UR": 5365,
      "UCHAR": 5366,
      "Width": 5367,
      "YWORD": 5368,
      "[++": 5369,
      "[--": 5370,
      "\\\"": 5371,
      "\\'": 5372,
      "\\?": 5373,
      "\\\\": 5374,
      "aes": 5375,
      "aight": 5376,
      "aved": 5377,
      "actions": 5378,
      "avi": 5379,
      "aiss": 5380,
      "aws": 5381,
      "aints": 5382,
      "bu": 5383,
      "big": 5384,
      "bted": 5385,
      "bsearch": 5386,
      "because": 5387,
      "bell": 5388,
      "before": 5389,
      "car": 5390,
      "cing": 5391,
      "cum": 5392,
      "cial": 5393,
      "cast": 5394,
      "clock": 5395,
      "closed": 5396,
      "check": 5397,
      "cending": 5398,
      "dst": 5399,
      "dom": 5400,
      "dde": 5401,
      "derr": 5402,
      "days": 5403,
      "ele": 5404,
      "ection": 5405,
      "evalu": 5406,
      "fr": 5407,
      "fect": 5408,
      "fsize": 5409,
      "full": 5410,
      "falls": 5411,
      "first": 5412,
      "ged": 5413,
      "ging": 5414,
      "gation": 5415,
      "got": 5416,
      "great": 5417,
      "gmtime": 5418,
      "horizontal": 5419,
      "iq": 5420,
      "ior": 5421,
      "ium": 5422,
      "iated": 5423,
      "iest": 5424,
      "iends": 5425,
      "jump": 5426,
      "kim": 5427,
      "kra": 5428,
      "lin": 5429,
      "literal": 5430,
      "my": 5431,
      "ming": 5432,
      "mall": 5433,
      "mend": 5434,
      "mally": 5435,
      "mould": 5436,
      "mitted": 5437,
      "makes": 5438,
      "mium": 5439,
      "ns": 5440,
      "nu": 5441,
      "nw": 5442,
      "ners": 5443,
      "nce": 5444,
      "nem": 5445,
      "ndigit": 5446,
      "nunits": 5447,
      "oF": 5448,
      "oper": 5449,
      "oft": 5450,
      "pday": 5451,
      "pmonth": 5452,
      "pbrk": 5453,
      "piled": 5454,
      "rp": 5455,
      "ru": 5456,
      "rin": 5457,
      "ric": 5458,
      "ration": 5459,
      "ris": 5460,
      "rist": 5461,
      "rammar": 5462,
      "rchr": 5463,
      "sg": 5464,
      "sin": 5465,
      "sine": 5466,
      "same": 5467,
      "spl": 5468,
      "scalls": 5469,
      "small": 5470,
      "tt": 5471,
      "talloc": 5472,
      "tures": 5473,
      "uation": 5474,
      "upt": 5475,
      "uel": 5476,
      "ugh": 5477,
      "udd": 5478,
      "uck": 5479,
      "vp": 5480,
      "vers": 5481,
      "vio": 5482,
      "vity": 5483,
      "ventionally": 5484,
      "want": 5485,
      "xy": 5486,
      "ying": 5487,
      "ynam": 5488,
      "ĠKE": 5489,
      "Ġtin": 5490,
      "Ġten": 5491,
      "Ġtim": 5492,
      "Ġtie": 5493,
      "Ġtalk": 5494,
      "Ġtightly": 5495,
      "Ġtells": 5496,
      "Ġtutorial": 5497,
      "Ġtaste": 5498,
      "inate": 5499,
      "inber": 5500,
      "invalid": 5501,
      "increment": 5502,
      "Ġaway": 5503,
      "Ġahead": 5504,
      "hest": 5505,
      "hecks": 5506,
      "onic": 5507,
      "only": 5508,
      "eral": 5509,
      "erify": 5510,
      "rep": 5511,
      "rees": 5512,
      "realloc": 5513,
      "revity": 5514,
      "Ġsal": 5515,
      "Ġsent": 5516,
      "Ġsus": 5517,
      "Ġsval": 5518,
      "Ġsides": 5519,
      "Ġiq": 5520,
      "atter": 5521,
      "atof": 5522,
      "atives": 5523,
      "Ġcc": 5524,
      "Ġci": 5525,
      "Ġcou": 5526,
      "Ġcust": 5527,
      "Ġcult": 5528,
      "Ġcir": 5529,
      "Ġcity": 5530,
      "Ġcmp": 5531,
      "Ġcry": 5532,
      "Ġcross": 5533,
      "Ġchecks": 5534,
      "ene": 5535,
      "eness": 5536,
      "eneous": 5537,
      "enaiss": 5538,
      "enging": 5539,
      "arro": 5540,
      "arithm": 5541,
      "arithmetic": 5542,
      "aringly": 5543,
      "Ġfval": 5544,
      "Ġfread": 5545,
      "Ġfash": 5546,
      "Ġflush": 5547,
      "Ġfgetc": 5548,
      "Ġfcn": 5549,
      "Ġfputc": 5550,
      "Ġftell": 5551,
      "Ġpur": 5552,
      "Ġpub": 5553,
      "Ġinher": 5554,
      "Ġinad": 5555,
      "Ġinstruct": 5556,
      "Ġinfix": 5557,
      "Ġinverse": 5558,
      "eds": 5559,
      "edit": 5560,
      "also": 5561,
      "allow": 5562,
      "aley": 5563,
      "orld": 5564,
      "Ġbal": 5565,
      "Ġbsearch": 5566,
      "Ġbfree": 5567,
      "Ġbesides": 5568,
      "Ġbrevity": 5569,
      "ctober": 5570,
      "itte": 5571,
      "itud": 5572,
      "Ġofp": 5573,
      "Ġoffer": 5574,
      "stances": 5575,
      "Ġwin": 5576,
      "Ġwon": 5577,
      "Ġwal": 5578,
      "Ġwider": 5579,
      "Ġwalk": 5580,
      "Ġwater": 5581,
      "Ġisalnum": 5582,
      "Ġns": 5583,
      "Ġnbr": 5584,
      "Ġnesting": 5585,
      "lean": 5586,
      "legal": 5587,
      "Ġdi": 5588,
      "Ġdest": 5589,
      "Ġdates": 5590,
      "Ġdval": 5591,
      "Ġdra": 5592,
      "Ġdimens": 5593,
      "Ġderived": 5594,
      "Ġdeclaring": 5595,
      "Ġdiagram": 5596,
      "Ġdynam": 5597,
      "ani": 5598,
      "ented": 5599,
      "entially": 5600,
      "Ġever": 5601,
      "Ġmm": 5602,
      "Ġmant": 5603,
      "Ġmarch": 5604,
      "Ġmagic": 5605,
      "Ġmktime": 5606,
      "Ġmonastery": 5607,
      "Ġmnem": 5608,
      "Ġmsg": 5609,
      "ingdom": 5610,
      "under": 5611,
      "unately": 5612,
      "Ġstren": 5613,
      "Ġlif": 5614,
      "Ġliter": 5615,
      "Ġlie": 5616,
      "Ġlaws": 5617,
      "roy": 5618,
      "Ġreign": 5619,
      "Ġrefin": 5620,
      "Ġreally": 5621,
      "Ġretr": 5622,
      "Ġrealloc": 5623,
      "Ġredefined": 5624,
      "Ġreport": 5625,
      "Ġrelevant": 5626,
      "Ġreached": 5627,
      "Ġrepet": 5628,
      "Ġrewind": 5629,
      "ama": 5630,
      "amp": 5631,
      "Ġthink": 5632,
      "uting": 5633,
      "utions": 5634,
      "iced": 5635,
      "separ": 5636,
      "selection": 5637,
      "Ġbell": 5638,
      "Ġbelong": 5639,
      "Ġvs": 5640,
      "Ġvar": 5641,
      "Ġvect": 5642,
      "Ġexem": 5643,
      "Ġexcess": 5644,
      "Ġexchanged": 5645,
      "Ġexcluding": 5646,
      "Ġexchanges": 5647,
      "Ġconve": 5648,
      "Ġconform": 5649,
      "Ġconsequence": 5650,
      "Ġ(#": 5651,
      "Ġ(...)": 5652,
      "Ġ(;;)": 5653,
      "etc": 5654,
      "eted": 5655,
      "eturn": 5656,
      "etime": 5657,
      "etween": 5658,
      "etails": 5659,
      "ifp": 5660,
      "ifdef": 5661,
      "iform": 5662,
      "aylight": 5663,
      "iger": 5664,
      "igate": 5665,
      "ighest": 5666,
      "urity": 5667,
      "Ġitob": 5668,
      "Ġpol": 5669,
      "Ġpolic": 5670,
      "Ġinterr": 5671,
      "Ġintends": 5672,
      "Ġintentionally": 5673,
      "Ġforget": 5674,
      "acy": 5675,
      "ota": 5676,
      "otion": 5677,
      "otation": 5678,
      "omog": 5679,
      "deed": 5680,
      "depend": 5681,
      "llig": 5682,
      "llaneous": 5683,
      "isce": 5684,
      "islower": 5685,
      "isdst": 5686,
      "Ġarms": 5687,
      "Ġarena": 5688,
      "Ġhomog": 5689,
      "prevp": 5690,
      "Ġ=\");": 5691,
      "abilities": 5692,
      "abbreviated": 5693,
      "acted": 5694,
      "active": 5695,
      "Ġstrstr": 5696,
      "Ġstrncpy": 5697,
      "Ġstrncmp": 5698,
      "Ġstraight": 5699,
      "Ġfilling": 5700,
      "peror": 5701,
      "ulary": 5702,
      "Ġgot": 5703,
      "Ġgone": 5704,
      "Ġgrep": 5705,
      "ptic": 5706,
      "ptember": 5707,
      "Ġunf": 5708,
      "Ġunad": 5709,
      "Ġunprocess": 5710,
      "Ġunconverted": 5711,
      "Ġunlink": 5712,
      "Ġunwritten": 5713,
      "Ġunexpected": 5714,
      "Ġunwant": 5715,
      "Ġuniform": 5716,
      "andling": 5717,
      "loped": 5718,
      "existent": 5719,
      "turns": 5720,
      "Ġnotational": 5721,
      "Ġnotably": 5722,
      "umber": 5723,
      "umps": 5724,
      "ummary": 5725,
      "Ġassemb": 5726,
      "Ġascending": 5727,
      "aditional": 5728,
      "imits": 5729,
      "imitive": 5730,
      "quest": 5731,
      "quival": 5732,
      "quences": 5733,
      "quote": 5734,
      "Ġifdef": 5735,
      "Ġifndef": 5736,
      "ided": 5737,
      "ifiable": 5738,
      "amewor": 5739,
      "Ġtypewrit": 5740,
      "ĠAir": 5741,
      "ĠAllow": 5742,
      "ĠApp": 5743,
      "ĠAho": 5744,
      "ĠABS": 5745,
      "ĠAmong": 5746,
      "ĠAmeric": 5747,
      "ĠAdjacent": 5748,
      "igns": 5749,
      "ignals": 5750,
      "ĠIteration": 5751,
      "gration": 5752,
      "isting": 5753,
      "istic": 5754,
      "asion": 5755,
      "asure": 5756,
      "asionally": 5757,
      "asctime": 5758,
      "Ġ11": 5759,
      "Ġ114": 5760,
      "uctures": 5761,
      "termin": 5762,
      "Ġ017": 5763,
      "Ġvaluable": 5764,
      "Ġspacing": 5765,
      "Ġsparingly": 5766,
      "allenging": 5767,
      "agmas": 5768,
      "Ġdefer": 5769,
      "ained": 5770,
      "ems": 5771,
      "emed": 5772,
      "rinted": 5773,
      "ĠCo": 5774,
      "ĠCall": 5775,
      "ĠCup": 5776,
      "ĠCreat": 5777,
      "ĠClose": 5778,
      "ĠChapters": 5779,
      "ĠCOM": 5780,
      "ĠCaes": 5781,
      "plex": 5782,
      "ĠSp": 5783,
      "ĠSel": 5784,
      "ĠSte": 5785,
      "ĠSizes": 5786,
      "ĠSCHAR": 5787,
      "ĠSaving": 5788,
      "ĠSunday": 5789,
      "ĠSummary": 5790,
      "ĠSignals": 5791,
      "ouse": 5792,
      "illegal": 5793,
      "strchr": 5794,
      "strncat": 5795,
      "strrchr": 5796,
      "Ġselect": 5797,
      "Ġselection": 5798,
      "plified": 5799,
      "Ġvariation": 5800,
      "Ġvariadic": 5801,
      "characters": 5802,
      "Ġalmost": 5803,
      "Ġparsing": 5804,
      "Ġsucc": 5805,
      "ĠFate": 5806,
      "ĠFlow": 5807,
      "ĠFren": 5808,
      "ĠFopen": 5809,
      "ĠFiles": 5810,
      "ĠFEB": 5811,
      "Ġatan": 5812,
      "Ġatexit": 5813,
      "Ġneat": 5814,
      "Ġrich": 5815,
      "ibrary": 5816,
      "ĠText": 5817,
      "ĠTAB": 5818,
      "ĠTests": 5819,
      "ĠTesting": 5820,
      "ĠTreeptr": 5821,
      "ĠTutorial": 5822,
      "ĠTreenode": 5823,
      "eline": 5824,
      "elson": 5825,
      "Ġcontent": 5826,
      "Ġpredefined": 5827,
      "Ġpreser": 5828,
      "Ġpremium": 5829,
      "Ġintellig": 5830,
      "ĠEm": 5831,
      "ĠEs": 5832,
      "ĠEth": 5833,
      "ĠEither": 5834,
      "ĠEvalu": 5835,
      "ĠEvery": 5836,
      "ĠElse": 5837,
      "ĠEBC": 5838,
      "ĠEquality": 5839,
      "ĠEDOM": 5840,
      "ĠEquival": 5841,
      "romotion": 5842,
      "Ġ',": 5843,
      "Ġgetting": 5844,
      "onger": 5845,
      "Ġsole": 5846,
      "Ġsold": 5847,
      "fere": 5848,
      "ferences": 5849,
      "ferror": 5850,
      "Ġdefining": 5851,
      "Ġotherprog": 5852,
      "Ġmapping": 5853,
      "ĠWar": 5854,
      "ĠWord": 5855,
      "ĠWide": 5856,
      "ĠWould": 5857,
      "ĠWorld": 5858,
      "Ġlose": 5859,
      "Ġloss": 5860,
      "Ġloose": 5861,
      "Ġcomponent": 5862,
      "orta": 5863,
      "ortun": 5864,
      "Ġcaution": 5865,
      "irm": 5866,
      "ĠOf": 5867,
      "ĠOctal": 5868,
      "forth": 5869,
      "forward": 5870,
      "ĠPl": 5871,
      "ĠPad": 5872,
      "ĠPross": 5873,
      "ĠPrintf": 5874,
      "ĠParentheses": 5875,
      "ĠPos": 5876,
      "ĠPrinted": 5877,
      "ĠPromotion": 5878,
      "ĠPorta": 5879,
      "ighting": 5880,
      "Ġshare": 5881,
      "Ġshatter": 5882,
      "Ġadapt": 5883,
      "ĠNO": 5884,
      "ĠNull": 5885,
      "ĠNatur": 5886,
      "ĠNUL": 5887,
      "ĠNevertheless": 5888,
      "ĠNotation": 5889,
      "ĠNumber": 5890,
      "ĠNelson": 5891,
      "Ġsymmet": 5892,
      "Ġsyscalls": 5893,
      "Ġnodes": 5894,
      "Ġlinefeed": 5895,
      "Ġ211": 5896,
      "Ġ232": 5897,
      "Ġ231": 5898,
      "Ġheavi": 5899,
      "Ġhence": 5900,
      "Ġhashing": 5901,
      "'';": 5902,
      "Ġimpossible": 5903,
      "Ġready": 5904,
      "outh": 5905,
      "outfile": 5906,
      "Ġexamined": 5907,
      "Ġfold": 5908,
      "ĠBe": 5909,
      "ĠBreak": 5910,
      "ĠBUF": 5911,
      "ĠBob": 5912,
      "ĠBefore": 5913,
      "ĠBudd": 5914,
      "ĠBetween": 5915,
      "Ġrescan": 5916,
      "Ġresolved": 5917,
      "uffixed": 5918,
      "Ġmoder": 5919,
      "angent": 5920,
      "ĠInclusive": 5921,
      "ĠInternal": 5922,
      "ĠInformation": 5923,
      "ĠIndividual": 5924,
      "ĠIndeed": 5925,
      "Ġinitializing": 5926,
      "Ġconverter": 5927,
      "...);": 5928,
      "...\".": 5929,
      "Ġtword": 5930,
      "Ġsetbuf": 5931,
      "Ġ==.": 5932,
      "pended": 5933,
      "sopt": 5934,
      "ĠDam": 5935,
      "ĠDate": 5936,
      "ĠDiagnost": 5937,
      "ĠDecre": 5938,
      "ĠDerived": 5939,
      "ĠDEC": 5940,
      "getenv": 5941,
      "Ġlikewise": 5942,
      "ocator": 5943,
      "plicity": 5944,
      "Ġaddpoint": 5945,
      "Ġtruly": 5946,
      "Ġtricky": 5947,
      "Ġthereafter": 5948,
      "asty": 5949,
      "kens": 5950,
      "Ġsubsets": 5951,
      "spn": 5952,
      "args": 5953,
      "ĠMA": 5954,
      "ĠMin": 5955,
      "ĠMike": 5956,
      "ĠMAR": 5957,
      "ĠMultiplicative": 5958,
      "ĠMisce": 5959,
      "apped": 5960,
      "Ġ%;": 5961,
      "Ġ%),": 5962,
      "assigns": 5963,
      "Ġ\".": 5964,
      "Ġ\"..": 5965,
      "Ġ\"\");": 5966,
      "ĠLow": 5967,
      "ĠLove": 5968,
      "ĠLINE": 5969,
      "ĠLiteral": 5970,
      "ĠLseek": 5971,
      "ĠLONG": 5972,
      "ĠLabeled": 5973,
      "ĠLvalues": 5974,
      "ĠLikewise": 5975,
      "ĠLimits": 5976,
      "ĠListing": 5977,
      "ĠLibrary": 5978,
      "Ġendp": 5979,
      "Ġ36": 5980,
      "Ġabbreviated": 5981,
      "Ġabnormal": 5982,
      "structure": 5983,
      "structured": 5984,
      "Ġchance": 5985,
      "Ġchallenging": 5986,
      "Ġdesk": 5987,
      "ĠFormally": 5988,
      "formfeed": 5989,
      "Ġsomeone": 5990,
      "Ġcommitte": 5991,
      "[][": 5992,
      "Expressions": 5993,
      "Ġjoin": 5994,
      "(),": 5995,
      "Ġtypesetting": 5996,
      "coer": 5997,
      "produ": 5998,
      "Ġdisk": 5999,
      "Ġdisallow": 6000,
      "ĠUL": 6001,
      "ĠUtil": 6002,
      "ĠUpper": 6003,
      "ĠUkra": 6004,
      "Ġelem": 6005,
      "Ġelection": 6006,
      "Ġlooping": 6007,
      "Ġdifferences": 6008,
      "Ġkeycount": 6009,
      "ĠRW": 6010,
      "ĠRo": 6011,
      "ĠRes": 6012,
      "ĠRight": 6013,
      "ĠRead": 6014,
      "ĠRules": 6015,
      "ĠRAND": 6016,
      "ĠRob": 6017,
      "ĠRuss": 6018,
      "ĠRenaiss": 6019,
      "ĠReturn": 6020,
      "Ġplays": 6021,
      "bufsize": 6022,
      "ĠHar": 6023,
      "ĠHol": 6024,
      "ĠHear": 6025,
      "ĠHASHSIZE": 6026,
      "ĠHaley": 6027,
      "ĠHandling": 6028,
      "eneration": 6029,
      "Ġchanging": 6030,
      "SILON": 6031,
      "Ġbufsize": 6032,
      "optional": 6033,
      "Ġdecade": 6034,
      "Ġinterval": 6035,
      "Ġinterested": 6036,
      "Ġinterests": 6037,
      "Ġinterfere": 6038,
      "Ġprovision": 6039,
      "Ġ5000": 6040,
      "ecution": 6041,
      "Ġfreeing": 6042,
      "Ġfreely": 6043,
      "Ġgenerating": 6044,
      "pragma": 6045,
      "ĠWeinber": 6046,
      "Ġtextual": 6047,
      "Ġmanag": 6048,
      "Ġreplacing": 6049,
      "ĠExit": 6050,
      "ĠExpression": 6051,
      "ĠExclusive": 6052,
      "ĠExplain": 6053,
      "ĠExecution": 6054,
      "Ġmeets": 6055,
      "Ġexecutes": 6056,
      "Ġdetect": 6057,
      "Ġequally": 6058,
      "Ġmatters": 6059,
      "Ġmathematic": 6060,
      "Ġaccesses": 6061,
      "Ġ44": 6062,
      "Ġ48": 6063,
      "Ġ49": 6064,
      "Ġ400": 6065,
      "Ġsimulate": 6066,
      "Ġsimultaneously": 6067,
      "Ġsimplicity": 6068,
      "Ġperfect": 6069,
      "Ġterminator": 6070,
      "Ġeffectively": 6071,
      "Ġequivalence": 6072,
      "Ġbring": 6073,
      "127": 6074,
      "Ġsorts": 6075,
      "toul": 6076,
      "tolower": 6077,
      "Ġmaxlines": 6078,
      "Ġlocations": 6079,
      "Ġlocution": 6080,
      "Ġparticulary": 6081,
      "Ġrecent": 6082,
      "Ġrecording": 6083,
      "Ġhands": 6084,
      "Ġhandful": 6085,
      "Ġhandled": 6086,
      "ĠAng": 6087,
      "Ġpermissible": 6088,
      "Ġanotherprog": 6089,
      "Ġseconds": 6090,
      "ĠStatic": 6091,
      "ĠStderr": 6092,
      "Ġlasts": 6093,
      "Ġlastarg": 6094,
      "Ġdefn": 6095,
      "Ġindication": 6096,
      "ĠSelection": 6097,
      "ĠSequences": 6098,
      "Ġseparator": 6099,
      "Ġseparates": 6100,
      "Ġfeel": 6101,
      "Ġprin": 6102,
      "Ġprimitive": 6103,
      "ypv": 6104,
      "readable": 6105,
      "readdir": 6106,
      "Ġoptions": 6107,
      "ĠConvent": 6108,
      "Paro": 6109,
      "Ġaddressing": 6110,
      "(\"%.": 6111,
      "Ġ75": 6112,
      "Ġ76": 6113,
      "Ġ79": 6114,
      "Ġfinding": 6115,
      "Ġbackspace": 6116,
      "Ġformatting": 6117,
      "declarations": 6118,
      "Ġ62": 6119,
      "Ġcomputers": 6120,
      "Ġassociates": 6121,
      "Ġinvented": 6122,
      "Ġinvasion": 6123,
      "Ġ?:": 6124,
      "Ġ\\,": 6125,
      "Ġbreaks": 6126,
      "Ġexplo": 6127,
      "pped": 6128,
      "ĠVersion": 6129,
      "iteration": 6130,
      "Ġungets": 6131,
      "Ġcommonly": 6132,
      "roughout": 6133,
      "sequent": 6134,
      "Ġoverwrit": 6135,
      "Ġeasily": 6136,
      "Ġeasiest": 6137,
      "Ġproductions": 6138,
      "abels": 6139,
      "Ġminim": 6140,
      "Ġgrows": 6141,
      "Ġrequirement": 6142,
      "comers": 6143,
      "compound": 6144,
      "ictly": 6145,
      "Ġsynthes": 6146,
      "Ġillustrated": 6147,
      "Ġillustrative": 6148,
      "Thereafter": 6149,
      "Ġcommands": 6150,
      "Ġgeneralize": 6151,
      "Ġ80": 6152,
      "Ġ82": 6153,
      "Ġ83": 6154,
      "Ġpushing": 6155,
      "Ġdistance": 6156,
      "Ġdependencies": 6157,
      "Ġpresents": 6158,
      ",'',": 6159,
      "ĠGoto": 6160,
      "ĠGetting": 6161,
      "ĠGerman": 6162,
      "ĠGrammar": 6163,
      "ĠGetc": 6164,
      "ĠGeneration": 6165,
      "Ġunderlying": 6166,
      "ĠMAXVAL": 6167,
      "ĠMAXLEN": 6168,
      "Ġpreprocessors": 6169,
      "Ġfreopen": 6170,
      "Ġpopular": 6171,
      "Ġ201": 6172,
      "Ġ203": 6173,
      "Ġ205": 6174,
      "Ġ206": 6175,
      "Ġ2018": 6176,
      "Ġescapes": 6177,
      "Ġdivisible": 6178,
      "Ġdivides": 6179,
      "Ġmodifiable": 6180,
      "criptors": 6181,
      "Ġlooked": 6182,
      "Ġlooking": 6183,
      "Ġcomparing": 6184,
      "Ġcomparatively": 6185,
      "Ġdetermining": 6186,
      "Ġperforming": 6187,
      "Ġswitching": 6188,
      "Ġtempfile": 6189,
      "dirwalk": 6190,
      "ĠJim": 6191,
      "ĠJump": 6192,
      "ĠJama": 6193,
      "ĠJumps": 6194,
      "Ġconstraints": 6195,
      "Ġconstrained": 6196,
      "ĠUnion": 6197,
      "ĠUnless": 6198,
      "ĠUnnamed": 6199,
      "ĠUngetc": 6200,
      "ĠUnited": 6201,
      "ĠUnlink": 6202,
      "Ġnumerical": 6203,
      "Ġnumerically": 6204,
      "Ġapproved": 6205,
      "Ġknowing": 6206,
      "Ġknowled": 6207,
      "Ġ*)(": 6208,
      "Ġ*));": 6209,
      "ometimes": 6210,
      "ĠComplicated": 6211,
      "ĠComma": 6212,
      "ĠCompound": 6213,
      "ĠComplex": 6214,
      "Ġsymbols": 6215,
      "DIC": 6216,
      "Ġbasis": 6217,
      "Ġemail": 6218,
      "Ġemperor": 6219,
      "ificial": 6220,
      "Ġsufficient": 6221,
      "floatnode": 6222,
      "Ġintroduce": 6223,
      "Ġsupplement": 6224,
      "Ġsubscripted": 6225,
      "())[])()": 6226,
      "ĠRegister": 6227,
      "ĠReference": 6228,
      "ĠReferences": 6229,
      "portable": 6230,
      "Ġignoring": 6231,
      "Ġlatitude": 6232,
      "Ġ181": 6233,
      "Ġ182": 6234,
      "Ġ185": 6235,
      "Ġ186": 6236,
      "Ġ188": 6237,
      "Ġconsiderations": 6238,
      "Ġamessage": 6239,
      "Ġholding": 6240,
      "Ġprotected": 6241,
      ")();": 6242,
      "filecopy": 6243,
      "match": 6244,
      "matches": 6245,
      "show": 6246,
      "addtree": 6247,
      "ĠAlign": 6248,
      "Ġshifts": 6249,
      "poses": 6250,
      "issa": 6251,
      "longest": 6252,
      "ources": 6253,
      "Ġcolleag": 6254,
      "Ġhelps": 6255,
      "Ġhelped": 6256,
      "Ġlargely": 6257,
      "ĠKore": 6258,
      "ĠKrist": 6259,
      "ĠKingdom": 6260,
      "Ġsaves": 6261,
      "echo": 6262,
      "Ġbehavio": 6263,
      "Ġgraph": 6264,
      "Ġgrammatic": 6265,
      "Ġ196": 6266,
      "Ġencyc": 6267,
      "Ġmanipulating": 6268,
      "Ġdistinctions": 6269,
      "Ġturns": 6270,
      "Ġturned": 6271,
      "Ġskips": 6272,
      "encing": 6273,
      "Ġconfuse": 6274,
      "Ġgreatly": 6275,
      "Ġalternatives": 6276,
      "Ġmeaningless": 6277,
      "Ġmeaningfully": 6278,
      "Ġrequests": 6279,
      "Ġactiv": 6280,
      "Ġcaten": 6281,
      "Ġentirely": 6282,
      "Ġenvironments": 6283,
      "Ġzone": 6284,
      "Ġcareful": 6285,
      "Ġconnecting": 6286,
      "ĠAdditive": 6287,
      "Ġ127": 6288,
      "Ġdiscarding": 6289,
      "backspace": 6290,
      "backslash": 6291,
      "limin": 6292,
      "Ġ~(": 6293,
      "Ġserves": 6294,
      "Ġreasons": 6295,
      "Ġreasoning": 6296,
      "Ġ147": 6297,
      "Ġ149": 6298,
      "Ġdealt": 6299,
      "Ġdealing": 6300,
      "ĠTokens": 6301,
      "Ġsimpler": 6302,
      "Ġsimplify": 6303,
      "DIRSIZ": 6304,
      "CIA": 6305,
      "Ġcarried": 6306,
      "Ġpushes": 6307,
      "Ġnaturally": 6308,
      "ĠAllocator": 6309,
      "ĠSyntax": 6310,
      "ĠSyntactically": 6311,
      "Ġsupply": 6312,
      "Ġsupplying": 6313,
      "Ġsuccessfully": 6314,
      "Ġ##,": 6315,
      "Ġrecorded": 6316,
      "Ġexpands": 6317,
      "Ġexpanding": 6318,
      "compiled": 6319,
      "Ġfrequent": 6320,
      "Ġfrequency": 6321,
      "sler": 6322,
      "Ġmechanics": 6323,
      "Ġgotos": 6324,
      "Ġprefixed": 6325,
      "ĠPredefined": 6326,
      "ĠPreprocessor": 6327,
      "Ġsubtraction": 6328,
      "ĠLookup": 6329,
      "Ġkeeps": 6330,
      "Ġclearer": 6331,
      "ubscript": 6332,
      "alph": 6333,
      "Ġdeleted": 6334,
      "ĠFortunately": 6335,
      "Ġ225": 6336,
      "Ġaccepts": 6337,
      "Ġextensive": 6338,
      "Ġattempts": 6339,
      "1828": 6340,
      "byte": 6341,
      "bytes": 6342,
      "Ġideal": 6343,
      "Ġfront": 6344,
      "Ġfriends": 6345,
      "Ġframewor": 6346,
      "Ġversus": 6347,
      "Ġorganize": 6348,
      "Ġorganized": 6349,
      "Ġpreference": 6350,
      "Ġpreferred": 6351,
      "Ġ32767": 6352,
      "partopt": 6353,
      "partsopt": 6354,
      "Ġefficiently": 6355,
      "Ġcomputationally": 6356,
      "Ġexponentiation": 6357,
      "Ġunderstanding": 6358,
      "ABRT": 6359,
      "Ġfalseho": 6360,
      "unication": 6361,
      "Ġrecovery": 6362,
      "Ġextends": 6363,
      "Ġ(--(": 6364,
      "Ġ151": 6365,
      "Ġsuitably": 6366,
      "Ġformalizes": 6367,
      "Ġformalizing": 6368,
      "Ġtrying": 6369,
      "Ġdecisions": 6370,
      "Ġrectangular": 6371,
      "ĠIntegers": 6372,
      "Ġalgorithms": 6373,
      "Structures": 6374,
      "Strictly": 6375,
      "denom": 6376,
      "Ġfetched": 6377,
      "Ġpeace": 6378,
      "Ġstrtod": 6379,
      "Ġcomplementing": 6380,
      "Ġprevent": 6381,
      "Ġprevents": 6382,
      "Ġcapable": 6383,
      "Ġcapabilities": 6384,
      "ĠBlocks": 6385,
      "Ġtruncation": 6386,
      "Ġtruncate": 6387,
      "Ġtruncates": 6388,
      "Ġenumerators": 6389,
      "Ġsplitting": 6390,
      "3647": 6391,
      ":%.": 6392,
      "Recently": 6393,
      "Section": 6394,
      "WRONLY": 6395,
      "does": 6396,
      "mmm": 6397,
      "tmpfile": 6398,
      "Ġclosely": 6399,
      "Ġphys": 6400,
      "Ġemploy": 6401,
      "integers": 6402,
      "Ġexperienced": 6403,
      "Ġartificial": 6404,
      "ĠSET": 6405,
      "Ġsuggested": 6406,
      "Ġsuggests": 6407,
      "Ġobserve": 6408,
      "ĠWhile": 6409,
      "ĠPrimary": 6410,
      "ĠPrima": 6411,
      "ĠPragmas": 6412,
      "Ġappended": 6413,
      "Ġappending": 6414,
      "Ġcommunicating": 6415,
      "Ġpermitting": 6416,
      "ĠContinue": 6417,
      "dddddde": 6418,
      "Ġsummarized": 6419,
      "Ġowners": 6420,
      "Ġidioms": 6421,
      "Ġannounce": 6422,
      ")-(": 6423,
      "Argument": 6424,
      "Once": 6425,
      "What": 6426,
      "White": 6427,
      "justified": 6428,
      "Ġclosing": 6429,
      "Ġanswered": 6430,
      "Ġdenom": 6431,
      "Ġunsuffixed": 6432,
      "Ġ135": 6433,
      "ĠTrailing": 6434,
      "Ġlogarithm": 6435,
      "ĠMoreover": 6436,
      "SIGABRT": 6437,
      "Ġregistration": 6438,
      "ĠJoe": 6439,
      "Ġsuppressed": 6440,
      "Ġ12345": 6441,
      "EXTERNAL": 6442,
      "SEC": 6443,
      "Static": 6444,
      "Storage": 6445,
      "Throughout": 6446,
      "describ": 6447,
      "iopian": 6448,
      "Ġcpi": 6449,
      "Ġfailure": 6450,
      "Ġpictured": 6451,
      "Ġreceives": 6452,
      "ambled": 6453,
      "Ġhistor": 6454,
      "expanded": 6455,
      "vertical": 6456,
      "ĠShift": 6457,
      "ĠSubsequent": 6458,
      "Ġcounter": 6459,
      "ĠEXIT": 6460,
      "ĠPrograms": 6461,
      "ĠProgramming": 6462,
      "Ġdocuments": 6463,
      "ĠDesire": 6464,
      "ĠDescriptors": 6465,
      "contin": 6466,
      "Ġclarity": 6467,
      "Ġclarify": 6468,
      "Ġclarifies": 6469,
      "Ġmodulus": 6470,
      "ĠCommunication": 6471,
      "ĠCompare": 6472,
      "Ġsupplies": 6473,
      "Ġrecognize": 6474,
      "Ġrecognized": 6475,
      "Ġinsertion": 6476,
      "Ġemphasize": 6477,
      "Ġemphasized": 6478,
      "Ġemphasizes": 6479,
      "BUFSIZE": 6480,
      "Ġessentially": 6481,
      "install": 6482,
      "Ġshellsort": 6483,
      "Ġfamiliar": 6484,
      "Ġindebted": 6485,
      "Ġbroad": 6486,
      "Ġbinding": 6487,
      "Ġnicely": 6488,
      "Ġdiagnostics": 6489,
      "Ġlinks": 6490,
      "Ġreduce": 6491,
      "Ġproceeds": 6492,
      "Ġasked": 6493,
      "Ġasking": 6494,
      "Ġseems": 6495,
      "Ġnearer": 6496,
      "Ġnearly": 6497,
      "Ġconstituting": 6498,
      "Ġcompatibility": 6499,
      "ĠOrder": 6500,
      "ĠLevel": 6501,
      "Ġworrying": 6502,
      "Ġindividual": 6503,
      "ĠAddresses": 6504,
      "Ġrepeats": 6505,
      "Ġbuilding": 6506,
      "Ġaffects": 6507,
      "Ġmethods": 6508,
      "Ġalphabet": 6509,
      "RADIXn": 6510,
      "Ġglobally": 6511,
      "!='\\": 6512,
      "DEF": 6513,
      "Feb": 6514,
      "February": 6515,
      "checks": 6516,
      "lication": 6517,
      "occurs": 6518,
      "Ġscale": 6519,
      "Ġscaled": 6520,
      "Ġcritical": 6521,
      "Ġdrawback": 6522,
      "Ġmagnitude": 6523,
      "Ġmagnitud": 6524,
      "Ġstanding": 6525,
      "Ġpowers": 6526,
      "Ġstrictly": 6527,
      "ĠImplementation": 6528,
      "ĠChanges": 6529,
      "Ġcoercion": 6530,
      "Ġcoercions": 6531,
      "Ġvariants": 6532,
      "Ġcanonical": 6533,
      "Ġcanonrect": 6534,
      "Ġrarely": 6535,
      "Ġweekday": 6536,
      "ĠOpening": 6537,
      "Ġimproved": 6538,
      "ĠInterface": 6539,
      "ĠIncrementation": 6540,
      "ĠDirectories": 6541,
      "ĠDefinitions": 6542,
      "ĠManual": 6543,
      "ĠManagement": 6544,
      "Ġdisappearing": 6545,
      "Ġelaborate": 6546,
      "ĠExpansion": 6547,
      "Ġrecommend": 6548,
      "Ġrecompiled": 6549,
      "Ġpermanent": 6550,
      "Ġpermanently": 6551,
      "Ġediting": 6552,
      "Ġoverlapping": 6553,
      "Ġtranslated": 6554,
      "Ġpipeline": 6555,
      "Ġsuggestions": 6556,
      "ArchiveBy": 6557,
      "Ġdocumentation": 6558,
      "65535": 6559,
      "About": 6560,
      "Brian": 6561,
      "MANT": 6562,
      "Syntactically": 6563,
      "freopen": 6564,
      "toupper": 6565,
      "ĠZero": 6566,
      "Ġtendency": 6567,
      "Ġtrouble": 6568,
      "Ġaccurate": 6569,
      "hetical": 6570,
      "recursive": 6571,
      "Ġscrambled": 6572,
      "Ġoccup": 6573,
      "Ġinstruction": 6574,
      "Ġblesses": 6575,
      "Ġdropped": 6576,
      "Ġmismatch": 6577,
      "Ġstudying": 6578,
      "Ġreaching": 6579,
      "Ġexplains": 6580,
      "Ġconspire": 6581,
      "Ġpotentionally": 6582,
      "Ġprocedure": 6583,
      "Ġdelimited": 6584,
      "Ġdeveloped": 6585,
      "ĠCopying": 6586,
      "ĠSwitch": 6587,
      "strtol": 6588,
      "Ġsuffer": 6589,
      "Ġpresence": 6590,
      "Ġ'(')": 6591,
      "Ġ')')": 6592,
      "Ġadopted": 6593,
      "Ġapplications": 6594,
      "Ġformula": 6595,
      "Ġenhance": 6596,
      "Ġenforce": 6597,
      "Ġeventually": 6598,
      "Ġsubsection": 6599,
      "ĠMcIl": 6600,
      "ĠMark": 6601,
      "Ġabcdef": 6602,
      "Ġchunks": 6603,
      "Ġdisagrees": 6604,
      "Ġrounded": 6605,
      "Ġquickly": 6606,
      "Ġinterleaved": 6607,
      "ĠExtend": 6608,
      "ĠExperiment": 6609,
      "Ġparticipate": 6610,
      "ĠStarted": 6611,
      "ĠValue": 6612,
      "ĠJanuary": 6613,
      "Ġofficial": 6614,
      "echnically": 6615,
      "Ġconfusion": 6616,
      "Ġfetching": 6617,
      "Ġphrase": 6618,
      "ddddddE": 6619,
      "ĠSubstitution": 6620,
      "ĠCompilation": 6621,
      "Ġincorporates": 6622,
      "Ġdereferencing": 6623,
      "Ġresponsibility": 6624,
      "Ġaugmented": 6625,
      "Ġembedding": 6626,
      "'-');": 6627,
      "214748": 6628,
      "AIL": 6629,
      "EPSILON": 6630,
      "IOFBF": 6631,
      "Nominate": 6632,
      "PATH": 6633,
      "carriage": 6634,
      "cumstances": 6635,
      "closedir": 6636,
      "checking": 6637,
      "element": 6638,
      "greater": 6639,
      "often": 6640,
      "splits": 6641,
      "smallest": 6642,
      "ught": 6643,
      "ĠKEYWORD": 6644,
      "Ġtiny": 6645,
      "Ġtimeline": 6646,
      "Ġsalary": 6647,
      "Ġsuspended": 6648,
      "Ġcouple": 6649,
      "Ġcustom": 6650,
      "Ġcircumstances": 6651,
      "Ġcryptic": 6652,
      "arrower": 6653,
      "Ġfashion": 6654,
      "Ġpurposes": 6655,
      "Ġpublication": 6656,
      "Ġinadvert": 6657,
      "Ġinstructive": 6658,
      "Ġdraft": 6659,
      "Ġdimension": 6660,
      "Ġdynamically": 6661,
      "Ġmantissa": 6662,
      "Ġmnemonic": 6663,
      "Ġlifetime": 6664,
      "Ġliterally": 6665,
      "Ġrepetition": 6666,
      "separated": 6667,
      "Ġvector": 6668,
      "Ġexemplified": 6669,
      "Ġconvey": 6670,
      "Ġinterrupt": 6671,
      "Ġhomogeneous": 6672,
      "Ġstraightforward": 6673,
      "Ġunprocessed": 6674,
      "Ġunwanted": 6675,
      "question": 6676,
      "Ġtypewriter": 6677,
      "ĠApplying": 6678,
      "ĠABSDIFF": 6679,
      "ĠCOMMON": 6680,
      "ĠCaesar": 6681,
      "ĠSelf": 6682,
      "ĠSteve": 6683,
      "ĠFrench": 6684,
      "ĠEthiopian": 6685,
      "ĠEvaluation": 6686,
      "ĠEBCDIC": 6687,
      "ĠEquivalence": 6688,
      "Ġsoldiers": 6689,
      "ĠProsser": 6690,
      "ĠPositioning": 6691,
      "Ġadapted": 6692,
      "ĠNaturally": 6693,
      "Ġsymmetry": 6694,
      "Ġheavily": 6695,
      "Ġhenceforth": 6696,
      "ĠBUFSIZE": 6697,
      "ĠDiagnostics": 6698,
      "ĠDecrement": 6699,
      "ĠMiscellaneous": 6700,
      "ĠLiterals": 6701,
      "Ġcommittee": 6702,
      "produces": 6703,
      "Ġdisallowed": 6704,
      "ĠUtility": 6705,
      "ĠUkraine": 6706,
      "ĠRussian": 6707,
      "ĠRenaissance": 6708,
      "ĠReturning": 6709,
      "ĠHeart": 6710,
      "ĠWeinberger": 6711,
      "Ġmathematically": 6712,
      "ĠConventions": 6713,
      "Ġknowledge": 6714,
      "ĠKristol": 6715,
      "Ġbehaviour": 6716,
      "Ġgraphics": 6717,
      "Ġencycloped": 6718,
      "Ġframework": 6719,
      "Ġfalsehood": 6720,
      "Ġphysical": 6721,
      "described": 6722,
      "Ġfamiliarity": 6723,
      "Ġmagnitudes": 6724,
      "ĠMcIlroy": 6725,
      "2147483647": 6726
    },
    "merges": [
      [
        "Ġ",
        "t"
      ],
      [
        "i",
        "n"
      ],
      [
        "Ġ",
        "a"
      ],
      [
        "č",
        "Ċ"
      ],
      [
        "h",
        "e"
      ],
      [
        "o",
        "n"
      ],
      [
        "e",
        "r"
      ],
      [
        "r",
        "e"
      ],
      [
        "Ġt",
        "he"
      ],
      [
        "Ġ",
        "s"
      ],
      [
        "Ġ",
        "o"
      ],
      [
        "Ġ",
        "i"
      ],
      [
        "a",
        "t"
      ],
      [
        "Ġ",
        "c"
      ],
      [
        "e",
        "n"
      ],
      [
        "a",
        "r"
      ],
      [
        "i",
        "on"
      ],
      [
        "Ġ",
        "f"
      ],
      [
        "Ġ",
        "p"
      ],
      [
        "Ġ",
        "in"
      ],
      [
        "e",
        "d"
      ],
      [
        "a",
        "l"
      ],
      [
        "o",
        "r"
      ],
      [
        "Ġ",
        "b"
      ],
      [
        "e",
        "s"
      ],
      [
        "c",
        "t"
      ],
      [
        "Ġa",
        "n"
      ],
      [
        "i",
        "t"
      ],
      [
        "Ġo",
        "f"
      ],
      [
        "s",
        "t"
      ],
      [
        "Ġ",
        "w"
      ],
      [
        "Ġi",
        "s"
      ],
      [
        "Ġt",
        "o"
      ],
      [
        "Ġ",
        "n"
      ],
      [
        "l",
        "e"
      ],
      [
        "Ġ",
        "d"
      ],
      [
        "a",
        "n"
      ],
      [
        "en",
        "t"
      ],
      [
        "Ġ",
        "e"
      ],
      [
        "Ġ",
        "m"
      ],
      [
        "in",
        "g"
      ],
      [
        "u",
        "n"
      ],
      [
        "Ġan",
        "d"
      ],
      [
        "Ġs",
        "t"
      ],
      [
        "Ġ",
        "l"
      ],
      [
        "r",
        "o"
      ],
      [
        "in",
        "t"
      ],
      [
        "Ġ",
        "re"
      ],
      [
        "a",
        "m"
      ],
      [
        "e",
        "c"
      ],
      [
        "Ġt",
        "h"
      ],
      [
        "u",
        "t"
      ],
      [
        "i",
        "c"
      ],
      [
        "s",
        "e"
      ],
      [
        "Ġb",
        "e"
      ],
      [
        "s",
        "s"
      ],
      [
        "Ġ",
        "v"
      ],
      [
        "m",
        "ent"
      ],
      [
        "h",
        "ar"
      ],
      [
        "Ġe",
        "x"
      ],
      [
        "T",
        "he"
      ],
      [
        "er",
        "s"
      ],
      [
        "Ġc",
        "on"
      ],
      [
        "Ġ",
        "*"
      ],
      [
        "at",
        "ion"
      ],
      [
        "Ġ",
        "("
      ],
      [
        "e",
        "t"
      ],
      [
        "i",
        "f"
      ],
      [
        "a",
        "y"
      ],
      [
        "i",
        "g"
      ],
      [
        "u",
        "r"
      ],
      [
        "Ġi",
        "t"
      ],
      [
        "ct",
        "ion"
      ],
      [
        "Ġp",
        "o"
      ],
      [
        "Ġin",
        "t"
      ],
      [
        "Ġf",
        "or"
      ],
      [
        "a",
        "c"
      ],
      [
        "o",
        "t"
      ],
      [
        "o",
        "m"
      ],
      [
        "d",
        "e"
      ],
      [
        "l",
        "l"
      ],
      [
        "p",
        "e"
      ],
      [
        "Ġth",
        "at"
      ],
      [
        "Ġo",
        "r"
      ],
      [
        "i",
        "s"
      ],
      [
        "Ġa",
        "r"
      ],
      [
        "l",
        "y"
      ],
      [
        "Ġa",
        "re"
      ],
      [
        "Ġc",
        "har"
      ],
      [
        "u",
        "s"
      ],
      [
        "un",
        "ction"
      ],
      [
        "Ġ",
        "h"
      ],
      [
        "p",
        "re"
      ],
      [
        "Ġ",
        "="
      ],
      [
        "Ġp",
        "ro"
      ],
      [
        "Ġ",
        "on"
      ],
      [
        "a",
        "b"
      ],
      [
        "it",
        "h"
      ],
      [
        "a",
        "ct"
      ],
      [
        "Ġst",
        "r"
      ],
      [
        "Ġf",
        "unction"
      ],
      [
        "Ġf",
        "i"
      ],
      [
        "v",
        "e"
      ],
      [
        "ss",
        "ion"
      ],
      [
        "Ġt",
        "y"
      ],
      [
        "ec",
        "l"
      ],
      [
        "Ġpo",
        "int"
      ],
      [
        "p",
        "er"
      ],
      [
        "pre",
        "ssion"
      ],
      [
        "in",
        "e"
      ],
      [
        "Ġ",
        "The"
      ],
      [
        "u",
        "l"
      ],
      [
        "Ġ",
        "g"
      ],
      [
        "at",
        "e"
      ],
      [
        "c",
        "e"
      ],
      [
        "Ġb",
        "y"
      ],
      [
        "p",
        "t"
      ],
      [
        "ur",
        "n"
      ],
      [
        "i",
        "z"
      ],
      [
        "Ġ",
        "un"
      ],
      [
        "Ġw",
        "ith"
      ],
      [
        "an",
        "d"
      ],
      [
        "l",
        "o"
      ],
      [
        "e",
        "x"
      ],
      [
        "t",
        "urn"
      ],
      [
        "he",
        "r"
      ],
      [
        "Ġchar",
        "act"
      ],
      [
        "al",
        "u"
      ],
      [
        "Ġn",
        "ot"
      ],
      [
        "u",
        "m"
      ],
      [
        "Ġa",
        "s"
      ],
      [
        "a",
        "d"
      ],
      [
        "i",
        "m"
      ],
      [
        "q",
        "u"
      ],
      [
        "Ġi",
        "f"
      ],
      [
        "i",
        "d"
      ],
      [
        "Ġc",
        "om"
      ],
      [
        "Ġw",
        "h"
      ],
      [
        "if",
        "i"
      ],
      [
        "ecl",
        "ar"
      ],
      [
        "am",
        "e"
      ],
      [
        "Ġty",
        "pe"
      ],
      [
        "Ġ",
        "A"
      ],
      [
        "ig",
        "n"
      ],
      [
        "Ġ",
        "I"
      ],
      [
        "g",
        "r"
      ],
      [
        "i",
        "st"
      ],
      [
        "o",
        "w"
      ],
      [
        "at",
        "or"
      ],
      [
        "p",
        "ut"
      ],
      [
        "a",
        "s"
      ],
      [
        "Ġre",
        "turn"
      ],
      [
        "Ġ",
        "1"
      ],
      [
        "u",
        "ct"
      ],
      [
        "t",
        "er"
      ],
      [
        "Ġ",
        "0"
      ],
      [
        "Ġo",
        "per"
      ],
      [
        "Ġv",
        "alu"
      ],
      [
        "v",
        "er"
      ],
      [
        ")",
        ";"
      ],
      [
        "Ġs",
        "p"
      ],
      [
        "al",
        "l"
      ],
      [
        "/",
        "*"
      ],
      [
        "a",
        "g"
      ],
      [
        "Ġ*",
        "/"
      ],
      [
        "gr",
        "am"
      ],
      [
        "Ġd",
        "e"
      ],
      [
        "a",
        "in"
      ],
      [
        "g",
        "u"
      ],
      [
        "Ġpro",
        "gram"
      ],
      [
        "e",
        "m"
      ],
      [
        "k",
        "e"
      ],
      [
        "r",
        "int"
      ],
      [
        "Ġ",
        "C"
      ],
      [
        "c",
        "h"
      ],
      [
        "o",
        "re"
      ],
      [
        "an",
        "t"
      ],
      [
        "r",
        "ay"
      ],
      [
        "ar",
        "i"
      ],
      [
        "p",
        "le"
      ],
      [
        "es",
        "s"
      ],
      [
        "it",
        "ion"
      ],
      [
        "eclar",
        "ation"
      ],
      [
        "Ġ",
        "us"
      ],
      [
        "u",
        "re"
      ],
      [
        "Ġ",
        "S"
      ],
      [
        "Ġex",
        "pression"
      ],
      [
        "o",
        "u"
      ],
      [
        "f",
        "in"
      ],
      [
        "Ġpoint",
        "er"
      ],
      [
        "i",
        "l"
      ],
      [
        "Ġc",
        "o"
      ],
      [
        "en",
        "d"
      ],
      [
        "Ġcharact",
        "er"
      ],
      [
        "e",
        "ct"
      ],
      [
        "st",
        "r"
      ],
      [
        "Ġs",
        "e"
      ],
      [
        "p",
        "l"
      ],
      [
        "ic",
        "h"
      ],
      [
        "ment",
        "s"
      ],
      [
        "Ġar",
        "ray"
      ],
      [
        "a",
        "re"
      ],
      [
        "Ġv",
        "ari"
      ],
      [
        "c",
        "har"
      ],
      [
        "Ġvalu",
        "e"
      ],
      [
        "Ġm",
        "ay"
      ],
      [
        "t",
        "her"
      ],
      [
        "r",
        "it"
      ],
      [
        "Ġ",
        "le"
      ],
      [
        "Ġc",
        "all"
      ],
      [
        "Ġc",
        "an"
      ],
      [
        "ar",
        "y"
      ],
      [
        "Ġa",
        "l"
      ],
      [
        "Ġ",
        "<"
      ],
      [
        "Ġp",
        "ar"
      ],
      [
        "Ġs",
        "u"
      ],
      [
        "Ġwh",
        "ich"
      ],
      [
        "i",
        "al"
      ],
      [
        "c",
        "l"
      ],
      [
        "Ġ",
        "F"
      ],
      [
        "Ġa",
        "t"
      ],
      [
        "Ġar",
        "gu"
      ],
      [
        ".",
        "."
      ],
      [
        "Ġn",
        "e"
      ],
      [
        "Ġ",
        "r"
      ],
      [
        "i",
        "b"
      ],
      [
        "Ġ",
        "T"
      ],
      [
        "Ġd",
        "eclaration"
      ],
      [
        "ac",
        "h"
      ],
      [
        "u",
        "st"
      ],
      [
        "ab",
        "le"
      ],
      [
        "e",
        "l"
      ],
      [
        "Ġfi",
        "le"
      ],
      [
        "Ġstr",
        "uct"
      ],
      [
        "a",
        "ve"
      ],
      [
        "b",
        "er"
      ],
      [
        "Ġcon",
        "t"
      ],
      [
        "i",
        "ll"
      ],
      [
        "Ġth",
        "is"
      ],
      [
        "Ġp",
        "re"
      ],
      [
        "l",
        "es"
      ],
      [
        "i",
        "ve"
      ],
      [
        "iz",
        "e"
      ],
      [
        "Ġn",
        "um"
      ],
      [
        "ifi",
        "er"
      ],
      [
        "or",
        "d"
      ],
      [
        "Ġint",
        "e"
      ],
      [
        "Ġ",
        "E"
      ],
      [
        "Ġstr",
        "ing"
      ],
      [
        "ro",
        "m"
      ],
      [
        "Ġ",
        "/*"
      ],
      [
        "Ġ",
        "'"
      ],
      [
        "Ġf",
        "rom"
      ],
      [
        "Ġh",
        "ave"
      ],
      [
        "ag",
        "e"
      ],
      [
        "u",
        "se"
      ],
      [
        "i",
        "v"
      ],
      [
        "at",
        "ed"
      ],
      [
        "Ġon",
        "e"
      ],
      [
        "Ġg",
        "et"
      ],
      [
        "Ġsp",
        "ec"
      ],
      [
        "t",
        "h"
      ],
      [
        "on",
        "g"
      ],
      [
        "Ġcon",
        "st"
      ],
      [
        "Ġo",
        "b"
      ],
      [
        "ex",
        "pression"
      ],
      [
        "ig",
        "h"
      ],
      [
        "Ġs",
        "o"
      ],
      [
        "Ġa",
        "ll"
      ],
      [
        "Ġw",
        "e"
      ],
      [
        "f",
        "er"
      ],
      [
        "o",
        "id"
      ],
      [
        "Ġw",
        "ill"
      ],
      [
        "ter",
        "n"
      ],
      [
        "Ġ",
        "-"
      ],
      [
        "ar",
        "d"
      ],
      [
        "es",
        "t"
      ],
      [
        "i",
        "se"
      ],
      [
        "Ġde",
        "fin"
      ],
      [
        "i",
        "re"
      ],
      [
        "Ġp",
        "rint"
      ],
      [
        "c",
        "c"
      ],
      [
        "ac",
        "e"
      ],
      [
        "Ġw",
        "he"
      ],
      [
        "ul",
        "t"
      ],
      [
        "ex",
        "t"
      ],
      [
        "ign",
        "ed"
      ],
      [
        "Ġw",
        "rit"
      ],
      [
        "j",
        "ect"
      ],
      [
        "Ġstruct",
        "ure"
      ],
      [
        "Ġo",
        "ther"
      ],
      [
        "Ġm",
        "a"
      ],
      [
        "Ġst",
        "ate"
      ],
      [
        "Ġin",
        "put"
      ],
      [
        "Ġ",
        "W"
      ],
      [
        "Ġl",
        "o"
      ],
      [
        "ers",
        "ion"
      ],
      [
        "Ġcom",
        "p"
      ],
      [
        "+",
        "+"
      ],
      [
        "i",
        "le"
      ],
      [
        "or",
        "t"
      ],
      [
        "Ġit",
        "s"
      ],
      [
        "lo",
        "c"
      ],
      [
        "Ġc",
        "a"
      ],
      [
        "it",
        "ial"
      ],
      [
        "i",
        "r"
      ],
      [
        "Ġ",
        "O"
      ],
      [
        "Ġan",
        "y"
      ],
      [
        "d",
        "ent"
      ],
      [
        "re",
        "e"
      ],
      [
        "f",
        "or"
      ],
      [
        "Ġ",
        "y"
      ],
      [
        "cl",
        "u"
      ],
      [
        "Ġob",
        "ject"
      ],
      [
        "o",
        "p"
      ],
      [
        "Ġ",
        "P"
      ],
      [
        "Ġcharact",
        "ers"
      ],
      [
        "al",
        "ly"
      ],
      [
        "Ġinte",
        "g"
      ],
      [
        "igh",
        "t"
      ],
      [
        "in",
        "es"
      ],
      [
        "Ġfunction",
        "s"
      ],
      [
        "Ġnum",
        "ber"
      ],
      [
        "Ġoper",
        "ator"
      ],
      [
        "Ġconst",
        "ant"
      ],
      [
        "Ġs",
        "h"
      ],
      [
        "Ġa",
        "d"
      ],
      [
        "Ġfi",
        "r"
      ],
      [
        "Ġfir",
        "st"
      ],
      [
        "Ġa",
        "ss"
      ],
      [
        "Ġus",
        "ed"
      ],
      [
        "Ġo",
        "ut"
      ],
      [
        "ĠI",
        "f"
      ],
      [
        "l",
        "ine"
      ],
      [
        "Ġa",
        "p"
      ],
      [
        "er",
        "r"
      ],
      [
        "Ġd",
        "o"
      ],
      [
        "Ġn",
        "ame"
      ],
      [
        "Ġi",
        "dent"
      ],
      [
        "Ġ",
        "N"
      ],
      [
        "Ġm",
        "ust"
      ],
      [
        "Ġs",
        "y"
      ],
      [
        "and",
        "ard"
      ],
      [
        "Ġn",
        "o"
      ],
      [
        "Ġs",
        "ame"
      ],
      [
        "Ġin",
        "itial"
      ],
      [
        "Ġl",
        "ine"
      ],
      [
        "Ġl",
        "ong"
      ],
      [
        "Ġ",
        "2"
      ],
      [
        "en",
        "ce"
      ],
      [
        "t",
        "ed"
      ],
      [
        "Ġ",
        "he"
      ],
      [
        "er",
        "m"
      ],
      [
        "Ġe",
        "ach"
      ],
      [
        "Ġh",
        "as"
      ],
      [
        "Ġ",
        "{"
      ],
      [
        "b",
        "le"
      ],
      [
        "'",
        "'"
      ],
      [
        "Ġfor",
        "m"
      ],
      [
        "`",
        "`"
      ],
      [
        "Ġs",
        "ize"
      ],
      [
        "ab",
        "les"
      ],
      [
        "f",
        "t"
      ],
      [
        "n",
        "t"
      ],
      [
        "Ġ",
        "en"
      ],
      [
        "Ġi",
        "m"
      ],
      [
        "Ġre",
        "ad"
      ],
      [
        "Ġreturn",
        "s"
      ],
      [
        "o",
        "ut"
      ],
      [
        "ul",
        "d"
      ],
      [
        "Ġb",
        "ut"
      ],
      [
        "Ġex",
        "am"
      ],
      [
        "h",
        "is"
      ],
      [
        "Ġst",
        "andard"
      ],
      [
        "Ġf",
        "o"
      ],
      [
        "on",
        "d"
      ],
      [
        "Ġty",
        "p"
      ],
      [
        "h",
        "a"
      ],
      [
        "Ġ",
        "B"
      ],
      [
        "Ġre",
        "s"
      ],
      [
        "u",
        "f"
      ],
      [
        "Ġargu",
        "ment"
      ],
      [
        "er",
        "o"
      ],
      [
        "Ġpar",
        "t"
      ],
      [
        "Ġm",
        "o"
      ],
      [
        "ecl",
        "are"
      ],
      [
        "i",
        "ke"
      ],
      [
        "Ġne",
        "w"
      ],
      [
        "Ġvari",
        "ables"
      ],
      [
        "u",
        "p"
      ],
      [
        "an",
        "g"
      ],
      [
        "ĠI",
        "n"
      ],
      [
        "Ġinitial",
        "iz"
      ],
      [
        "i",
        "de"
      ],
      [
        "it",
        "s"
      ],
      [
        "Ġ",
        "&"
      ],
      [
        "Ġ",
        "use"
      ],
      [
        "Ġ",
        "``"
      ],
      [
        "z",
        "ero"
      ],
      [
        "Ġoper",
        "and"
      ],
      [
        "Ġstate",
        "ment"
      ],
      [
        "o",
        "l"
      ],
      [
        "lo",
        "at"
      ],
      [
        "Ġth",
        "an"
      ],
      [
        "Ġ",
        "#"
      ],
      [
        "Ġcon",
        "ver"
      ],
      [
        "Ġinteg",
        "er"
      ],
      [
        "im",
        "e"
      ],
      [
        "de",
        "f"
      ],
      [
        "d",
        "er"
      ],
      [
        "at",
        "ic"
      ],
      [
        "om",
        "e"
      ],
      [
        "ou",
        "ble"
      ],
      [
        "..",
        "."
      ],
      [
        "err",
        "or"
      ],
      [
        "Ġt",
        "w"
      ],
      [
        "Ġs",
        "et"
      ],
      [
        "am",
        "et"
      ],
      [
        "Ġ=",
        "="
      ],
      [
        "p",
        "end"
      ],
      [
        "s",
        "o"
      ],
      [
        "Ġ",
        "D"
      ],
      [
        "Ġexam",
        "ple"
      ],
      [
        "g",
        "h"
      ],
      [
        "g",
        "et"
      ],
      [
        "Ġm",
        "ore"
      ],
      [
        "Ġl",
        "ist"
      ],
      [
        "Ġl",
        "ike"
      ],
      [
        "Ġint",
        "o"
      ],
      [
        "p",
        "o"
      ],
      [
        "s",
        "igned"
      ],
      [
        "Ġcon",
        "v"
      ],
      [
        "Ġ",
        ">"
      ],
      [
        "Ġd",
        "eclare"
      ],
      [
        "Ġon",
        "ly"
      ],
      [
        "o",
        "c"
      ],
      [
        "clu",
        "de"
      ],
      [
        "pl",
        "ic"
      ],
      [
        "Ġad",
        "d"
      ],
      [
        "p",
        "rint"
      ],
      [
        "Ġt",
        "r"
      ],
      [
        "Ġthe",
        "re"
      ],
      [
        "eclar",
        "ator"
      ],
      [
        "i",
        "o"
      ],
      [
        "Ġargu",
        "ments"
      ],
      [
        "un",
        "d"
      ],
      [
        "Ġex",
        "tern"
      ],
      [
        "Ġcont",
        "ain"
      ],
      [
        "a",
        "st"
      ],
      [
        "i",
        "x"
      ],
      [
        "t",
        "en"
      ],
      [
        "Ġtw",
        "o"
      ],
      [
        "k",
        "en"
      ],
      [
        "l",
        "ist"
      ],
      [
        "y",
        "pe"
      ],
      [
        "Ġ",
        "x"
      ],
      [
        "Ġ'",
        "\\"
      ],
      [
        "Ġdefin",
        "ition"
      ],
      [
        "ire",
        "ct"
      ],
      [
        "c",
        "ise"
      ],
      [
        "v",
        "oid"
      ],
      [
        "Ġe",
        "v"
      ],
      [
        "Ġal",
        "so"
      ],
      [
        "Ġsu",
        "b"
      ],
      [
        "\"",
        ","
      ],
      [
        "w",
        "h"
      ],
      [
        "s",
        "p"
      ],
      [
        "ar",
        "g"
      ],
      [
        "Ġn",
        "am"
      ],
      [
        "Ġm",
        "em"
      ],
      [
        "Ġpar",
        "amet"
      ],
      [
        "Ġident",
        "ifier"
      ],
      [
        "c",
        "r"
      ],
      [
        "Ġ",
        "M"
      ],
      [
        "Ġvari",
        "able"
      ],
      [
        "loc",
        "k"
      ],
      [
        "Ġres",
        "ult"
      ],
      [
        "a",
        "p"
      ],
      [
        "o",
        "uld"
      ],
      [
        "Ġ",
        "%"
      ],
      [
        "Ġcall",
        "ed"
      ],
      [
        "a",
        "ss"
      ],
      [
        "st",
        "em"
      ],
      [
        "Ġ",
        "\""
      ],
      [
        "Ġ",
        "L"
      ],
      [
        "Ġ",
        "end"
      ],
      [
        "Ġn",
        "ext"
      ],
      [
        "qu",
        "al"
      ],
      [
        "i",
        "es"
      ],
      [
        "Ġ",
        "3"
      ],
      [
        "Ġ",
        "error"
      ],
      [
        "Ġa",
        "b"
      ],
      [
        "Ġf",
        "loat"
      ],
      [
        "ple",
        "ment"
      ],
      [
        "str",
        "uct"
      ],
      [
        "Ġle",
        "ft"
      ],
      [
        "Ġc",
        "h"
      ],
      [
        "ac",
        "k"
      ],
      [
        "-",
        ">"
      ],
      [
        "f",
        "f"
      ],
      [
        "Ġ",
        "!"
      ],
      [
        "Ġd",
        "es"
      ],
      [
        "Ġca",
        "se"
      ],
      [
        "Ġ",
        "zero"
      ],
      [
        "or",
        "age"
      ],
      [
        "L",
        "L"
      ],
      [
        "s",
        "ent"
      ],
      [
        "Ġpoint",
        "ers"
      ],
      [
        "ĠF",
        "or"
      ],
      [
        "Ġr",
        "ight"
      ],
      [
        "ĠT",
        "his"
      ],
      [
        "for",
        "m"
      ],
      [
        "ha",
        "pt"
      ],
      [
        "Ġs",
        "ome"
      ],
      [
        "ign",
        "ment"
      ],
      [
        ")",
        "."
      ],
      [
        "r",
        "ary"
      ],
      [
        "Ġ",
        "ke"
      ],
      [
        "Ġthe",
        "n"
      ],
      [
        "Ġm",
        "ain"
      ],
      [
        "Ġcom",
        "m"
      ],
      [
        "Ġsp",
        "ace"
      ],
      [
        "[",
        "]"
      ],
      [
        "Ġsy",
        "stem"
      ],
      [
        "E",
        "x"
      ],
      [
        "o",
        "f"
      ],
      [
        "Ġ",
        "j"
      ],
      [
        "Ġthe",
        "y"
      ],
      [
        "st",
        "d"
      ],
      [
        "Ġh",
        "ow"
      ],
      [
        "0",
        "0"
      ],
      [
        "Ġout",
        "put"
      ],
      [
        "print",
        "f"
      ],
      [
        "(",
        ")"
      ],
      [
        "Ġ",
        "+"
      ],
      [
        "Ġspec",
        "ifi"
      ],
      [
        "Ġtyp",
        "es"
      ],
      [
        "Ġdeclare",
        "d"
      ],
      [
        "c",
        "re"
      ],
      [
        "t",
        "r"
      ],
      [
        "un",
        "t"
      ],
      [
        "ic",
        "al"
      ],
      [
        "Ġun",
        "signed"
      ],
      [
        "Ġ!",
        "="
      ],
      [
        "c",
        "o"
      ],
      [
        "Ġw",
        "ord"
      ],
      [
        "Ġv",
        "oid"
      ],
      [
        "ation",
        "s"
      ],
      [
        "Ġwhe",
        "n"
      ],
      [
        "Ġb",
        "lock"
      ],
      [
        "Ġl",
        "ib"
      ],
      [
        "ll",
        "ow"
      ],
      [
        "p",
        "ro"
      ],
      [
        "def",
        "ine"
      ],
      [
        "(",
        "\""
      ],
      [
        "p",
        "y"
      ],
      [
        "er",
        "cise"
      ],
      [
        "cc",
        "ur"
      ],
      [
        "Ġdo",
        "es"
      ],
      [
        "hapt",
        "er"
      ],
      [
        "Ġw",
        "ay"
      ],
      [
        "Ġd",
        "irect"
      ],
      [
        "ith",
        "m"
      ],
      [
        "Ġvalu",
        "es"
      ],
      [
        "el",
        "d"
      ],
      [
        "Ġim",
        "plement"
      ],
      [
        "Ġfo",
        "llow"
      ],
      [
        "Ġconv",
        "ersion"
      ],
      [
        "Ex",
        "ercise"
      ],
      [
        "c",
        "ess"
      ],
      [
        "in",
        "ce"
      ],
      [
        "in",
        "clude"
      ],
      [
        "at",
        "ive"
      ],
      [
        "Ġst",
        "orage"
      ],
      [
        "Ġt",
        "ime"
      ],
      [
        "Ġd",
        "if"
      ],
      [
        "Ġd",
        "is"
      ],
      [
        "Ġd",
        "ouble"
      ],
      [
        "ou",
        "gh"
      ],
      [
        "'",
        "s"
      ],
      [
        "U",
        "LL"
      ],
      [
        "Ġ",
        "ro"
      ],
      [
        "re",
        "turn"
      ],
      [
        "Ġn",
        "on"
      ],
      [
        "Ġdeclaration",
        "s"
      ],
      [
        "Ġextern",
        "al"
      ],
      [
        ")",
        ","
      ],
      [
        "A",
        "X"
      ],
      [
        "Ġ",
        "U"
      ],
      [
        "Ġlib",
        "rary"
      ],
      [
        "]",
        ";"
      ],
      [
        "it",
        "y"
      ],
      [
        "an",
        "s"
      ],
      [
        "Ġe",
        "le"
      ],
      [
        "Ġlo",
        "op"
      ],
      [
        "c",
        "ed"
      ],
      [
        "f",
        "ore"
      ],
      [
        "Ġa",
        "cc"
      ],
      [
        "Ġo",
        "ccur"
      ],
      [
        "Ġdif",
        "fer"
      ],
      [
        "m",
        "p"
      ],
      [
        "Ġthe",
        "m"
      ],
      [
        "at",
        "es"
      ],
      [
        "w",
        "ord"
      ],
      [
        "Ġb",
        "ec"
      ],
      [
        "Ġprint",
        "f"
      ],
      [
        "w",
        "er"
      ],
      [
        "et",
        "ic"
      ],
      [
        "Ġobject",
        "s"
      ],
      [
        "a",
        "k"
      ],
      [
        "a",
        "il"
      ],
      [
        "i",
        "p"
      ],
      [
        "Ġun",
        "ion"
      ],
      [
        "ĠN",
        "ULL"
      ],
      [
        "re",
        "am"
      ],
      [
        "ĠI",
        "t"
      ],
      [
        "Ġse",
        "qu"
      ],
      [
        "Ġke",
        "y"
      ],
      [
        "I",
        "n"
      ],
      [
        "Ġv",
        "ersion"
      ],
      [
        "Ġdefin",
        "ed"
      ],
      [
        "Ġoperator",
        "s"
      ],
      [
        "ithm",
        "etic"
      ],
      [
        "c",
        "es"
      ],
      [
        "w",
        "ise"
      ],
      [
        "Ġe",
        "l"
      ],
      [
        "de",
        "fin"
      ],
      [
        "wh",
        "ile"
      ],
      [
        "Ġdes",
        "cr"
      ],
      [
        "p",
        "ar"
      ],
      [
        "Ġs",
        "ign"
      ],
      [
        "Ġl",
        "ines"
      ],
      [
        "Ġor",
        "der"
      ],
      [
        "ce",
        "pt"
      ],
      [
        "ib",
        "le"
      ],
      [
        "Ġnam",
        "es"
      ],
      [
        "g",
        "in"
      ],
      [
        "Ġ",
        "R"
      ],
      [
        "Ġne",
        "ed"
      ],
      [
        "a",
        "use"
      ],
      [
        "Ġin",
        "st"
      ],
      [
        "Ġpo",
        "s"
      ],
      [
        "ifi",
        "ers"
      ],
      [
        "Ġwhe",
        "re"
      ],
      [
        "n",
        "ame"
      ],
      [
        "Ġbe",
        "gin"
      ],
      [
        "Ġcomp",
        "il"
      ],
      [
        "Ġmo",
        "st"
      ],
      [
        "O",
        "F"
      ],
      [
        "f",
        "ter"
      ],
      [
        "Ġp",
        "l"
      ],
      [
        "Ġfi",
        "les"
      ],
      [
        "Ġwrit",
        "e"
      ],
      [
        "Ġconver",
        "ted"
      ],
      [
        "Ġdis",
        "c"
      ],
      [
        "b",
        "uf"
      ],
      [
        "c",
        "on"
      ],
      [
        "Ġ",
        "H"
      ],
      [
        "in",
        "d"
      ],
      [
        "he",
        "s"
      ],
      [
        "en",
        "er"
      ],
      [
        "im",
        "al"
      ],
      [
        "Ġall",
        "oc"
      ],
      [
        "Ġch",
        "ang"
      ],
      [
        "S",
        "I"
      ],
      [
        "b",
        "ers"
      ],
      [
        "Ġt",
        "erm"
      ],
      [
        "al",
        "loc"
      ],
      [
        "Ġb",
        "uf"
      ],
      [
        "Ġe",
        "ff"
      ],
      [
        "ac",
        "ro"
      ],
      [
        "L",
        "E"
      ],
      [
        "a",
        "se"
      ],
      [
        "o",
        "d"
      ],
      [
        "o",
        "pt"
      ],
      [
        "Ġ",
        "qu"
      ],
      [
        "Ġd",
        "ec"
      ],
      [
        "Ġbe",
        "t"
      ],
      [
        "pt",
        "r"
      ],
      [
        "d",
        "u"
      ],
      [
        "o",
        "k"
      ],
      [
        "Ġwrit",
        "ten"
      ],
      [
        "Ġhe",
        "ad"
      ],
      [
        "Ġto",
        "ken"
      ],
      [
        "Ġbe",
        "fore"
      ],
      [
        "Ġint",
        "er"
      ],
      [
        "Ġar",
        "ithmetic"
      ],
      [
        "Ġpro",
        "v"
      ],
      [
        "Ġass",
        "ignment"
      ],
      [
        "Ġparamet",
        "er"
      ],
      [
        "Ġ",
        "5"
      ],
      [
        "ec",
        "ut"
      ],
      [
        "pe",
        "ar"
      ],
      [
        "pre",
        "sent"
      ],
      [
        "el",
        "se"
      ],
      [
        "I",
        "LE"
      ],
      [
        "p",
        "en"
      ],
      [
        "Ġ",
        "up"
      ],
      [
        "Ġf",
        "ree"
      ],
      [
        "it",
        "e"
      ],
      [
        "Ġm",
        "acro"
      ],
      [
        "Ġre",
        "present"
      ],
      [
        "Ġg",
        "ener"
      ],
      [
        "Ġprogram",
        "s"
      ],
      [
        "Ġy",
        "ou"
      ],
      [
        "Ġconstant",
        "s"
      ],
      [
        "po",
        "int"
      ],
      [
        ")",
        ")"
      ],
      [
        "p",
        "r"
      ],
      [
        "Ġ",
        "..."
      ],
      [
        "ĠW",
        "e"
      ],
      [
        "Ġev",
        "alu"
      ],
      [
        "d",
        "eclarator"
      ],
      [
        "i",
        "ed"
      ],
      [
        "Ġt",
        "ext"
      ],
      [
        "rit",
        "e"
      ],
      [
        "ĠE",
        "OF"
      ],
      [
        "iv",
        "al"
      ],
      [
        "plic",
        "it"
      ],
      [
        "defin",
        "ed"
      ],
      [
        "e",
        "ad"
      ],
      [
        "t",
        "ab"
      ],
      [
        "w",
        "e"
      ],
      [
        "Ġm",
        "an"
      ],
      [
        "Ġre",
        "pl"
      ],
      [
        "ĠE",
        "x"
      ],
      [
        "t",
        "e"
      ],
      [
        "Ġcon",
        "s"
      ],
      [
        "Ġ(",
        "("
      ],
      [
        "clu",
        "d"
      ],
      [
        "Ġimplement",
        "ation"
      ],
      [
        "Ġdiffer",
        "ent"
      ],
      [
        "o",
        "de"
      ],
      [
        "Ġin",
        "cre"
      ],
      [
        "Ġw",
        "or"
      ],
      [
        "Ġm",
        "e"
      ],
      [
        "ing",
        "le"
      ],
      [
        "Ġl",
        "ow"
      ],
      [
        "ic",
        "e"
      ],
      [
        "Ġex",
        "ecut"
      ],
      [
        "Ġar",
        "g"
      ],
      [
        "Ġspec",
        "if"
      ],
      [
        "Ġap",
        "pear"
      ],
      [
        "Ġsequ",
        "ence"
      ],
      [
        "e",
        "f"
      ],
      [
        "u",
        "e"
      ],
      [
        "Ġa",
        "fter"
      ],
      [
        "it",
        "her"
      ],
      [
        "Ġd",
        "et"
      ],
      [
        "Ġe",
        "qu"
      ],
      [
        "Ġm",
        "at"
      ],
      [
        "ec",
        "ond"
      ],
      [
        "Ġg",
        "iv"
      ],
      [
        "Ġacc",
        "ess"
      ],
      [
        "e",
        "ver"
      ],
      [
        "l",
        "en"
      ],
      [
        "Ġ",
        "4"
      ],
      [
        "Ġs",
        "im"
      ],
      [
        "Ġp",
        "er"
      ],
      [
        "Ġpoint",
        "s"
      ],
      [
        "um",
        "er"
      ],
      [
        "Ġcont",
        "ro"
      ],
      [
        "Ġel",
        "se"
      ],
      [
        "Ġterm",
        "in"
      ],
      [
        "s",
        "ize"
      ],
      [
        "Ġs",
        "ingle"
      ],
      [
        "Ġin",
        "d"
      ],
      [
        "or",
        "y"
      ],
      [
        "Ġd",
        "ig"
      ],
      [
        "ot",
        "her"
      ],
      [
        "Ġpro",
        "per"
      ],
      [
        "Ġfi",
        "eld"
      ],
      [
        "Ġexpression",
        "s"
      ],
      [
        "Ġconver",
        "t"
      ],
      [
        "Ġfloat",
        "ing"
      ],
      [
        "Ġeff",
        "ect"
      ],
      [
        "we",
        "en"
      ],
      [
        "Ġequ",
        "ival"
      ],
      [
        "c",
        "an"
      ],
      [
        "n",
        "e"
      ],
      [
        "Ġ",
        "}"
      ],
      [
        "ion",
        "al"
      ],
      [
        "Ġb",
        "r"
      ],
      [
        "Ġw",
        "ould"
      ],
      [
        "an",
        "gu"
      ],
      [
        "Ġre",
        "qu"
      ],
      [
        "Ġco",
        "unt"
      ],
      [
        "ĠP",
        "ar"
      ],
      [
        "i",
        "pt"
      ],
      [
        "Ġ",
        "|"
      ],
      [
        "er",
        "e"
      ],
      [
        "se",
        "l"
      ],
      [
        "Ġbe",
        "en"
      ],
      [
        "Ġex",
        "plicit"
      ],
      [
        "Ġsu",
        "ch"
      ],
      [
        "Ġma",
        "ke"
      ],
      [
        "Ġdisc",
        "u"
      ],
      [
        "Ġbet",
        "ween"
      ],
      [
        "Ġequival",
        "ent"
      ],
      [
        "'",
        ")"
      ],
      [
        "1",
        "2"
      ],
      [
        "M",
        "AX"
      ],
      [
        "l",
        "d"
      ],
      [
        "Ġt",
        "est"
      ],
      [
        "Ġthe",
        "se"
      ],
      [
        "st",
        "ate"
      ],
      [
        "ay",
        "s"
      ],
      [
        "per",
        "ator"
      ],
      [
        "Ġj",
        "ust"
      ],
      [
        "Ġro",
        "ut"
      ],
      [
        "a",
        "h"
      ],
      [
        "f",
        "ix"
      ],
      [
        "on",
        "e"
      ],
      [
        "Ġthe",
        "ir"
      ],
      [
        "Ġc",
        "or"
      ],
      [
        "ar",
        "ch"
      ],
      [
        "Ġe",
        "ither"
      ],
      [
        "Ġl",
        "angu"
      ],
      [
        "is",
        "ion"
      ],
      [
        "Ġco",
        "py"
      ],
      [
        "Ġ&",
        "&"
      ],
      [
        "Ġcontain",
        "s"
      ],
      [
        "'",
        "t"
      ],
      [
        "he",
        "n"
      ],
      [
        "Ġs",
        "ort"
      ],
      [
        "Ġin",
        "clud"
      ],
      [
        "Ġst",
        "ream"
      ],
      [
        "ot",
        "h"
      ],
      [
        "Ġstr",
        "c"
      ],
      [
        "std",
        "io"
      ],
      [
        "Ġcor",
        "re"
      ],
      [
        "g",
        "th"
      ],
      [
        "ed",
        "ef"
      ],
      [
        "Ġm",
        "ach"
      ],
      [
        "Ġst",
        "ore"
      ],
      [
        "ul",
        "ar"
      ],
      [
        "gr",
        "al"
      ],
      [
        "ĠC",
        "hapter"
      ],
      [
        "Ġspecifi",
        "ed"
      ],
      [
        "e",
        "ar"
      ],
      [
        "k",
        "s"
      ],
      [
        "t",
        "o"
      ],
      [
        "Ġt",
        "a"
      ],
      [
        "Ġo",
        "pen"
      ],
      [
        "Ġwh",
        "ile"
      ],
      [
        "pend",
        "ent"
      ],
      [
        "Ġbec",
        "ause"
      ],
      [
        "state",
        "ment"
      ],
      [
        "1",
        "0"
      ],
      [
        "t",
        "ype"
      ],
      [
        "Ġt",
        "ab"
      ],
      [
        "Ġs",
        "w"
      ],
      [
        "Ġre",
        "l"
      ],
      [
        "Ġex",
        "cept"
      ],
      [
        "Ġpo",
        "ss"
      ],
      [
        "Ġcall",
        "s"
      ],
      [
        "Ġma",
        "x"
      ],
      [
        "ĠW",
        "rite"
      ],
      [
        "Ġlo",
        "c"
      ],
      [
        "Ġpart",
        "ic"
      ],
      [
        "Ġpos",
        "ition"
      ],
      [
        ".",
        ")"
      ],
      [
        "Ġ",
        "k"
      ],
      [
        "at",
        "a"
      ],
      [
        "at",
        "ing"
      ],
      [
        "Ġl",
        "en"
      ],
      [
        "Ġre",
        "c"
      ],
      [
        "ac",
        "es"
      ],
      [
        "Ġh",
        "and"
      ],
      [
        "lo",
        "w"
      ],
      [
        "ĠA",
        "n"
      ],
      [
        "Ġstate",
        "ments"
      ],
      [
        "con",
        "st"
      ],
      [
        "Ġcontro",
        "l"
      ],
      [
        "e",
        "p"
      ],
      [
        "re",
        "ss"
      ],
      [
        "Ġc",
        "re"
      ],
      [
        "Ġp",
        "erm"
      ],
      [
        "Ġit",
        "sel"
      ],
      [
        "de",
        "pendent"
      ],
      [
        "Ġinte",
        "gral"
      ],
      [
        "Ġhead",
        "er"
      ],
      [
        "Ġitsel",
        "f"
      ],
      [
        "Ġ",
        ":"
      ],
      [
        "Ġ",
        "ent"
      ],
      [
        "Ġs",
        "ince"
      ],
      [
        "Ġp",
        "ut"
      ],
      [
        "Ġp",
        "ass"
      ],
      [
        "Ġb",
        "oth"
      ],
      [
        "Ġan",
        "other"
      ],
      [
        "Ġre",
        "g"
      ],
      [
        "Ġpo",
        "wer"
      ],
      [
        "Ġinitializ",
        "ed"
      ],
      [
        "Ġoperand",
        "s"
      ],
      [
        "io",
        "us"
      ],
      [
        "Ġdescr",
        "ib"
      ],
      [
        "I",
        "N"
      ],
      [
        "a",
        "x"
      ],
      [
        "n",
        "ing"
      ],
      [
        "s",
        "ide"
      ],
      [
        "er",
        "t"
      ],
      [
        "Ġs",
        "econd"
      ],
      [
        "Ġst",
        "atic"
      ],
      [
        "Ġre",
        "m"
      ],
      [
        "ec",
        "ess"
      ],
      [
        "us",
        "h"
      ],
      [
        "ĠS",
        "t"
      ],
      [
        "are",
        "nt"
      ],
      [
        "Ġpre",
        "ced"
      ],
      [
        "Ġsh",
        "ow"
      ],
      [
        "Ġmem",
        "ber"
      ],
      [
        "Ġmem",
        "bers"
      ],
      [
        "co",
        "pe"
      ],
      [
        "Ġlow",
        "er"
      ],
      [
        "o",
        "us"
      ],
      [
        "v",
        "al"
      ],
      [
        "Ġd",
        "eclarator"
      ],
      [
        "Ġl",
        "ast"
      ],
      [
        "Ġcon",
        "d"
      ],
      [
        "Ġde",
        "f"
      ],
      [
        "Ġinteg",
        "ers"
      ],
      [
        "Ġind",
        "ic"
      ],
      [
        "can",
        "f"
      ],
      [
        "Ġpartic",
        "ular"
      ],
      [
        "T",
        "his"
      ],
      [
        "u",
        "al"
      ],
      [
        "Ġin",
        "form"
      ],
      [
        "Ġd",
        "ata"
      ],
      [
        "Ġwith",
        "out"
      ],
      [
        "im",
        "um"
      ],
      [
        "ver",
        "al"
      ],
      [
        "ĠS",
        "e"
      ],
      [
        "Ġse",
        "par"
      ],
      [
        "Ġse",
        "veral"
      ],
      [
        "ĠO",
        "perator"
      ],
      [
        "sp",
        "ec"
      ],
      [
        "Ġab",
        "out"
      ],
      [
        "pro",
        "cess"
      ],
      [
        "Ġprov",
        "id"
      ],
      [
        "Ġgiv",
        "en"
      ],
      [
        "ah",
        "r"
      ],
      [
        "o",
        "se"
      ],
      [
        "Ġa",
        "ut"
      ],
      [
        "re",
        "ak"
      ],
      [
        "Ġf",
        "e"
      ],
      [
        "Ġp",
        "r"
      ],
      [
        "Ġst",
        "d"
      ],
      [
        "Ġ(",
        "*"
      ],
      [
        "om",
        "atic"
      ],
      [
        "Ġle",
        "t"
      ],
      [
        "Ġget",
        "char"
      ],
      [
        "Ġget",
        "line"
      ],
      [
        "Ġca",
        "st"
      ],
      [
        "f",
        "p"
      ],
      [
        "o",
        "st"
      ],
      [
        "v",
        "ed"
      ],
      [
        "y",
        "p"
      ],
      [
        "Ġ",
        "ed"
      ],
      [
        "re",
        "ad"
      ],
      [
        "Ġo",
        "pt"
      ],
      [
        "Ġn",
        "ecess"
      ],
      [
        "ur",
        "ce"
      ],
      [
        "Ġreturn",
        "ed"
      ],
      [
        "ĠC",
        "on"
      ],
      [
        "Ġstructure",
        "s"
      ],
      [
        "Ġparamet",
        "ers"
      ],
      [
        "Ġinst",
        "ead"
      ],
      [
        "P",
        "ar"
      ],
      [
        "d",
        "d"
      ],
      [
        "Ġt",
        "em"
      ],
      [
        "on",
        "th"
      ],
      [
        "Ġs",
        "igned"
      ],
      [
        "or",
        "m"
      ],
      [
        "Ġb",
        "its"
      ],
      [
        "Ġw",
        "as"
      ],
      [
        "an",
        "ce"
      ],
      [
        "Ġre",
        "fer"
      ],
      [
        "Ġfo",
        "und"
      ],
      [
        "Ġadd",
        "ress"
      ],
      [
        "(\"",
        "%"
      ],
      [
        "Ġlangu",
        "age"
      ],
      [
        "Ġinform",
        "ation"
      ],
      [
        "1",
        "1"
      ],
      [
        "d",
        "ouble"
      ],
      [
        "i",
        "ent"
      ],
      [
        "l",
        "ess"
      ],
      [
        "Ġ",
        "7"
      ],
      [
        "Ġf",
        "ind"
      ],
      [
        "Ġp",
        "arent"
      ],
      [
        "Ġb",
        "ack"
      ],
      [
        "ĠA",
        "r"
      ],
      [
        "Ġ1",
        "0"
      ],
      [
        "Ġso",
        "urce"
      ],
      [
        "++",
        ")"
      ],
      [
        "oc",
        "i"
      ],
      [
        "Ġev",
        "en"
      ],
      [
        "sp",
        "ond"
      ],
      [
        "Ġcorre",
        "spond"
      ],
      [
        "Ġlen",
        "gth"
      ],
      [
        "Ġcond",
        "ition"
      ],
      [
        "v",
        "ious"
      ],
      [
        "iz",
        "ed"
      ],
      [
        "ĠA",
        "N"
      ],
      [
        "Ġco",
        "uld"
      ],
      [
        "ult",
        "i"
      ],
      [
        "Ġsh",
        "ould"
      ],
      [
        "Ġform",
        "at"
      ],
      [
        "Ġdig",
        "its"
      ],
      [
        "Ġmach",
        "ine"
      ],
      [
        "c",
        "at"
      ],
      [
        "f",
        "ul"
      ],
      [
        "re",
        "n"
      ],
      [
        "Ġb",
        "it"
      ],
      [
        "ro",
        "u"
      ],
      [
        "Ġth",
        "ree"
      ],
      [
        "Ġpro",
        "cess"
      ],
      [
        "Ġg",
        "o"
      ],
      [
        "Ġwith",
        "in"
      ],
      [
        "Ġarray",
        "s"
      ],
      [
        "ĠF",
        "unction"
      ],
      [
        "ĠT",
        "h"
      ],
      [
        "Ġwrit",
        "ing"
      ],
      [
        "Ġcomp",
        "are"
      ],
      [
        "Ġen",
        "umer"
      ],
      [
        "Ġele",
        "ment"
      ],
      [
        "Ġele",
        "ments"
      ],
      [
        "Ġbuf",
        "fer"
      ],
      [
        "Ġevalu",
        "ated"
      ],
      [
        "Ġdiscu",
        "ss"
      ],
      [
        "a",
        "ult"
      ],
      [
        "d",
        "eclaration"
      ],
      [
        "l",
        "ag"
      ],
      [
        "l",
        "ines"
      ],
      [
        "m",
        "b"
      ],
      [
        "u",
        "ll"
      ],
      [
        "y",
        "le"
      ],
      [
        "Ġ",
        "6"
      ],
      [
        "Ġd",
        "ay"
      ],
      [
        "Ġl",
        "arg"
      ],
      [
        "ic",
        "ally"
      ],
      [
        "se",
        "t"
      ],
      [
        "Ġcom",
        "put"
      ],
      [
        "Ġco",
        "de"
      ],
      [
        "th",
        "ough"
      ],
      [
        "Ġass",
        "oci"
      ],
      [
        "Ġdirect",
        "ory"
      ],
      [
        "Ġposs",
        "ible"
      ],
      [
        "Ġaut",
        "omatic"
      ],
      [
        "Ġnecess",
        "ary"
      ],
      [
        "o",
        "int"
      ],
      [
        "Ġ",
        "++"
      ],
      [
        "in",
        "k"
      ],
      [
        "Ġs",
        "m"
      ],
      [
        "Ġs",
        "cope"
      ],
      [
        "Ġin",
        "v"
      ],
      [
        "it",
        "ive"
      ],
      [
        "Ġe",
        "qual"
      ],
      [
        "Ġv",
        "al"
      ],
      [
        "ac",
        "ed"
      ],
      [
        "Ġse",
        "e"
      ],
      [
        "Ġfollow",
        "ing"
      ],
      [
        "Ġdec",
        "imal"
      ],
      [
        "Ġed",
        "ition"
      ],
      [
        "F",
        "ILE"
      ],
      [
        "I",
        "X"
      ],
      [
        "l",
        "an"
      ],
      [
        "t",
        "he"
      ],
      [
        "Ġ",
        "?"
      ],
      [
        "Ġ",
        "\\"
      ],
      [
        "Ġ",
        "_"
      ],
      [
        "Ġp",
        "a"
      ],
      [
        "Ġb",
        "reak"
      ],
      [
        "Ġex",
        "p"
      ],
      [
        "ure",
        "s"
      ],
      [
        "Ġspec",
        "ifier"
      ],
      [
        "Ġap",
        "pl"
      ],
      [
        "Ġhe",
        "re"
      ],
      [
        "Ġ>",
        "="
      ],
      [
        "Ġhow",
        "ever"
      ],
      [
        "Ġparent",
        "hes"
      ],
      [
        "Ġcorrespond",
        "ing"
      ],
      [
        "g",
        "al"
      ],
      [
        "g",
        "ative"
      ],
      [
        "l",
        "le"
      ],
      [
        "p",
        "p"
      ],
      [
        "Ġ",
        "V"
      ],
      [
        "he",
        "d"
      ],
      [
        "Ġb",
        "o"
      ],
      [
        "it",
        "er"
      ],
      [
        "it",
        "ch"
      ],
      [
        "ent",
        "s"
      ],
      [
        "ation",
        "al"
      ],
      [
        "ul",
        "es"
      ],
      [
        "Ġun",
        "get"
      ],
      [
        "ĠS",
        "tr"
      ],
      [
        "Ġy",
        "ear"
      ],
      [
        "Ġcomm",
        "on"
      ],
      [
        "Ġ|",
        "|"
      ],
      [
        "Ġstore",
        "d"
      ],
      [
        "rou",
        "gh"
      ],
      [
        "c",
        "ision"
      ],
      [
        "d",
        "ig"
      ],
      [
        "n",
        "ow"
      ],
      [
        "o",
        "ve"
      ],
      [
        "in",
        "ary"
      ],
      [
        "ion",
        "s"
      ],
      [
        "le",
        "ft"
      ],
      [
        "Ġm",
        "onth"
      ],
      [
        "se",
        "qu"
      ],
      [
        "ig",
        "in"
      ],
      [
        "ist",
        "er"
      ],
      [
        "ple",
        "te"
      ],
      [
        "Ġwhe",
        "ther"
      ],
      [
        "Ġcons",
        "ist"
      ],
      [
        "\"",
        ");"
      ],
      [
        "I",
        "f"
      ],
      [
        "n",
        "ot"
      ],
      [
        "Ġt",
        "able"
      ],
      [
        "Ġo",
        "ver"
      ],
      [
        "Ġc",
        "l"
      ],
      [
        "Ġe",
        "as"
      ],
      [
        "ction",
        "s"
      ],
      [
        "Ġpro",
        "du"
      ],
      [
        "ab",
        "el"
      ],
      [
        "lo",
        "s"
      ],
      [
        "Ġwh",
        "ite"
      ],
      [
        "cl",
        "us"
      ],
      [
        "Ġr",
        "ules"
      ],
      [
        "Ġpre",
        "process"
      ],
      [
        "Ġpl",
        "ace"
      ],
      [
        "Ġchang",
        "e"
      ],
      [
        "Ġsm",
        "all"
      ],
      [
        "r",
        "y"
      ],
      [
        "t",
        "ing"
      ],
      [
        "u",
        "str"
      ],
      [
        "he",
        "ll"
      ],
      [
        "it",
        "ted"
      ],
      [
        "st",
        "fix"
      ],
      [
        "Ġm",
        "in"
      ],
      [
        "Ġm",
        "alloc"
      ],
      [
        "Ġth",
        "rough"
      ],
      [
        "Ġ*",
        ","
      ],
      [
        "ĠThe",
        "re"
      ],
      [
        "Ġg",
        "ro"
      ],
      [
        "iz",
        "es"
      ],
      [
        "Ġwh",
        "at"
      ],
      [
        "Ġma",
        "k"
      ],
      [
        "op",
        "en"
      ],
      [
        "Ġsh",
        "ort"
      ],
      [
        "Ġnew",
        "line"
      ],
      [
        "Ġinitializ",
        "er"
      ],
      [
        "qual",
        "ifier"
      ],
      [
        "Ġup",
        "per"
      ],
      [
        "Ġincre",
        "ment"
      ],
      [
        "Ġrequ",
        "ire"
      ],
      [
        "ĠFunction",
        "s"
      ],
      [
        "N",
        "IX"
      ],
      [
        "O",
        "R"
      ],
      [
        "c",
        "om"
      ],
      [
        "i",
        "ct"
      ],
      [
        "v",
        "alu"
      ],
      [
[...]
