{
  "Ġproblems": 3372,
  "Ġachieved": 5078,
  "ĠGordon": 6298,
  "Ġreserve": 6079,
  "Ġinclude": 1802,
  "ences": 1463,
  "Ġcrops": 10255,
  "ĠNapoleon": 9669,
  "Ġproud": 13356,
  "akh": 9335,
  "Ġcl": 480,
  "edar": 13057,
  "py": 13542,
  "ĠÃ": 2459,
  "Ġunderst": 3623,
  "ĠPrime": 5398,
  "ĠDavis": 5746,
  "Ġconv": 2049,
  "Ġproducers": 4941,
  "Ġcomparing": 12960,
  "Ġimprisonment": 14542,
  "Ġact": 736,
  "ĠShore": 15445,
  "Ġmasses": 13493,
  "Ġnewspapers": 8161,
  "ĠLich": 15637,
  "antasy": 3771,
  "ĠBatt": 1712,
  "Ġconvey": 12213,
  "Ġpartn": 7266,
  "ordan": 6399,
  "stem": 1046,
  "cell": 12125,
  "mi": 9026,
  "w": 94,
  "ĠFischer": 13152,
  "phan": 10820,
  "Ġappearing": 7272,
  "Ġweekly": 9690,
  "eria": 13364,
  "Ġlinks": 11183,
  "iral": 3149,
  "ĠUlt": 7322,
  "Ġopinion": 5816,
  "Ġdiving": 13858,
  "Ġmassive": 7080,
  "ĠCh": 451,
  "ĠBrew": 13321,
  "cliff": 11168,
  "ĠWrest": 13530,
  "gn": 5298,
  "ĠRenaissance": 13102,
  "Ġerup": 15150,
  "aped": 3757,
  "ĠNight": 4892,
  "Ġseen": 2002,
  "Ġinduct": 10060,
  "alia": 12646,
  "ment": 424,
  "Ġinherit": 14996,
  "Ġarg": 2161,
  "Ġobservers": 15045,
  "Ġguitar": 2987,
  "Ġevening": 6215,
  "ĠPhil": 2032,
  "ĠAg": 2454,
  "Ġprison": 3052,
  "odore": 8084,
  "ĠAugustus": 14205,
  "ľ": 207,
  "och": 5114,
  "Ġsixteen": 10075,
  "d": 75,
  "Ġterritories": 7757,
  "ĠColorado": 7737,
  "ĠRugby": 14604,
  "Ġimprison": 7769,
  "aults": 12271,
  "Ġopp": 1427,
  "Ġsued": 15718,
  "Ġpercent": 2574,
  "Ġtel": 11234,
  "changes": 14283,
  "earing": 9539,
  "atters": 15105,
  "ched": 1464,
  "Ġsur": 836,
  "Ġfive": 1208,
  "Ġimported": 13217,
  "Ġretiring": 15265,
  "Ġ124": 12552,
  "Ġ39": 3950,
  "Ġinvolved": 2514,
  "uter": 2671,
  "Ġ16": 971,
  "Ġsocialist": 15745,
  "ĠDVD": 3679,
  "Ġmaps": 11282,
  "iÄĩ": 5201,
  "Ġintens": 3201,
  "Ġ173": 9452,
  "ĠMetac": 12368,
  "Ġsister": 3703,
  "Ġversions": 4458,
  "Ġcommunic": 4656,
  "Ġthem": 700,
  "Ġcred": 2819,
  "ĠSteve": 5715,
  "Ġstream": 6119,
  "Ġdangerous": 7799,
  "umn": 3279,
  "joy": 3571,
  "Ġmedals": 11181,
  "emy": 2226,
  "Ġmodified": 7300,
  "ĠBud": 11110,
  "Ġrecomm": 3919,
  "Ġexerc": 5927,
  "Ġscheme": 7172,
  "Ġinvestig": 3041,
  "ĠHers": 15513,
  "Ġolder": 4507,
  "ĠEugene": 14893,
  "Ġdam": 1450,
  "ĠFoundation": 7750,
  "Å¡": 6162,
  "Ġpoor": 2886,
  "ĠCalifornia": 2722,
  "Ġtraff": 3807,
  "inqu": 12440,
  "Ġfarmers": 11651,
  "ella": 5243,
  "Ġpatient": 11713,
  "onde": 14676,
  "Ġadvances": 13339,
  "ĠMik": 9165,
  "Ġreported": 1787,
  "ĠSquare": 5091,
  "Ġprotect": 5371,
  "Ġgrab": 15040,
  "ĠEliz": 4687,
  "ĠInst": 5098,
  "Ġbegin": 2028,
  "Ġsuspended": 8472,
  "Ġdrafted": 10641,
  "ĠAlexandria": 15436,
  "Ġdimin": 10956,
  "Ġreporting": 11718,
  "ois": 7629,
  "ĠSub": 4738,
  "Ġanimation": 7654,
  "ocity": 10449,
  "ĠAntonio": 10275,
  "Ġbanks": 8634,
  "Ġmentioned": 5295,
  "Ġfound": 890,
  "Ġhyd": 4684,
  "ince": 873,
  "Ġdoctor": 8056,
  "Ġrepe": 3888,
  "Ġdecided": 2152,
  "LC": 8975,
  "est": 348,
  "Ġyou": 1559,
  "Ġabd": 14346,
  "ĠCleveland": 6732,
  "isc": 1742,
  "Ġelimin": 5512,
  "Ġ500": 2371,
  "Ġfut": 14763,
  "ĠBahamas": 15007,
  "ĠTay": 4652,
  "lad": 10203,
  "Ġmarriage": 3953,
  "Ġcatalog": 15252,
  "Ġrestrict": 7940,
  "ĠPlant": 10715,
  "ase": 629,
  "Ġalleged": 6805,
  "ĠChand": 8836,
  "ĠKan": 9667,
  "Ġserious": 3763,
  "İ": 193,
  "as": 244,
  "Ġexport": 14563,
  "ĠFraser": 14880,
  "Ġlyric": 3045,
  "Ġgains": 13549,
  "ĠSle": 10068,
  "Ġvac": 5653,
  "ĠLa": 2559,
  "bon": 4479,
  "Ġcro": 12748,
  "Ġhighway": 2572,
  "Ġprey": 6861,
  "Ġlear": 3870,
  "ped": 1234,
  "Ġentert": 11637,
  "ĠStep": 3866,
  "ok": 491,
  "Ġsqu": 6953,
  "Ġinterface": 15951,
  "Ġknowing": 13279,
  "Ġsoutheast": 5634,
  "Ġcommemor": 7223,
  "Ġimmun": 13965,
  "ĠKle": 14548,
  "Ġlost": 1794,
  "ĠMetro": 11488,
  "Ġsexual": 4503,
  "ĠKnowles": 15537,
  "ĠDanish": 10474,
  "Ġinterior": 7256,
  "Ġ42": 4236,
  "ĠCampbell": 8552,
  "Ġext": 1204,
  "ĠHan": 5693,
  "olar": 10761,
  "Ġdescribe": 7921,
  "otton": 8863,
  "Ġaccommodation": 15250,
  "ĠNak": 13225,
  "ĠMatthew": 7249,
  "uded": 9998,
  "Ġexchange": 5998,
  "Ã¨": 4875,
  "Ġaway": 1958,
  "athetic": 13272,
  "ĠAcad": 3761,
  "ptic": 11402,
  "Ġcontents": 14616,
  "aces": 2214,
  "Ġsymbols": 12799,
  "using": 7228,
  "tical": 6019,
  "omorph": 15207,
  "nes": 2841,
  "peror": 4020,
  "Ġinnovative": 14557,
  "Ġpartic": 1213,
  "ĠNov": 1166,
  "Ġdiver": 9130,
  "Ġ550": 15351,
  "Ġinstallation": 13400,
  "Ċ": 176,
  "Ġconsidering": 9434,
  "Ġconsult": 8304,
  "Ġblog": 14819,
  "Ġreal": 1533,
  "Ġforms": 3990,
  "rig": 1658,
  "ĠGet": 7477,
  "ĠBridge": 4217,
  "ĠGreat": 2511,
  "Ġatop": 11968,
  "incip": 3061,
  "ĠHar": 1274,
  "Ġreluctant": 12562,
  "Ġreinf": 4856,
  "ĠAmeric": 760,
  "É": 139,
  "ida": 2802,
  "ĠNaval": 6091,
  "Ġindigenous": 11337,
  "Ġoperating": 5980,
  "Ġlabel": 4806,
  "Ġthreatening": 11554,
  "ĠTreaty": 7941,
  "Ġcalm": 13698,
  "stic": 7688,
  "Ġconcurrent": 11067,
  "rom": 345,
  "ollowing": 2479,
  "ĠIn": 412,
  "Ġcharting": 15103,
  "ken": 3523,
  "ĠC": 268,
  "Ġnom": 8419,
  "ĠBanglades": 14398,
  "Ġpositively": 11232,
  "ibrary": 4377,
  "ĠMine": 14742,
  "Ġwarships": 11096,
  "Ġrenov": 9281,
  "sp": 1648,
  "ĠHart": 6029,
  "ĠCa": 5068,
  "Ġseam": 15778,
  "Ġsomeone": 6455,
  "ĠBroadcast": 10209,
  "ibility": 2805,
  "Ġvirus": 9992,
  "Ġstair": 12868,
  "ĠEngineering": 13254,
  "Ġwarriors": 14434,
  "alo": 7431,
  "ĠSpain": 5053,
  "ĠWriting": 8401,
  "ĠBeck": 8435,
  "Ġline": 1292,
  "hern": 1960,
  "Ġespecially": 2956,
  "Ġremake": 12351,
  "Ġotherwise": 6994,
  "theless": 5786,
  "ĠMax": 4495,
  "Ġshel": 6373,
  "Ġ182": 4448,
  "res": 373,
  "Ġcorporate": 11425,
  "Ġpermit": 14692,
  "Ò": 148,
  "Ġ19": 342,
  "Ġ1862": 11510,
  "Ġwhose": 2851,
  "ĠQ": 1160,
  "quest": 10700,
  "Ġ106": 10082,
  "Ġassessed": 13811,
  "Ġjersey": 14228,
  "f": 77,
  "Ġmuseum": 5888,
  "ĠLiber": 4536,
  "ĠLenn": 6750,
  "Ġorchestral": 12459,
  "Ġ00": 740,
  "Ġlaid": 4653,
  "Ġissues": 3570,
  "Ġtheoretical": 15356,
  "Ġremote": 11940,
  "Ġmer": 2324,
  "Ġseiz": 14368,
  "Ġevery": 1657,
  "ĠNob": 7324,
  "Ġrealize": 14317,
  "Ġaffected": 4650,
  "Ġspent": 2746,
  "orm": 487,
  "nings": 6956,
  "ĠCand": 11634,
  "ĠMaced": 11873,
  "Ġincons": 13859,
  "Ġbaby": 9256,
  "ĠQueensland": 9916,
  "ĠArgent": 6651,
  "aly": 4800,
  "Ġproviding": 5612,
  "Ġneighbour": 9561,
  "lor": 3445,
  "Ġleading": 2321,
  "ĠMissouri": 8621,
  "Ġrules": 5728,
  "ĠAff": 8297,
  "ĠDrew": 15648,
  "Ġdiscl": 15870,
  "urch": 1250,
  "ord": 438,
  "Ġsafety": 5965,
  "Ġninth": 7209,
  "Ġtension": 10851,
  "ĠEu": 1364,
  "ĠNelson": 7051,
  "ĠMexico": 3859,
  "Ġrough": 4275,
  "amy": 15956,
  "ĠBerlin": 7388,
  "Ġcode": 7269,
  "Ġinvol": 1702,
  "ĠLuftwaffe": 12927,
  "teen": 3212,
  "asia": 12325,
  "rem": 2662,
  "ĠRow": 6971,
  "ĠAlso": 5733,
  "Ġunusually": 13743,
  "Ġcharge": 4439,
  "ĠCant": 13871,
  "Ġmillion": 1076,
  "ĠAuthor": 7729,
  "Ġability": 3711,
  "Ġdaughter": 3174,
  "ĠOnline": 13669,
  "Ġ": 178,
  "Ġanalys": 14798,
  "gged": 11081,
  "Ġwho": 517,
  "Ġfleet": 3096,
  "Ġthese": 1084,
  "Ġsurpass": 9142,
  "Ġinc": 454,
  "Ġliterally": 12973,
  "ĠPresley": 14261,
  "ateg": 2609,
  "omber": 8792,
  "Ġwartime": 12155,
  "Ġshop": 6814,
  "species": 8603,
  "ĠHenderson": 12752,
  "Ġserved": 2031,
  "Ġmere": 14883,
  "Ġinter": 633,
  "idad": 15716,
  "ĠHistoric": 8556,
  "Ġ38": 3562,
  "ĠVill": 6313,
  "ĠNo": 1642,
  "mith": 8200,
  "Ġrede": 9554,
  "Ġproposals": 10361,
  "Ġincluded": 1334,
  "etary": 11613,
  "ighed": 12318,
  "Ġjudicial": 12087,
  "ĠWatch": 11722,
  "ouk": 15407,
  "ĠHin": 7516,
  "Ġbusiness": 2401,
  "udden": 6694,
  "Ġcomprehensive": 14656,
  "Ġfailed": 2788,
  "ston": 2689,
  "Ġminister": 6752,
  "Ġspecifically": 6263,
  "Ġcompilation": 8499,
  "iman": 14837,
  "Ġtitles": 5405,
  "Ġcrop": 7072,
  "Ġinclusion": 10549,
  "quet": 14024,
  "ov": 428,
  "rown": 4101,
  "Ġefficient": 10484,
  "Ġleaked": 15092,
  "Ġsurrend": 8996,
  "car": 10135,
  "ĠYok": 13974,
  "ĠDog": 7060,
  "Ġeth": 4588,
  "q": 88,
  "otal": 9630,
  "ĠAt": 891,
  "Ġhaz": 12757,
  "ina": 1210,
  "ĠReserve": 9642,
  "munition": 8266,
  "unction": 4497,
  "mas": 4221,
  "Ġboy": 3299,
  "Ġspot": 4214,
  "Ġraw": 13227,
  "ĠRos": 4862,
  "Ġdensity": 9591,
  "Ġwhere": 770,
  "Ġvehicles": 5234,
  "Ġacoustic": 9840,
  "Ġmiles": 2129,
  "ee": 2400,
  "ĠRobert": 2477,
  "ĠEnix": 12310,
  "ĠRevolution": 5132,
  "wo": 481,
  "Ġanalysis": 5508,
  "Ġlaugh": 11336,
  "iri": 12856,
  "dan": 13556,
  "oly": 3586,
  "ĠGlobe": 10582,
  "ĠClub": 3116,
  "iation": 3395,
  "Ġcovered": 3674,
  "ĠPer": 2160,
  "ĠJul": 4685,
  "Ġpersu": 6881,
  "Ġmore": 646,
  "ylum": 12940,
  "Ý": 159,
  "Ġ102": 10405,
  "Ġneighbor": 5811,
  "imeter": 8130,
  "aug": 6297,
  "Ġprofit": 9394,
  "ĠAlbany": 12373,
  "ĠPoll": 13377,
  "ĠâĤ": 7330,
  "Ġecl": 14411,
  "ĠMerc": 7581,
  "ĠMale": 15109,
  "Ġup": 572,
  "Ġ74": 5395,
  "Ġlake": 7231,
  "Ġmarking": 11332,
  "Ġpri": 2228,
  "Ġflesh": 12959,
  "arting": 11850,
  "Ġ186": 2271,
  "Ġprosp": 8319,
  "Ġrural": 6361,
  "ĠSH": 12967,
  "ĠGuatem": 13890,
  "Ġexciting": 14252,
  "Ġtrial": 4294,
  "Ġmanufacturer": 15758,
  "ĠDerby": 14188,
  "ĠGe": 1324,
  "ax": 1077,
  "Ġplatoon": 15553,
  "ĠDays": 10949,
  "Ġgathering": 13341,
  "Ġregime": 9734,
  "ĠBureau": 8768,
  "Ġpossibility": 6708,
  "ament": 2199,
  "Ġcap": 903,
  "Ġseparation": 11322,
  "ĠJose": 3749,
  "edic": 3833,
  "ĠNan": 15669,
  "Ġideas": 5012,
  "uzzle": 9683,
  "ĠOpp": 9544,
  "Ġstim": 11641,
  "Ġmembership": 9659,
  "Ġbel": 1052,
  "aul": 1706,
  "Ġpower": 1374,
  "ĠBull": 8337,
  "ĠMcN": 12949,
  "lict": 3933,
  "al": 241,
  "ĠAM": 10214,
  "ĠSet": 9164,
  "Ġtensions": 13073,
  "itt": 3329,
  "ĠDev": 4852,
  "Ġmedium": 7819,
  "Ġhill": 6747,
  "Ġclosing": 8397,
  "ĠHead": 5101,
  "Ġavoiding": 15081,
  "ĠIl": 10638,
  "ĠTwenty": 14198,
  "Ġentitled": 6197,
  "Ġcock": 9607,
  "ĠMary": 2533,
  "ĠHat": 13125,
  "Ġgay": 7595,
  "Ġraid": 7007,
  "Ġprotective": 14773,
  "oke": 2833,
  "Ġblow": 6446,
  "Ġcastle": 4158,
  "ski": 7828,
  "Ġabolished": 14461,
  "Ġ978": 9752,
  "Ġtypically": 4835,
  "ĠMcMahon": 15613,
  "Ġenthusi": 10182,
  "Ġcorridor": 13533,
  "ĠPeng": 11581,
  "esters": 14895,
  "ĠSp": 815,
  "Ġspecial": 2101,
  "Ġimmediately": 3342,
  "Ġalarm": 15489,
  "Ġmaterials": 6815,
  "dy": 5457,
  "Ġx": 7169,
  "Ġthr": 3655,
  "ĠElectric": 11120,
  "ĠChelsea": 10712,
  "+": 18,
  "ruit": 4739,
  "Ġabsence": 7219,
  "Ġfatal": 13237,
  "Ġunivers": 4077,
  "Ġimage": 4555,
  "Ġupon": 2319,
  "ĠAdri": 14522,
  "Ġsubmit": 14110,
  "Ġadopted": 4948,
  "Ġ111": 11355,
  "Ġpack": 4587,
  "ĠGermany": 2829,
  "ibl": 13872,
  "ĠTerrit": 9056,
  "ĠGreatest": 10522,
  "Ġimpro": 2114,
  "Ġ89": 6191,
  "ĠRec": 1665,
  "ĠKaren": 15065,
  "Ġnames": 3732,
  "yr": 3800,
  "ock": 759,
  "ĠSt": 421,
  "Ġbetter": 2717,
  "Ġdelight": 12997,
  "ĠCornwall": 11511,
  "Ġshar": 13170,
  "Ġocc": 1152,
  "ĠLieutenant": 5712,
  "agen": 8396,
  "Ġsuff": 1916,
  "Ġinfluenced": 4339,
  "Ġdepicted": 7367,
  "ins": 887,
  "Ġclin": 9632,
  "Ġsuccessor": 7495,
  "ĠSpirit": 10581,
  "ĠNashville": 13694,
  "Ġ1891": 10676,
  "Ġentries": 15419,
  "ĠYour": 6408,
  "ĠLabour": 8574,
  "Ġhopes": 11254,
  "Ġdisapp": 3776,
  "Ġtrick": 8817,
  "ĠHud": 8184,
  "Ġsecuring": 13956,
  "ĠDance": 8096,
  "Ġlawyer": 9805,
  "ĠSA": 12088,
  "Ġflagship": 8776,
  "Ġreliable": 14899,
  "Ġtissue": 11255,
  "ĠBarn": 12337,
  "ĠÂµm": 15460,
  "sc": 2233,
  "Ġjournalist": 7514,
  "orld": 742,
  "ĠChang": 12253,
  "ĠHy": 5193,
  "Ġwrite": 4138,
  "Ġconqu": 6371,
  "Ġhorse": 3948,
  "Ġcorpor": 8426,
  "Ġeverything": 6279,
  "lay": 12780,
  "Ġbelonging": 12500,
  "Ġdispl": 4753,
  "Ġcaus": 1514,
  "ĠCent": 1677,
  "iled": 3660,
  "Ġsl": 1311,
  "Ġcollected": 5934,
  "Ġabandon": 3793,
  "Ġparade": 15735,
  "osh": 3834,
  "pine": 10919,
  "Ġsubmerged": 12721,
  "ĠHancock": 13550,
  "ĠOw": 13428,
  "outhern": 1893,
  "ree": 537,
  "ĠMember": 14504,
  "Ġreleg": 10496,
  "Ġfactors": 7454,
  "Ġsurface": 2979,
  "Ġvision": 7645,
  "ethel": 9936,
  "Ġdeeply": 10591,
  "Ġtermin": 4648,
  "Ġscrap": 12021,
  "Ġkiller": 11517,
  "Ġswall": 15517,
  "Ġsemi": 5769,
  "Ġassociation": 6919,
  "ĠFac": 14316,
  "Ġweek": 1239,
  "chw": 12190,
  "arther": 14710,
  "Ġbombing": 9084,
  "ounted": 3433,
  "Ġsons": 6817,
  "cent": 2244,
  "isp": 8290,
  "ĠTreasury": 14282,
  "Ġsteal": 15151,
  "Ġwalking": 9493,
  "Ġitem": 13924,
  "Ġpp": 13589,
  "ĠCouncil": 3192,
  "uals": 3550,
  "ĠSur": 4135,
  "ĠTir": 11932,
  "onge": 10520,
  "aced": 1130,
  "Ġexpand": 9271,
  "ĠAdventure": 12257,
  "erm": 943,
  "cean": 3482,
  "otte": 9385,
  "ban": 6858,
  "ĠDepression": 8578,
  "Ġarc": 6217,
  "ĠSol": 4182,
  "!": 8,
  "hem": 2698,
  "Ġshortly": 4459,
  "ĠSenior": 13705,
  "Ġrejected": 5150,
  "Ġfuel": 4880,
  "Ġrounds": 8134,
  "ĠRoc": 8121,
  "Ġrefit": 14260,
  "Ġsection": 2834,
  "ading": 5696,
  "Ġmoves": 6748,
  "Ġfairy": 14374,
  "Ġdrag": 14241,
  "Ġspotted": 8860,
  "ĠThings": 14191,
  "Ġafford": 11388,
  "ĠNash": 8480,
  "Ġoriginated": 9437,
  "Ġorder": 1718,
  "nda": 12076,
  "idents": 3126,
  "Ġfeared": 10729,
  "ĠLou": 2534,
  "Ġfalling": 7199,
  "etheless": 10078,
  "Ġstere": 9812,
  "ĠFood": 12861,
  "Ŀ": 208,
  "Ġscen": 9319,
  "Ġev": 619,
  "ĠCurrent": 13672,
  "ĠAU": 15488,
  "Ġafter": 570,
  "Ġconcur": 7566,
  "ĠFI": 7584,
  "Ġhand": 1435,
  "ten": 849,
  "ĠJean": 5535,
  "ĠDigital": 8928,
  "Ġopposition": 4964,
  "ĠPost": 4049,
  "Ġsan": 7319,
  "ĠSig": 9400,
  "iger": 6012,
  "Ġrevival": 11108,
  "Ġpushing": 13992,
  "ĠMart": 2589,
  "Ġpassed": 2641,
  "Ġ75": 3121,
  "Ġseas": 10996,
  "Ġboarding": 15104,
  "Ġdesigners": 14677,
  "Ġwestward": 8986,
  "Ġdivine": 13656,
  "Ġstrateg": 6785,
  "Ġprisoners": 6169,
  "Ġinspired": 3524,
  "quin": 15189,
  "ĠXIII": 15555,
  "Ġãĥ": 11477,
  "Ġappointed": 3064,
  "iors": 12129,
  "ĠPerth": 13450,
  "Ġrenowned": 15709,
  "Ġordering": 15694,
  "Ġaltitude": 10707,
  "reets": 6116,
  "Ġchap": 4000,
  "ounts": 3695,
  "Ġexamples": 7894,
  "ĠLeonard": 11364,
  "ĠUpper": 10320,
  "Ġlikely": 3354,
  "ĠKang": 15317,
  "Ġpopulations": 6660,
  "Ġ1941": 4338,
  "dish": 15810,
  "Ġrounded": 12159,
  "Ġfavorable": 8551,
  "Ġnorm": 3409,
  "ives": 1178,
  "ĠTour": 3616,
  "Ġcollective": 14731,
  "Ġredu": 2235,
  "ĺ": 203,
  "ĠNeptune": 15809,
  "Ġcrews": 8766,
  "tered": 3701,
  "Ġ1994": 3657,
  "VA": 14410,
  "ĠVenice": 12450,
  "esp": 1257,
  "lic": 2310,
  "Ġbattlefield": 12140,
  "ĠDistribution": 15217,
  "Ġorigins": 9421,
  "ĠSingh": 14910,
  "otes": 7348,
  "Ġrecogn": 2421,
  "win": 3595,
  "Ġdepicting": 11542,
  "ĠBris": 12093,
  "Ġdecades": 6470,
  "ĠAbraham": 13382,
  "umps": 9181,
  "iff": 2537,
  "ĠSn": 7130,
  "Ġtall": 5993,
  "ĠHaw": 3886,
  "Ġ1876": 12160,
  "Ġtract": 15310,
  "ĠInter": 3344,
  "ĠWorks": 9399,
  "ĠResp": 15867,
  "Ġterminus": 6688,
  "Ġpayment": 12517,
  "ĠMorrison": 9515,
  "el": 266,
  "ci": 12974,
  "Ġ400": 3857,
  "Ġbody": 2126,
  "Ġreading": 6283,
  "ĠDaniels": 13468,
  "Ġcop": 2095,
  "Ġmeasured": 8496,
  "Ġspectrum": 15395,
  "ĠLaure": 8307,
  "Ġdr": 1306,
  "Ġfoc": 2425,
  "Ġpreval": 14055,
  "ĠVinc": 8558,
  "Ġepic": 11052,
  "over": 579,
  "Ġ1917": 5894,
  "Ġnautical": 10175,
  "Ġghost": 12180,
  "Ġcostumes": 13021,
  "Ġstrongly": 6698,
  "Ġfairly": 10218,
  "tery": 10121,
  "Ġgenres": 11830,
  "Ġweakness": 12247,
  "ĠCar": 1188,
  "Ġlogo": 12409,
  "Ġexit": 8451,
  "erted": 6445,
  "ĠHip": 13903,
  "itional": 14014,
  "ĠProp": 10358,
  "ĠJoel": 15128,
  "gel": 11470,
  "ĠLaur": 9670,
  "ief": 1820,
  "Ġassets": 12818,
  "Ġcabinet": 10445,
  "Ġslot": 14949,
  "ĠMem": 9597,
  "Ġsib": 12668,
  "Ġmajor": 1237,
  "Ġchore": 10381,
  "Ġraising": 9324,
  "~": 101,
  "zant": 5510,
  "rates": 8513,
  "stream": 5227,
  "ĠRif": 12857,
  "Ġproved": 4417,
  "ĠHuman": 8039,
  "omys": 12583,
  "Ġpublic": 1236,
  "Ġtyp": 1586,
  "ĠPalmer": 13776,
  "Ġremains": 3276,
  "Ġbanned": 9972,
  "gg": 1099,
  "ĠFoster": 12495,
  "Ġmet": 937,
  "Ġweight": 4618,
  "ĠNovember": 1248,
  "Ġconviction": 14627,
  "Ġhistor": 1964,
  "Ġobjects": 6230,
  "Ġsixth": 4447,
  "gen": 2981,
  "ingu": 4079,
  "13": 10036,
  "Ġcompared": 3222,
  "Ġgraphics": 7393,
  "thlet": 4274,
  "ropolis": 15698,
  "ĠSoc": 2923,
  "Ġagree": 7897,
  "ĠSuper": 3667,
  "Ġincorporated": 6801,
  "19": 5736,
  "Far": 14146,
  "ĠãĤ": 14817,
  "Ġeduc": 2622,
  "Ġsurround": 3047,
  "ĠNorway": 5917,
  "Ġtakes": 3513,
  "ĠBarcelona": 12484,
  "ulture": 12579,
  "Ġplayed": 1326,
  "ĠProtestant": 11460,
  "Ġreop": 12696,
  "ĠAvenue": 4424,
  "castle": 10647,
  "Ġbenef": 4942,
  "Ġvelocity": 11171,
  "Ġcontemporary": 4632,
  "hr": 6293,
  "Ġoccurred": 3536,
  "ĠShield": 11858,
  "Ġconvection": 7306,
  "Ġcopy": 6270,
  "Ġalignment": 8239,
  "Ġphone": 9010,
  "Ġaround": 1143,
  "ĠKra": 12514,
  "usive": 12874,
  "ĠPA": 7094,
  "Ġalco": 7526,
  "Ġgenius": 14598,
  "Ġfinished": 2522,
  "ĠDum": 15440,
  "Ġachieving": 14678,
  "Ġdid": 928,
  "ĠQueen": 3417,
  "ĠCalgary": 12585,
  "ito": 6733,
  "Ġmotif": 12229,
  "ulated": 3078,
  "unker": 15412,
  "ĠKur": 15574,
  "Ġaudio": 7698,
  "Ġgeneral": 2143,
  "Ġpounder": 13010,
  "Ġval": 1971,
  "ĠBarry": 9069,
  "ĠIsab": 12287,
  "ĠAlt": 11018,
  "Ġcategories": 10743,
  "Ġinflicted": 14729,
  "Ġplatform": 4400,
  "ratropical": 9390,
  "Ġvariation": 10910,
  "ĠNancy": 11441,
  "Ġproject": 1824,
  "Ġhonour": 8273,
  "onial": 11532,
  "uled": 4781,
  "Ġfan": 4928,
  "oln": 5198,
  "Ġdio": 15288,
  "Ġassembly": 9661,
  "ĠSic": 11304,
  "ele": 7760,
  "Ġalt": 6374,
  "oses": 3805,
  "Ġ159": 11174,
  "Ġcomposer": 6414,
  "Ġjudge": 7379,
  "Ġanonymous": 15515,
  "%": 12,
  "Ġtrans": 1019,
  "ana": 2078,
  "Ġdiversity": 12028,
  "ĠConstantinople": 11291,
  "Ġfreed": 13704,
  "Ġsquad": 5473,
  "lend": 13206,
  "Ġan": 341,
  "Ġnearly": 3179,
  "Ġranked": 3480,
  "Ġside": 1570,
  "Ġdidn": 5215,
  "ĠKarl": 9300,
  "Ġrit": 8694,
  "while": 4322,
  "Ġrelegated": 15437,
  "Ġelaborate": 11061,
  "Ġannoun": 1719,
  "Ġperformed": 2022,
  "ĠHast": 14753,
  "ĠMess": 8720,
  "utely": 12788,
  "ĠVictorian": 9732,
  "Ġtroubl": 15630,
  "Ġstaff": 3083,
  "ements": 2250,
  "ĠHu": 8147,
  "sel": 2693,
  "Ġregarding": 5877,
  "ĠArabian": 14860,
  "Ġsynt": 6046,
  "ĠâģĦ": 10864,
  "oured": 4453,
  "Ġsculpture": 10862,
  "Ġinvested": 15952,
  "Ġparliament": 6585,
  "Ġexile": 11486,
  "Ġlocally": 10890,
  "Ġmales": 6260,
  "Ġdozen": 11342,
  "Ġcol": 734,
  "Ġprize": 9713,
  "Ġpostponed": 15674,
  "ĠAr": 685,
  "Ġwages": 15761,
  "ible": 1113,
  "nex": 11558,
  "ĠRichardson": 12612,
  "Ġcommentators": 13257,
  "armed": 14942,
  "Ġhabit": 4644,
  "Ġ1987": 4741,
  "hered": 6613,
  "Ġlb": 5809,
  "Ġvoters": 11678,
  "Ġready": 6823,
  "ĠScientology": 10705,
  "instein": 11844,
  "Ġfloors": 13317,
  "orph": 8203,
  "Ġappears": 3453,
  "Ġlying": 9466,
  "ĠWalk": 6013,
  "ĠGuadal": 12850,
  "Ġintersection": 5704,
  "Ġdefensive": 5415,
  "Ġunsu": 5277,
  "udi": 11707,
  "mitted": 5977,
  "Ġnep": 10953,
  "Ġbuses": 15142,
  "Ġargued": 4599,
  "ĠDayton": 15130,
  "ĠVice": 7643,
  "Ġflown": 11999,
  "Ġacc": 747,
  "Ġprocessing": 12554,
  "Ġeighteen": 12601,
  "ĠDem": 2894,
  "hip": 694,
  "Ġ87": 5922,
  "ĠSag": 15512,
  "Ġcircle": 9541,
  "orders": 8519,
  "ĠBas": 5600,
  "Ġfour": 790,
  "ĠInvest": 11496,
  "Ġpron": 8488,
  "ima": 5076,
  "ĠHunt": 11326,
  "Ġhouseholds": 8902,
  "Ġagre": 2088,
  "onnaissance": 8108,
  "Ġcalculated": 12045,
  "Ġsurgery": 8951,
  "Ġseized": 9635,
  "ĠEurop": 1458,
  "ĠBun": 14603,
  "Ġwasn": 8669,
  "Ġconver": 4278,
  "Ġ.": 228,
  "ĠTelegraph": 12661,
  "ĠCommercial": 14377,
  "Ġanalog": 14207,
  "Ġwor": 4194,
  "ĠTruth": 14281,
  "asse": 13351,
  "ĠVul": 14490,
  "ī": 188,
  "ĠEnterprise": 9261,
  "Ġmulti": 8285,
  "ĠMovement": 13199,
  "idence": 2030,
  "ĠFan": 14481,
  "Ġfelt": 1968,
  "Ġprotagonist": 8080,
  "Ġenlar": 12551,
  "Ġreform": 4237,
  "gas": 15477,
  "Ġescorted": 11037,
  "Ġsk": 1569,
  "ames": 780,
  "ĠRol": 5532,
  "HC": 12417,
  "Ġdeposits": 12436,
  "ĠHamburg": 15192,
  "ĠSubsequently": 14732,
  "ued": 1006,
  "ĠMig": 12486,
  "ĠEp": 5393,
  "Ġ1979": 5549,
  "Ġboss": 8965,
  "ï": 174,
  "Ġdestination": 14169,
  "ured": 1054,
  "Ġelectronic": 8317,
  "Ġrace": 2175,
  "Ġsupplies": 6168,
  "bours": 13913,
  "ĠIraqi": 15980,
  "ĠMosc": 9703,
  "Ġtired": 15713,
  "za": 4333,
  "Ġbringing": 6774,
  "Ġrelay": 13629,
  "ĠNonetheless": 15431,
  "Ġclear": 2720,
  "uk": 2176,
  "ĠGame": 2499,
  "ĠDub": 9781,
  "igh": 374,
  "Ġopted": 13476,
  "Ġapparent": 4564,
  "cor": 15134,
  "lies": 13680,
  "Ġambitious": 13417,
  "Ġib": 11293,
  "Ġmph": 2494,
  "ifier": 13723,
  "irty": 9263,
  "Ġcapacity": 4963,
  "Ġhusband": 4569,
  "ely": 562,
  "ĠDelta": 12631,
  "Ġpursue": 9195,
  "ĠAfrican": 3868,
  "S": 58,
  "Ġinterview": 2808,
  "Ġrealm": 14668,
  "thel": 4054,
  "Ġrom": 4972,
  "now": 2555,
  "ĠNeil": 10693,
  "Ġdistinctive": 8778,
  "ĠControl": 11382,
  "gedy": 14976,
  "grim": 15239,
  "{": 98,
  "Ġcuts": 10353,
  "ust": 439,
  "Ġde": 376,
  "Ġadequ": 12641,
  "Ġhospital": 4504,
  "Ġflex": 10999,
  "Ġsince": 1255,
  "Ġprior": 3058,
  "ĠCalvin": 14905,
  "Ġturb": 8081,
  "bal": 9917,
  "ĠVer": 4066,
  "rons": 5436,
  "Ġincidents": 12243,
  "Ġbiggest": 7380,
  "Ġlane": 6499,
  "ity": 404,
  "ishes": 5328,
  "ett": 2021,
  "Ġtrained": 7321,
  "Ġmad": 11716,
  "Ġyears": 816,
  "Ġmachines": 11869,
  "AF": 3134,
  "Ġapolog": 11735,
  "og": 475,
  "Ġ12": 906,
  "itary": 1548,
  "V": 61,
  "ĠProject": 6526,
  "adoes": 14956,
  "Ġbring": 3285,
  "ilst": 7942,
  "elve": 4690,
  "Ġassessment": 12846,
  "ĠAnn": 4029,
  "*": 17,
  "·": 123,
  "ects": 2236,
  "Ad": 11371,
  "alions": 8086,
  "Ġwish": 9965,
  "Ġcatches": 15621,
  "ĠJohann": 11043,
  "Ġimp": 931,
  "ĠRen": 8656,
  "tingham": 15641,
  "Ġgif": 11627,
  "Ġdisb": 9996,
  "Ġherself": 4859,
  "ĠBoys": 9475,
  "Ġrelative": 7026,
  "Ġ90": 3496,
  "Ġscales": 14607,
  "gy": 1627,
  "ĠCity": 1643,
  "ardo": 8992,
  "ĠAud": 7885,
  "ass": 485,
  "ĠAndy": 6809,
  "ĠDall": 9499,
  "Ġster": 7480,
  "ĠFormer": 13612,
  "Ġescapes": 14090,
  "Ġabs": 2814,
  "Ĺ": 202,
  "rated": 2481,
  "ĠLloyd": 9909,
  "Ġthrowing": 11575,
  "P": 55,
  "Ġlearning": 7061,
  "Ġbiological": 11289,
  "Ġcancelled": 8648,
  "ĠGra": 4388,
  "odium": 11952,
  "rast": 3278,
  "Ġagent": 5823,
  "Ġhatch": 13299,
  "Ġyd": 12407,
  "ror": 2986,
  "Ġide": 1829,
  "Ġactively": 12566,
  "ingly": 5575,
  "Ġescal": 13891,
  "Ġbeliefs": 11083,
  "ĠAfghanistan": 11834,
  "Ġlinear": 12124,
  "Ġroutine": 12285,
  "us": 303,
  "Ġconcludes": 14152,
  "Ġl": 267,
  "terbury": 9253,
  "Ġsalv": 10430,
  "Ġconvinced": 7155,
  "Ġisotopes": 15059,
  "Ġfisher": 10163,
  "itated": 8362,
  "irmed": 3925,
  "lines": 4603,
  "ĠSuch": 9023,
  "Ġallegations": 13119,
  "ĠSpeed": 12605,
  "ĠCanberra": 15201,
  "Ġ1932": 7421,
  "ĠGuards": 13977,
  "ĠWhy": 12777,
  "Ġgun": 1393,
  "Ġexistence": 5967,
  "Ġdate": 3131,
  "ailing": 11408,
  "ĠSim": 2018,
  "ĠReynolds": 14649,
  "icing": 11647,
  "Ġtouchdowns": 11618,
  "Ġhigher": 3213,
  "ĠSpider": 11278,
  "Ġvamp": 12639,
  "30": 5597,
  "Ġpal": 4547,
  "Ġion": 12513,
  "Ġdivision": 3154,
  "Ġbillion": 4819,
  "ĠNorthwest": 12567,
  "Ġfounded": 4141,
  "vy": 8201,
  "ĠLuke": 10523,
  "acts": 6023,
  "Ġc": 231,
  "ĠMirror": 14060,
  "Ġstatistics": 10448,
  "Ġdeer": 15717,
  "uka": 11652,
  "lass": 13098,
  "ĠTerritory": 12280,
  "Ġdut": 3806,
  "Ġaspects": 6474,
  "ĠN": 339,
  "Ġmanuscripts": 15344,
  "ifying": 4641,
  "Ġsecure": 6194,
  "rich": 4973,
  "ĠCanad": 1744,
  "ĠBeijing": 12789,
  "Ġcoordin": 8226,
  "Ġinte": 4871,
  "book": 7212,
  "Ġrem": 681,
  "inity": 5423,
  "Ġdirector": 2557,
  "Ġcurve": 11976,
  "ĠPul": 11273,
  "ĠMy": 2312,
  "Ġregardless": 13280,
  "ogs": 12350,
  "estyle": 9083,
  "Ġtechnology": 5745,
  "ithm": 13558,
  "Ġsea": 2904,
  "Ġsuicide": 8177,
  "Ġdecisive": 12185,
  "ĠKy": 12565,
  "il": 258,
  "Ġphotographer": 13383,
  "ference": 2688,
  "Ġhang": 6665,
  "hears": 9496,
  "Ġilleg": 14397,
  "Ġformula": 11397,
  "Ġking": 2382,
  "Ġtheatre": 6831,
  "ĠSunday": 6503,
  "arn": 2508,
  "ĠCry": 12148,
  "ĠCur": 6157,
  "Ġvolunteers": 11071,
  "ĠBruce": 6878,
  "Ġahead": 4533,
  "imid": 14011,
  "ĠHa": 4789,
  "Con": 13149,
  "Ġunaware": 13303,
  "ringe": 11839,
  "ĠLakes": 14306,
  "ĠGeoffrey": 13387,
  "Ġorganisms": 11211,
  "asy": 2605,
  "ĠT": 257,
  "Ġ270": 13510,
  "ĠPr": 1361,
  "Ġbarracks": 14909,
  "tained": 3251,
  "Ġhistorians": 7005,
  "ĠUl": 5238,
  "ument": 1818,
  "Ġcook": 8288,
  "imal": 5079,
  "de": 3361,
  "ĠBurger": 13355,
  "ĠDistinguished": 14738,
  "Ġst": 307,
  "ips": 4492,
  "iterranean": 6674,
  "ungle": 13340,
  "Ġdimensions": 14361,
  "mouth": 5521,
  "ĠTherefore": 13276,
  "Ġstarting": 4071,
  "icians": 7622,
  "Ġappearance": 2667,
  "ĠHong": 8366,
  "Ġ1": 262,
  "Ġmonks": 14073,
  "ĠMontana": 12128,
  "ounds": 3244,
  "Ġrec": 526,
  "istani": 14248,
  "Ġsup": 711,
  "Ġgot": 3435,
  "Ġmargin": 8602,
  "Ġpossible": 2553,
  "Ġ1958": 6539,
  "ĠJNA": 11885,
  "Ġnesting": 15831,
  "Ġbills": 13375,
  "don": 6753,
  "iler": 5625,
  "ĠJerusalem": 10906,
  "Ġaccurate": 10435,
  "aston": 13255,
  "Ġfier": 11416,
  "ious": 866,
  "lear": 1835,
  "Ġceased": 9728,
  "ji": 6993,
  "ological": 2357,
  "ctive": 14615,
  "Ġ136": 14129,
  "usc": 5466,
  "ĠHealth": 8082,
  "Ġ21": 1510,
  "Ġclever": 15071,
  "Ġpossess": 9072,
  "ording": 1228,
  "ĠSc": 910,
  "Ġpeas": 15851,
  "ĠMayor": 10328,
  "Ġmortality": 15856,
  "Ġunsuccessfully": 12589,
  "ĠWell": 6330,
  "Ġrank": 2020,
  "aim": 1278,
  "town": 4461,
  "Ġstruggling": 13665,
  "ĠAlc": 15044,
  "ean": 1448,
  "ĠPersian": 8731,
  "Ġ36": 3016,
  "Ġconcerning": 10994,
  "Ġcounterp": 9943,
  "ĠEastern": 4854,
  "Ġevil": 8461,
  "Ġreaching": 4418,
  "Ġmanip": 10595,
  "ĠEnergy": 11450,
  "Ġchoosing": 14301,
  "ĠArd": 15928,
  "Ġlemur": 14511,
  "Ġspawn": 10962,
  "Ġdynamic": 13371,
  "mill": 13626,
  "Ġspecific": 4039,
  "Ġiron": 4519,
  "Ġkept": 3980,
  "Ġveto": 15381,
  "gus": 11898,
  "ador": 6242,
  "Ġmut": 5624,
  "ĠDaniel": 4831,
  "Ġbill": 2645,
  "tain": 1405,
  "ĠWWF": 13409,
  "Ġfr": 3917,
  "azz": 4821,
  "Ġappeared": 2120,
  "Ġuniform": 7578,
  "Ġsay": 4313,
  "ric": 571,
  "Ġtales": 15335,
  "Ġwatches": 14987,
  "Ġstrange": 12606,
  "iven": 1404,
  "roc": 7758,
  "iar": 10307,
  "ource": 10267,
  "ĠBeth": 11635,
  "ĠPanama": 13770,
  "ĠFre": 4662,
  "Ġmaintains": 13957,
  "Ġretained": 6061,
  "ramid": 13491,
  "ĠAdrian": 13288,
  "fare": 7468,
  "Ġut": 4797,
  "Ġwinds": 2735,
  "Ġexhibit": 11617,
  "ĠBilly": 8829,
  "ĠTake": 11671,
  "agues": 6588,
  "ĠCre": 8000,
  "ĠMalaysia": 10568,
  "Ġofficials": 4337,
  "ĠManager": 14587,
  "Ġstake": 15628,
  "Ġeconom": 2423,
  "kins": 5122,
  "Ġgreat": 1497,
  "Ġinternationally": 12663,
  "ĠBad": 5449,
  "rag": 2634,
  "ĠPrize": 9086,
  "itte": 2496,
  "ĠSm": 1831,
  "Ġreass": 11044,
  "Ġmask": 11827,
  "ĠSyn": 11214,
  "Ġgu": 1117,
  "ĠCec": 14023,
  "Ġsq": 9220,
  "Ġextended": 3310,
  "ĠWelsh": 7011,
  "ĠCavalry": 10865,
  "Ġmeantime": 15633,
  "Like": 12534,
  "vention": 3814,
  "Ġbalance": 8214,
  "Ġpromot": 1943,
  "Ġdefeated": 3000,
  "ĠAF": 15480,
  "Ġfield": 1959,
  "Ġeventual": 11114,
  "Ġattraction": 11909,
  "ined": 1173,
  "ĠLater": 3195,
  "rin": 5269,
  "Ġedge": 5694,
  "arm": 1610,
  "Ġspin": 6471,
  "ĠDick": 7308,
  "math": 6117,
  "Ġobl": 13889,
  "gu": 4756,
  "ago": 2587,
  "Ġfig": 2471,
  "ry": 484,
  "Ġexecut": 8724,
  "Ġ1947": 6512,
  "ĠApoll": 10112,
  "ĠThompson": 7351,
  "Ġchest": 9259,
  "ĠAward": 2779,
  "Ġhybrid": 10008,
  "Ġinning": 11062,
  "ĠProduction": 5419,
  "Ġord": 1801,
  "Ġranges": 9654,
  "Ġsubmarines": 11956,
  "ux": 3797,
  "itor": 2513,
  "ĠLike": 4883,
  "ĠTop": 4570,
  "Ġchanged": 3230,
  "Ġwheel": 8145,
  "Ġparticipate": 7684,
  "ĠKin": 11824,
  "Ġà": 15135,
  "ded": 11466,
  "xide": 13318,
  "Ġ26": 1885,
  "Ġ149": 13597,
  "ĠAntarctic": 15422,
  "isch": 14183,
  "Ġmixture": 11147,
  "ĠDec": 1195,
  "Ġseeing": 7241,
  "Ġinstruments": 7512,
  "ĠRegister": 10778,
  "Ġview": 1461,
  "ĠBase": 5950,
  "icide": 7220,
  "ĠStar": 2389,
  "ca": 6284,
  "gon": 8156,
  "Ġbreaking": 6810,
  "Ġsubstance": 13731,
  "Ġmaintaining": 10409,
  "rent": 1362,
  "Ġ1000": 10668,
  "eller": 4798,
  "Ġed": 1138,
  "Ġsimilar": 1582,
  "ĠOld": 3432,
  "Ġdis": 554,
  "night": 6934,
  "stitute": 3902,
  "Ġchim": 15986,
  "Ġcontinued": 1576,
  "Ġadvised": 10034,
  "Ġwithdrawal": 9562,
  "Ġdemocracy": 14961,
  "Ġsilk": 15342,
  "Ġsignificant": 2089,
  "Ġ110": 6548,
  "ĠMedia": 6725,
  "ĠCabinet": 13075,
  "Ġmotion": 5572,
  "Ġclosure": 11820,
  "Ġfrequently": 4754,
  "oy": 636,
  "Ġclimax": 15519,
  "ĠDra": 7384,
  "awa": 5559,
  "Ġdiscover": 2083,
  "Ġcar": 969,
  "airo": 15619,
  "Ġcostume": 11253,
  "Ġbask": 6190,
  "tes": 10171,
  "eper": 5937,
  "ĠCambridge": 5349,
  "Ġinhabit": 7653,
  "acks": 8259,
  "Ġfashion": 5953,
  "angel": 10018,
  "ĠBorough": 14115,
  "Ġfights": 13209,
  "Ġuniversities": 10970,
  "ĠLay": 14402,
  "ĠMadrid": 13141,
  "Ġbuilding": 1821,
  "Ġmus": 807,
  "han": 3128,
  "hat": 5783,
  "Ġcommenced": 10165,
  "Ġnations": 8322,
  "helm": 7880,
  "Ġcrosses": 7111,
  "Ġsequences": 8531,
  "Th": 3173,
  "Ġgender": 10543,
  "ĠArkansas": 13372,
  "Ġgraduating": 14057,
  "Ġ60": 2776,
  "Ġteachers": 12143,
  "opters": 14087,
  "oint": 3282,
  "ĠSuff": 13652,
  "ia": 437,
  "agle": 6946,
  "ward": 611,
  "ĠGreece": 7705,
  "ĠSer": 2079,
  "Ġsearch": 4319,
  "ĠEagle": 12956,
  "Ġinfluence": 3123,
  "ĠDirect": 4709,
  "ĠKingston": 15494,
  "Ġmemories": 13305,
  "ies": 375,
  "¥": 106,
  "Ġinitiative": 12383,
  "Ġhome": 1382,
  "Ġallow": 1283,
  "Ġmult": 2374,
  "ĠProductions": 13651,
  "Ġash": 7131,
  "Ġlie": 10020,
  "Ġsemif": 14951,
  "Ġconvinc": 14187,
  "The": 512,
  "ead": 1552,
  "iness": 1837,
  "ĠMega": 12778,
  "ra": 338,
  "Ġcentres": 13834,
  "ı": 194,
  "mm": 13661,
  "lock": 7707,
  "inea": 8548,
  "ĠBank": 5695,
  "ĠChop": 13990,
  "abor": 2043,
  "ĠSpec": 4273,
  "iss": 671,
  "ficult": 2279,
  "Ġemb": 3346,
  "ĠParliament": 4073,
  "Ġrated": 5540,
  "Ġshots": 6706,
  "waffe": 12747,
  "ael": 1951,
  "Ġcelebrated": 9408,
  "Ġcomposed": 3483,
  "Ġkill": 1373,
  "ĠPennsylvania": 5004,
  "Ġcourage": 14104,
  "ĠMet": 2612,
  "ubl": 692,
  "Ġharm": 5533,
  "Ġ40": 1883,
  "Ġvers": 1307,
  "ĠHolden": 15520,
  "ĠNear": 9340,
  "ĠShel": 8392,
  "ĠRand": 8286,
  "Ġbenefit": 8155,
  "ĠDE": 7089,
  "Ġinferior": 15605,
  "ĠTol": 9634,
  "ram": 902,
  "wan": 6612,
  "meric": 754,
  "Ġhaun": 15417,
  "ĠWales": 3738,
  "Ġmeanwhile": 15632,
  "Ġfiled": 8526,
  "Ġread": 1840,
  "Ġdisgu": 13345,
  "Ġremov": 2583,
  "Ġzone": 6480,
  "antic": 2420,
  "ĠYear": 3579,
  "Ġ148": 14018,
  "Ġsad": 9222,
  "Ġrum": 7277,
  "Ġpointed": 7579,
  "Ġmart": 7735,
  "Ġtimber": 11528,
  "ĠHorn": 7810,
  "ĠMike": 5073,
  "Ġprot": 1368,
  "Ġesc": 2222,
  "ovo": 13833,
  "ĠGates": 11754,
  "ĠSweet": 10303,
  "Ġnominations": 8888,
  "Ġdream": 6865,
  "atched": 10839,
  "ĠBrooklyn": 11878,
  "Ġhere": 4617,
  "ĠAuthority": 10451,
  "Ġdepending": 8730,
  "Ġforming": 7096,
  "Ġwrong": 7077,
  "ĠCricket": 10056,
  "ĠRus": 11991,
  "Ġhum": 1585,
  "ages": 1369,
  "ĠBl": 1047,
  "Ġkeyboards": 14599,
  "Ġcontroll": 8438,
  "ĠAst": 6476,
  "Ġembr": 10639,
  "Ġ1998": 3200,
  "Ġcoal": 5018,
  ")": 16,
  "Ġvirtual": 15940,
  "Ġassistance": 6744,
  "Ġweapon": 7078,
  "Ġnative": 4921,
  "tic": 7344,
  "Ġfootball": 2769,
  "Ġreinforced": 10212,
  "ll": 837,
  "Ġmot": 2249,
  "Ġbudget": 5142,
  "ĠMar": 682,
  "ĠSussex": 14352,
  "Ġwa": 4198,
  "Ġwhom": 2884,
  "Ġ1936": 6350,
  "imes": 1044,
  "Ġcarn": 14165,
  "Ġterrain": 9839,
  "ĠProf": 6364,
  "Ġparks": 10102,
  "ĠHowe": 10051,
  "Ġbr": 3142,
  "Ġcredited": 6018,
  "Ġloc": 852,
  "Ġholds": 7316,
  "ĠSponge": 13682,
  "Ġcheap": 14977,
  "Ġprimary": 3680,
  "Ġ1860": 9560,
  "Ġcontacted": 11640,
  "Ġcommunication": 8655,
  "oons": 9273,
  "Ġlin": 9348,
  "Ġes": 14077,
  "Ġinvented": 13532,
  "ĠMan": 1577,
  "Ġadministration": 5139,
  "ĠChina": 3422,
  "ĠRAAF": 7453,
  "ĠIll": 4625,
  "onscious": 15004,
  "ĠStarr": 14150,
  "ol": 287,
  "ĠLarry": 10573,
  "ception": 8433,
  "aurus": 13048,
  "Ġconsiderably": 10965,
  "Ġtogether": 2183,
  "Ġlayer": 9000,
  "ĠArticle": 14356,
  "Ġloyal": 7221,
  "Ġpeoples": 12307,
  "Ġexpensive": 8604,
  "Ġtargeted": 11977,
  "ĠConf": 4430,
  "ĠVenus": 14381,
  "Ġhomage": 14888,
  "Ġtherefore": 4742,
  "Ġunlike": 8178,
  "Ġfragment": 14172,
  "Ġobserved": 4167,
  "gate": 8576,
  "ĠSpot": 15723,
  "ĠCathedral": 10526,
  "Ġcorrect": 6325,
  "ners": 4719,
  "Ġpublisher": 7745,
  "ĠMcC": 2708,
  "ĠPrinc": 5813,
  "Ġorganised": 9293,
  "Ġsophistic": 14145,
  "²": 118,
  "Ġcost": 2056,
  "ĠChief": 4200,
  "ĠMcKin": 10672,
  "ÃŃa": 11109,
  "Ġstruct": 2060,
  "Ġbeam": 9598,
  "Ġdead": 3277,
  "ĠO": 367,
  "isons": 10718,
  "Ġflight": 3491,
  "Ġmid": 1532,
  "Ġec": 6290,
  "Ġcomparison": 8697,
  "ĠArch": 3635,
  "Ġmetre": 11662,
  "Ġconcluding": 14877,
  "Ġcreative": 8091,
  "Ġangry": 11536,
  "Ġaside": 11503,
  "ift": 3158,
  "Ġsquadron": 4989,
  "Ġcurved": 12224,
  "Ġcrit": 1067,
  "ourag": 11116,
  "ĠForeign": 9526,
  "Ġempire": 9817,
  "Ġpo": 1285,
  "Ġglob": 5219,
  "Ġpicked": 7789,
  "Ġhanging": 14629,
  "Ġfavored": 12102,
  "Ġposthum": 12839,
  "rif": 5245,
  "Ġrise": 5517,
  "Ġclothing": 9212,
  "Ġdrives": 14139,
  "Ġintellectual": 11376,
  "ĠFred": 4334,
  "hm": 14929,
  "ĠManc": 4034,
  "ĠPink": 9974,
  "asp": 11277,
  "Ġcricket": 5496,
  "ĠTimes": 2836,
  "Ġ2010": 1501,
  "ĠVir": 2408,
  "ĠKann": 15020,
  "Ġstring": 8035,
  "ĠAnders": 15366,
  "Ġequivalent": 6484,
  "Ġfavourable": 15567,
  "Ġyellow": 5172,
  "Ġcm": 3343,
  "ieth": 9636,
  "ĠCoul": 15039,
  "Ġeventually": 2165,
  "ĠMarshal": 11753,
  "Ġtarget": 4245,
  "ĠIs": 1148,
  "Ġmatch": 1499,
  "Ġfunk": 15049,
  "Ġunus": 5424,
  "ories": 1755,
  "Ġfoss": 6652,
  "ĠAdminist": 8251,
  "Ġelect": 1360,
  "zer": 5288,
  "ĠWeb": 6929,
  "Ġcatch": 6095,
  "Ġopponent": 8333,
  "Ġbreeding": 6311,
  "Ġcenter": 2913,
  "port": 539,
  "Ġbright": 7217,
  "ĠOrton": 11955,
  "TW": 9052,
  "ĠHop": 7233,
  "rol": 3382,
  "ĠEventually": 9700,
  "Ġinduced": 15934,
  "Ġcomfortable": 13930,
  "ĠBay": 2699,
  "Ġfaculty": 11886,
  "Ġ1990": 2783,
  "Ġtrue": 4484,
  "ĠHammond": 14749,
  "ĠName": 15433,
  "Ġsuccessive": 13167,
  "Ġgrad": 2490,
  "Ġbeh": 1602,
  "Ġeffectively": 6824,
  "entry": 15572,
  "enez": 15257,
  "[": 66,
  "Ġteen": 7029,
  "Ġkills": 10501,
  "Ġnew": 656,
  "Ġ114": 11240,
  "ention": 1765,
  "aki": 6357,
  "Ġda": 11447,
  "Ġmil": 1097,
  "Ġ69": 5989,
  "ĠKings": 8494,
  "ĠGa": 10560,
  "aus": 670,
  "Ġhair": 5565,
  "Ġperforming": 5439,
  "rez": 13335,
  "Ġending": 3965,
  "ĠHockey": 8175,
  "lig": 6749,
  "Ġpass": 1053,
  "Ġnet": 9401,
  "ĠTas": 12419,
  "ĠGameplay": 14978,
  "Ġ1903": 8925,
  "Ġraised": 3503,
  "Ġenable": 13947,
  "Ġinternet": 13836,
  "Ġammunition": 8403,
  "ë": 171,
  "Ġconcert": 3913,
  "ĠLex": 9196,
  "iting": 2013,
  "Ġcollaboration": 8430,
  "Ġreconst": 8004,
  "Ġ1887": 11783,
  "Ġinterviews": 10378,
  "ĠTigers": 11986,
  "orious": 8207,
  "Ġcompletely": 4308,
  "Ġhoped": 6989,
  "ĠGeorge": 2105,
  "ĠBor": 5017,
  "ĠRS": 15379,
  "ĠProtest": 9922,
  "Ġaveraged": 12805,
  "ĠRevolutionary": 11870,
  "Ġresc": 4600,
  "isphere": 13564,
  "Ġabilities": 8268,
  "Ġformerly": 7448,
  "ĠDirector": 6533,
  "ĠRovers": 15173,
  "Ġnewsp": 3690,
  "ologically": 13100,
  "ĠDemocrats": 9748,
  "Ġtwentieth": 13006,
  "Ġquite": 5379,
  "ĠQueens": 7704,
  "Ġpure": 7017,
  "reet": 1599,
  "Ġpurch": 3180,
  "Ġcomedy": 5273,
  "ĠSociety": 4080,
  "Ġbones": 9470,
  "Ġunpopular": 14224,
  "ĠIS": 4944,
  "Ġfrom": 358,
  "Music": 10826,
  "ĠRon": 6037,
  "Ġprofits": 14220,
  "Ġneighborhood": 8030,
  "ĠAw": 14644,
  "ĠBol": 6874,
  "Ġpair": 3914,
  "Ġviews": 5884,
  "Ġdifference": 7551,
  "Ġsummer": 3070,
  "Ġtravel": 2567,
  "Ġterror": 8611,
  "Ġspending": 7902,
  "ĠJackson": 3138,
  "ĠCemetery": 10983,
  "ĠInn": 9152,
  "uck": 1750,
  "ĠCEO": 12116,
  "ĠCommunist": 9923,
  "ook": 743,
  "anche": 10617,
  "Ġreve": 2346,
  "CC": 8458,
  "Ġinvestigating": 15576,
  "var": 11085,
  "Ġaffili": 8550,
  "Ġlat": 7088,
  "arts": 5272,
  "«": 112,
  "omers": 4768,
  "ĠLake": 3350,
  "Ġoptim": 12246,
  "ĠBy": 1377,
  "Ġaccordance": 14462,
  "unta": 15977,
  "Ġexhaust": 14050,
  "ĠPowell": 12570,
  "pow": 13720,
  "Ġlimestone": 14597,
  "ronze": 7265,
  "Ġ900": 7357,
  "em": 320,
  "oli": 6034,
  "ĠYe": 8787,
  "den": 2167,
  "Ġeach": 1193,
  "Ġkick": 5001,
  "bourne": 6289,
  "ĠFreder": 6778,
  "Ġattractive": 13730,
  "rong": 4133,
  "iah": 11456,
  "ĠDal": 8409,
  "ĠOhio": 5265,
  "Ġsensitive": 12374,
  "Ġslave": 9843,
  "Ġbond": 9705,
  "Ġseven": 2061,
  "Ġ\"": 261,
  "Ġaffair": 8502,
  "ĠAlex": 2778,
  "ĠCentury": 10986,
  "Ġwatching": 7602,
  "hes": 805,
  "Ġjustice": 9054,
  "etta": 11468,
  "Ġscout": 12290,
  "Ġputs": 13618,
  "Ġ83": 7363,
  "Two": 10512,
  "ĠNorton": 15079,
  "Ġcod": 8636,
  "Ġa": 215,
  "to": 2317,
  "Ġbeautiful": 8294,
  "Ġsubsidi": 13431,
  "4": 27,
  "Ġdrugs": 8995,
  "ĠJets": 15825,
  "Ġ1874": 13749,
  "Ġretirement": 7296,
  "Ġreminiscent": 13110,
  "Ġinteresting": 8300,
  "Ġlov": 5873,
  "Ġcoffee": 14263,
  "ĠPhillies": 12064,
  "Ġfatalities": 13607,
  "Ġeasily": 5938,
  "Most": 9551,
  "uate": 5187,
  "ĠSpring": 5903,
  "ĠBald": 10256,
  "ienced": 5108,
  "Ġtreat": 2695,
  "Ġfulf": 10204,
  "ĠBru": 5355,
  "Ġdemolished": 9160,
  "ĠVII": 6420,
  "Ġstern": 11595,
  "Ġdepr": 15493,
  "ĠWhite": 2692,
  "Ġfeature": 3246,
  "Ġmountain": 5626,
  "ĠSavage": 15474,
  "ĠFranco": 13389,
  "Ġupgrade": 13934,
  "original": 15626,
  "ĠConstantin": 10580,
  "Ġdoctrine": 12501,
  "Ġincre": 1315,
  "Ġknock": 14108,
  "istic": 2304,
  "Ġreapp": 15463,
  "Ġmodifications": 13874,
  "Ġpoet": 4634,
  "Ġcoupled": 14552,
  "Ġcomplained": 10733,
  "Ġproc": 15897,
  "Ġrot": 5541,
  "olds": 10066,
  "ĠAj": 15347,
  "Ġadvoc": 8301,
  "ĠDragon": 8784,
  "ĠThen": 8221,
  "Ġrainfall": 4771,
  "Ġassumed": 6628,
  "ĠOrchestra": 11512,
  "Ġtransmission": 12392,
  "Ġ105": 8222,
  "Ġdec": 684,
  "Ġpilot": 4311,
  "ĠJoyce": 15008,
  "eda": 11965,
  "ĠComp": 1947,
  "ĠFitz": 10931,
  "ĠBut": 2670,
  "ĠQu": 2200,
  "rock": 14155,
  "ĠGÃ¶": 15938,
  "Ġdoors": 11038,
  "Ġproof": 10699,
  "Ġdays": 1531,
  "ĠTenn": 6825,
  "ties": 3129,
  "bert": 2194,
  "Ġ330": 15496,
  "Ġcool": 5698,
  "Ġtotally": 13527,
  "ĠKath": 14896,
  "Ġpictures": 9797,
  "Ġincorporate": 14092,
  "ĠMVP": 13103,
  "Ġcritically": 12343,
  "Ġprinc": 13767,
  "inet": 4122,
  "ĠPend": 14743,
  "ĠOverall": 10550,
  "Ġwife": 2436,
  "ĠElect": 5255,
  "ĠFinnish": 13867,
  "ption": 1538,
  "ĠRever": 14666,
  "Ġparish": 8393,
  "Ġpole": 9962,
  "Ġboot": 10690,
  "Ġ1877": 12103,
  "ĠHamb": 13710,
  "ĠIII": 3520,
  "lain": 9112,
  "Ġlobby": 13822,
  "agi": 12454,
  "ĠIron": 7099,
  "Ġbirds": 4744,
  "ĠPlan": 5952,
  "Ġpublish": 13353,
  "Ġencl": 9341,
  "ĠRepublic": 2602,
  "Ġinterests": 7138,
  "Ġcareer": 1628,
  "pling": 15650,
  "Ġ+": 3895,
  "ĠJer": 4164,
  "ĠMontgomery": 11119,
  "ĠStone": 4061,
  "Ġsulf": 11959,
  "ubbard": 11983,
  "arest": 11173,
  "acular": 11893,
  "Ġph": 1059,
  "Ġgap": 8698,
  "TV": 4370,
  "Ã©": 1105,
  "Ġlive": 2284,
  "Ġaccident": 4772,
  "ĠCommodore": 15842,
  "Ġfitted": 7252,
  "ves": 1517,
  "Ġglac": 9522,
  "Ġaware": 8058,
  "ĠRap": 8420,
  "iary": 13350,
  "Ġscored": 2341,
  "ĠTNA": 9727,
  "ĠPier": 6735,
  "Ġrespond": 4146,
  "Ġtenth": 7999,
  "Ġshort": 1338,
  "Ġsacred": 14082,
  "ĠRetrieved": 10773,
  "Ġoperators": 15195,
  "aining": 1711,
  "ĠGames": 4074,
  "Ġdefinitely": 14142,
  "iat": 6236,
  "ĠParty": 3139,
  "Ġprobably": 3296,
  "ĠPersonnel": 12896,
  "ĠMinnes": 8073,
  "medi": 2295,
  "z": 97,
  "ĠShawn": 15068,
  "Ġinterpretation": 9192,
  "gal": 5932,
  "ĠClar": 9106,
  "Ġpup": 6597,
  "Ġamongst": 8626,
  "Ġcontains": 3522,
  "Ġpackage": 13759,
  "Ġtag": 8668,
  "Ġconfirmed": 4414,
  "Ġteenage": 14447,
  "ĠPolish": 4818,
  "issions": 8583,
  "Ġ210": 13640,
  "uda": 7827,
  "Ġopined": 12238,
  "itating": 14473,
  "ales": 1299,
  "aton": 12182,
  "riet": 15147,
  "ld": 368,
  "ĠWrestleMania": 15874,
  "Ġcomprised": 12774,
  "ĠCrown": 8010,
  "Ġsm": 1005,
  "Ġfacility": 7285,
  "ĠArchbishop": 11670,
  "ixon": 7347,
  "Ġexpanded": 5192,
  "Ġestablished": 2112,
  "William": 14767,
  "Ġperformer": 14874,
  "Ġdisliked": 13148,
  "Ġex": 391,
  "yon": 4501,
  "Ġinteg": 7039,
  "Ġdesert": 9586,
  "Ġexercise": 9624,
  "Ġparts": 2804,
  "Ġexped": 4616,
  "ĠMuseum": 4343,
  "Ġsubmitted": 8332,
  "Ġcontrols": 8802,
  "Ġthrough": 741,
  "Ġsalt": 9211,
  "ĠPap": 9612,
  "Ġ163": 10013,
  "ĠYu": 14329,
  "ĠKit": 9428,
  "Ġlocked": 14579,
  "Ġconcepts": 11859,
  "empl": 14831,
  "Ġchannels": 12786,
  "ĠVoice": 11435,
  "Ġbecomes": 4104,
  "aru": 14529,
  "Ġnorth": 1168,
  "how": 13541,
  "ĠWinter": 7232,
  "etwork": 2702,
  "oma": 5186,
  "Ġbelieve": 5063,
  "ĠCare": 3813,
  "Ġmonuments": 14839,
  "ielder": 11473,
  "Ġextinct": 10297,
  "Ġsoph": 10091,
  "Ġequipped": 6351,
  "ĠMul": 5214,
  "Ġexhib": 4106,
  "Ġbend": 14166,
  "Ġrepet": 12709,
  "Ġ63": 6007,
  "esses": 13178,
  "ĠSquadron": 3492,
  "pes": 14432,
  "Ġlandscape": 9546,
  "Ġoccupation": 8171,
  "Ġroots": 9076,
  "ĠCounty": 1986,
  "ĠThird": 6751,
  "aline": 15511,
  "Ġproductions": 9687,
  "Ġseventeen": 14760,
  "rad": 1182,
  "Ġnortheast": 4366,
  "Ġanch": 8528,
  "Ph": 9695,
  "ĠRhine": 15297,
  "bo": 1641,
  "ĠTank": 15615,
  "Ġoriented": 10742,
  "Ġcreating": 5014,
  "Ġ117": 11146,
  "Ġemotions": 12894,
  "Ġdevelopment": 1865,
  "ĠBefore": 5276,
  "ĠMichael": 2337,
  "Ġincreasingly": 5931,
  "Ġconfron": 9386,
  "Ġidentify": 9444,
  "pool": 4606,
  "RC": 12485,
  "Ġmixed": 3351,
  "Ġdoor": 6410,
  "ĠPorter": 14400,
  "Ġintelligence": 6487,
  "onian": 9964,
  "Ġnext": 1457,
  "Ġtack": 8958,
  "ess": 399,
  "ĠTourn": 11230,
  "Ġadding": 5839,
  "Ġprotest": 8005,
  "Ġpoems": 8819,
  "ĠPa": 9584,
  "Ġlocate": 14192,
  "Ġthunder": 10400,
  "Ġreh": 12434,
  "ĠSimon": 6544,
  "ont": 1386,
  "ĠHindi": 15990,
  "Ġboost": 11642,
  "ste": 3517,
  "Ġbrigades": 14086,
  "pered": 15328,
  "ĠTurkey": 11237,
  "Ġactual": 6338,
  "Ġdeparture": 6590,
  "ĠRalph": 10151,
  "agre": 7137,
  "Ġinjury": 4593,
  "Ġiss": 1454,
  "Ġhundred": 4070,
  "canal": 14294,
  "Ġrealizes": 13684,
  "ĠAut": 4528,
  "Ġmonarchy": 14174,
  "Ġurg": 10967,
  "tha": 9073,
  "ĠExecutive": 11228,
  "ĠToy": 11329,
  "Ġencompass": 12239,
  "Ġcloser": 7455,
  "roe": 11287,
  "iana": 5083,
  "Ġtrade": 3683,
  "Ġtries": 7090,
  "Ġappreciated": 13923,
  "ĠChampionships": 7861,
  "ĠRem": 6203,
  "Ġdischar": 10280,
  "Ġhighest": 2584,
  "Ġcapable": 6285,
  "ĠWeekly": 6627,
  "Ġbreed": 3353,
  "Ġdent": 15361,
  "Ġaccomp": 7644,
  "ost": 434,
  "ĠMust": 10117,
  "ez": 6382,
  "igen": 7717,
  "Ġlux": 13529,
  "ĠPri": 3478,
  "ĠPrison": 13344,
  "Ġrewrit": 14532,
  "ĠRo": 3221,
  "ĠLight": 4553,
  "Ġactress": 5776,
  "Ġmeter": 9392,
  "Ġunn": 7865,
  "Ġbishop": 9755,
  "ĠMount": 3056,
  "ĠJu": 1140,
  "ĠSolomon": 14054,
  "rooms": 10227,
  "azon": 14706,
  "agara": 15868,
  "Ġdeleg": 6623,
  "Ġputting": 9530,
  "Ġrail": 2457,
  "Ġdevelopments": 11534,
  "Ġmerely": 9404,
  "Ġrule": 4087,
  "Ġdism": 3932,
  "Ġwon": 1367,
  "Ġmarketing": 9141,
  "Ġ1864": 11333,
  "Ġ158": 10609,
  "Ġincorpor": 3991,
  "ĠUnit": 12461,
  "ĠSam": 2764,
  "Ġtowers": 10504,
  "attle": 5236,
  "ĠLiz": 8949,
  "Ġproduces": 11414,
  "ĠClarke": 10592,
  "Ġrifle": 13194,
  "omin": 1420,
  "Ġpaintings": 8135,
  "Ġgold": 2889,
  "load": 4303,
  "Ġtie": 7825,
  "Ġ1957": 6575,
  "Ġexposure": 9540,
  "ulation": 1537,
  "Ġposter": 12255,
  "Ġargue": 12572,
  "ĠCommerc": 13313,
  "Ġmanif": 10801,
  "ĠCompany": 2794,
  "achusetts": 5915,
  "ĠRoom": 11616,
  "ak": 386,
  "Ġowing": 12965,
  "Ġholiday": 10811,
  "Ġ44": 4253,
  "ĠPhilos": 15724,
  "io": 810,
  "illy": 4802,
  "ĠVic": 12707,
  "Ġfung": 8083,
  "ĠKenny": 14484,
  "ĠKentucky": 5854,
  "ĠElliott": 15240,
  "ĠJust": 3197,
  "Ġboys": 7966,
  "DI": 9357,
  "Ġearliest": 6048,
  "Ġthrone": 7211,
  "ĠOp": 8070,
  "Ġaliens": 15175,
  "Ġmans": 10401,
  "ĠMethod": 12803,
  "ĠGran": 11366,
  "Ġvisual": 5613,
  "Ġpul": 5984,
  "ĠMcDonald": 13520,
  "Ġtemper": 3257,
  "ĠJama": 9955,
  "ĠAmericans": 4378,
  "ĠPy": 9984,
  "Ġresponses": 15094,
  "Ġcele": 3378,
  "ĠNap": 5841,
  "ĠFergus": 13426,
  "ira": 5598,
  "ceed": 2266,
  "pat": 13457,
  "ĠTravel": 14609,
  "ĠSed": 13970,
  "ĠSwitzerland": 8906,
  "ĠTucker": 12953,
  "itudes": 9382,
  "ĠBab": 5067,
  "Ġowners": 7490,
  "ogical": 13490,
  "UC": 13997,
  "Ġislands": 5289,
  "Ġcoinc": 8989,
  "Ġupset": 10508,
  "gh": 397,
  "Ġinland": 8822,
  "Ġremark": 4804,
  "Ġinstance": 7610,
  "Ġmechanism": 11504,
  "Ġopportunities": 10148,
  "ĠRang": 7258,
  "Ġranging": 8805,
  "Ġconstant": 7336,
  "ht": 12508,
  "Ġintervention": 10410,
  "Ġbound": 4297,
  "Ġcurric": 15600,
  "ĠAbu": 11169,
  "Ġticket": 9693,
  "Ġappropri": 7091,
  "Rec": 13111,
  "Ġbelieved": 2476,
  "ĠLuis": 15025,
  "Ġprecipitation": 9948,
  "ound": 568,
  "Ġ1945": 4323,
  "Ġsh": 401,
  "Ġstanding": 5341,
  "Ġswitch": 9453,
  "Ġdict": 9946,
  "Ġ#": 5461,
  "Ġaudience": 3672,
  "ĠSin": 8966,
  "Ġ01": 9077,
  "Ġseriously": 8970,
  "Ġcauses": 6257,
  "Ġstud": 948,
  "ĠTransport": 6506,
  "Ġbest": 1422,
  "ĠMeanwhile": 6216,
  "ĠRet": 4724,
  "ĠRIAA": 14762,
  "Ġadmits": 15653,
  "Ġindic": 2539,
  "Ġradius": 12237,
  "iva": 6676,
  "Ġnetworks": 12449,
  "Ġfreestyle": 15815,
  "alth": 1879,
  "ometric": 10837,
  "ĠVoy": 12592,
  "Ġliqu": 7767,
  "Ġpowered": 8097,
  "Ġdispatched": 12586,
  "Ġ1946": 5842,
  "ĠThus": 7435,
  "Ġregulations": 11811,
  "á»ĩm": 15186,
  "Ġgoals": 3341,
  "ebe": 13596,
  "ĠSpect": 14550,
  "8": 31,
  "Ġpra": 1942,
  "Ġpar": 1441,
  "Ġdeparted": 7686,
  "ĠNether": 6444,
  "Ġbusinessman": 15078,
  "opl": 15364,
  "Ġflo": 6672,
  "Ġaccord": 10242,
  "Ġnucle": 8612,
  "ĠBatman": 7450,
  "Ġrece": 877,
  "Ġfrontier": 14118,
  "ib": 588,
  "avian": 12111,
  "soft": 9547,
  "Ġunity": 15177,
  "ĠSeason": 9873,
  "ava": 5504,
  "Ġlim": 1851,
  "ĠAviation": 13336,
  "Ġwore": 8598,
  "onsin": 10752,
  "Ġtoday": 4272,
  "Ġshipping": 9080,
  "Ġdivisions": 6908,
  "Ġgives": 5249,
  "Ġminutes": 2570,
  "Ġput": 2037,
  "ĠMeyer": 13171,
  "Ġwaterline": 14038,
  "Ġtrigg": 15734,
  "we": 610,
  "ĠTamil": 8751,
  "ĠLev": 11401,
  "ĠBackground": 4782,
  "ĠRoy": 6153,
  "Ġmembers": 1483,
  "Ġkey": 3017,
  "Ġdefences": 9280,
  "Ġpersuaded": 10678,
  "uma": 8608,
  "Ġstar": 1905,
  "Ġsets": 5304,
  "Ġindicated": 6110,
  "alle": 4176,
  "ĠAllied": 4901,
  "ĠGro": 2448,
  "Ġbuy": 7365,
  "ĠBul": 5144,
  "hl": 11538,
  "Ġinitiated": 9402,
  "Ġsold": 1507,
  "legiate": 13783,
  "Ġfoundation": 8293,
  "Ġpersuade": 15261,
  "ĠSir": 3651,
  "ĠCastro": 14556,
  "ĠJupiter": 9618,
  "ĠNass": 12242,
  "Ġtem": 1735,
  "ĠCase": 11516,
  "Ġgain": 5667,
  "Ġremix": 6500,
  "Ġquestioned": 9756,
  "ology": 1592,
  "ipel": 14453,
  "ĠMarch": 1270,
  "eare": 8343,
  "Ġwed": 6639,
  "Ġtheir": 488,
  "ĠHod": 15733,
  "Ġcommander": 3743,
  "ĠConvention": 9741,
  "ĠOklahoma": 9006,
  "rence": 5685,
  "Ġacts": 6184,
  "vor": 12206,
  "ÅĤaw": 14953,
  "Ġcirc": 2047,
  "ĠTrin": 15411,
  "ĠJennings": 14302,
  "ĠMalays": 7848,
  "ĠPenn": 3697,
  "ĠPruss": 9387,
  "ĠTok": 7359,
  "ĠVilla": 11774,
  "ĠJoint": 11385,
  "acon": 8785,
  "rene": 11033,
  "eto": 9995,
  "Ġbal": 4830,
  "Ġ166": 9174,
  "ĠCode": 11222,
  "Ġundertook": 12809,
  "Ġfootage": 7634,
  "Ġapply": 11070,
  "hest": 1277,
  "Ġtechnical": 6896,
  "ĠDead": 8099,
  "Ġeffects": 3053,
  "ĠDoug": 14105,
  "Ġease": 13952,
  "Ġnumer": 15881,
  "ĠDuchovny": 15911,
  "Ġfilmm": 10433,
  "und": 426,
  "ĠGrand": 2938,
  "ĠMontreal": 8580,
  "Ġterritory": 4728,
  "ylvan": 4352,
  "Ġabout": 715,
  "Ġuseful": 8870,
  "ĠLegisl": 11041,
  "Ġrivals": 10909,
  "ridges": 6335,
  "Ġcontrovers": 3855,
  "Ġchain": 7631,
  "ĠAA": 10781,
  "ifer": 8009,
  "ĠBobby": 9502,
  "erver": 10539,
  "Ġregularly": 6844,
  "Ġ113": 10636,
  "ĠDefense": 10408,
  "Ġ121": 15771,
  "Ġ1961": 6428,
  "ħ": 184,
  "aud": 8298,
  "Ġmostly": 3263,
  "ĠShak": 5658,
  "Ġhard": 2588,
  "Ġmal": 9511,
  "Ġyour": 4102,
  "Ġhabitats": 12823,
  "Ġoptions": 10982,
  "ubs": 12228,
  "hell": 10127,
  "ĠMod": 4428,
  "its": 913,
  "Ġhorror": 8640,
  "Ġcaptive": 15695,
  "Ġspecies": 1460,
  "Ġmetres": 4099,
  "ĠMus": 1424,
  "lim": 15991,
  "ĠIndiana": 6549,
  "aird": 15255,
  "utton": 10340,
  "ĠPortsmouth": 14805,
  "bes": 9970,
  "Ġwind": 1562,
  "ãĥ¼": 14536,
  "ear": 398,
  "Ġterrit": 3130,
  "Ġcash": 11436,
  "Ġaffiliated": 15664,
  "ohl": 15922,
  "Ġmainly": 4328,
  "igious": 11262,
  "Ġremembered": 11209,
  "aneous": 11801,
  "Ġpublishing": 9420,
  "itable": 4535,
  "Ġemotion": 10537,
  "ensively": 9323,
  "Ġquantity": 15198,
  "Ġtourist": 12063,
  "ĠInc": 5820,
  "apore": 5388,
  "ĠHungary": 8062,
  "ysis": 4477,
  "ĠTrans": 3457,
  "Ġwealth": 5951,
  "arent": 3239,
  "yl": 1400,
  "Ġresponsibilities": 15258,
  "ĠShortly": 7268,
  "Ġrepeat": 14334,
  "Ġlo": 3021,
  "Ġveteran": 11155,
  "ract": 1581,
  "ĠERA": 11491,
  "Ġrandom": 11324,
  "Ġbehavior": 6711,
  "ittee": 2710,
  "NA": 3075,
  "Ġchlor": 13026,
  "ĠBask": 11179,
  "Ġlimited": 3057,
  "Ġwant": 1741,
  "Ġpush": 9801,
  "Ġwoodland": 15037,
  "ĠCran": 15791,
  "Ġri": 3789,
  "itan": 4288,
  "ism": 1017,
  "ĠOrgan": 7730,
  "Ġ1924": 7871,
  "Ġguided": 14586,
  "Ġdollar": 9005,
  "Ġimplement": 6150,
  "Ġlifestyle": 13827,
  "Ġwhole": 3573,
  "Ġvast": 8923,
  "Ġ1913": 7264,
  "ĠHD": 10544,
  "ĠStewie": 15923,
  "ĠIre": 4410,
  "gro": 8615,
  "Ġtalk": 3698,
  "ĠCompton": 15471,
  "Ġattract": 4692,
  "Ġlet": 2068,
  "ĠCrime": 14419,
  "Ġrepresent": 1891,
  "Ġsubstant": 5719,
  "ĠFem": 9091,
  "ĠHouse": 2202,
  "Ġfamous": 5059,
  "ĠSter": 14643,
  "ĠYugoslavia": 11715,
  "uge": 4279,
  "Ġfighters": 7981,
  "Ġscreened": 15249,
  "uates": 14215,
  "Ö": 152,
  "Ġnickname": 11365,
  "Ġvol": 2062,
  "urt": 3336,
  "GB": 12683,
  "ĠSnake": 15331,
  "Ġspac": 9610,
  "ellar": 11048,
  "ĠOxford": 4215,
  "ĠNFL": 7177,
  "Ġaccomplished": 12210,
  "Ġsupple": 9448,
  "Ġabsolutely": 14460,
  "Ġbegun": 6760,
  "ources": 6001,
  "Ġarmed": 5138,
  "Ġbrain": 6898,
  "set": 5169,
  "Ġbinding": 14965,
  "ĠMedical": 10083,
  "Ġ1889": 10614,
  "ĠChristopher": 8356,
  "Ġ450": 11264,
  "ĠImpact": 9262,
  "ĠArthur": 5261,
  "Ġtopics": 14229,
  "Ġconsideration": 12395,
  "ss": 713,
  "Ġelections": 7284,
  "Ġ@-@": 291,
  "Ġextra": 4530,
  "earch": 2314,
  "Ġaltered": 9246,
  "ĠRod": 4898,
  "Ġlog": 4155,
  "gend": 4840,
  "Ġcopyright": 13613,
  "Ġtype": 3048,
  "Sh": 7009,
  "osm": 9227,
  "Ġrab": 12016,
  "lett": 11994,
  "Ġno": 881,
  "`": 71,
  "hus": 6436,
  "ĠTechn": 7035,
  "ĠKub": 13616,
  "aun": 1784,
  "Ġcombat": 3850,
  "Ġham": 6511,
  "Ġgenus": 5300,
  "Ġirre": 15160,
  "Ġprocedures": 14267,
  "Ġfavor": 3204,
  "Ġunderstood": 9963,
  "ĠLois": 14869,
  "Ġkingdom": 6281,
  "ĠApp": 3367,
  "ĠRob": 3023,
  "liam": 2948,
  "Ġfrigate": 12622,
  "Ġfoundations": 15213,
  "ares": 3790,
  "Ġset": 870,
  "ĠAmb": 10824,
  "omon": 11938,
  "music": 11804,
  "Ġsolid": 6402,
  "Ġcameo": 12781,
  "Ġveter": 7483,
  "ĠLost": 9241,
  "Ġmother": 2372,
  "rew": 1496,
  "Ġrevenge": 12249,
  "Ġ34": 3525,
  "Ġsed": 7207,
  "Ġprocess": 2042,
  "Ġlift": 11002,
  "Ġlargely": 3638,
  "Ġlesser": 12311,
  "Ġfrustrated": 15088,
  "Ġphil": 4888,
  "Ġexception": 6772,
  "ĠMichelle": 14423,
  "Ġaffect": 9093,
  "onium": 9556,
  "Ġnetwork": 3369,
  "Ġmerchants": 13714,
  "GM": 12268,
  "ĠJapanese": 1997,
  "Ex": 12916,
  "Ġimprove": 5994,
  "day": 2150,
  "Ġbu": 776,
  "Ġcoverage": 8647,
  "Ġwould": 601,
  "Ġnuclear": 5262,
  "hester": 2856,
  "be": 2971,
  "Ġpowerful": 4256,
  "Ġoutput": 9304,
  "ker": 5495,
  "ĠWilliam": 1564,
  "Ġexec": 4660,
  "ĠUE": 9045,
  "Ġdismissed": 7141,
  "Prior": 13780,
  "Ġagainst": 857,
  "Ġw": 224,
  "Ġdevast": 9860,
  "ormal": 15382,
  "ĠMassachusetts": 5936,
  "Ġ184": 3147,
  "Ġdrawings": 14814,
  "Ġrelatively": 4150,
  "Ġeveryone": 7304,
  "Ġfindings": 11934,
  "ori": 8501,
  "Ġfestival": 7476,
  "Ġvel": 8845,
  "Ġ1997": 3334,
  "ĠMor": 2014,
  "Ġrefusal": 15682,
  "Ġrig": 8589,
  "ĠRhodes": 6243,
  "ĠFinals": 14032,
  "Ġdecisions": 9239,
  "ĠEv": 3316,
  "ĠNetwork": 7205,
  "Ġvalued": 15033,
  "ĠBlue": 5060,
  "isted": 1952,
  "ĠWisconsin": 11027,
  "Ã¤": 4950,
  "tal": 1618,
  "Ġcrest": 9230,
  "Ġmystery": 12702,
  "ĠChamberlain": 11758,
  "foundland": 13411,
  "Ġtone": 7814,
  "Ġpersp": 7905,
  "Ġasc": 11884,
  "Ġfinals": 7964,
  "Ġ320": 15281,
  "ols": 4017,
  "Ġconflic": 10070,
  "Ġcommunities": 7002,
  "ĠIan": 8283,
  "Ġuranium": 10201,
  "Ġ05": 7620,
  "Ġfl": 756,
  "ĠConference": 5537,
  "Ġbed": 5921,
  "Ġgro": 788,
  "Ġwere": 383,
  "Ġ1893": 9569,
  "ect": 409,
  "vert": 3578,
  "Ġam": 798,
  "Ġswitched": 12609,
  "Ġrock": 1995,
  "Ġback": 899,
  "Ġorgan": 1412,
  "Ġsmaller": 3605,
  "Ġmillimet": 8878,
  "asing": 2263,
  "ule": 2362,
  "Ġfossils": 12013,
  "th": 324,
  "board": 2356,
  "Ġcontrolling": 14212,
  "Ġdouble": 3661,
  "umb": 2172,
  "Ġteach": 5621,
  "Ġwhit": 15559,
  "tenance": 7470,
  "U": 60,
  "rant": 5578,
  "Ġclouds": 12204,
  "ĠTyphoon": 11737,
  "Ġgoods": 7800,
  "Ġexagger": 14934,
  "Ġaest": 11795,
  "ĠGreater": 10524,
  "izer": 10660,
  "aft": 9681,
  "ĠWake": 14085,
  "Ġlife": 1220,
  "ĠKam": 9966,
  "ĠPuerto": 7206,
  "ĠHans": 7943,
  "Ġvul": 7710,
  "inations": 8854,
  "Ġincom": 9889,
  "ĠSingles": 6355,
  "Ġremoved": 3373,
  "Ġancestors": 14821,
  "ley": 918,
  "Ġsides": 4093,
  "Ġunit": 3765,
  "Ġcamer": 4909,
  "Ġbure": 15187,
  "ĠDrum": 14237,
  "ĠAnderson": 5609,
  "ĠChris": 4011,
  "ĠGould": 15985,
  "ril": 1219,
  "Ġassisted": 8311,
  "ĠIndust": 5875,
  "ĠFam": 5175,
  "Ġdemonstration": 13854,
  "Ġopinions": 12665,
  "Ġsurvival": 10133,
  "Ġwhilst": 9009,
  "urther": 1407,
  "ĠAR": 8220,
  "Ġretail": 8774,
  "Ġacute": 15329,
  "osaur": 4282,
  "ĠTor": 3448,
  "ĠChester": 11539,
  "ĠPam": 9722,
  "Ġfalls": 7970,
  "Ġpraising": 10115,
  "err": 9513,
  "agles": 11386,
  "Ġdeceased": 14697,
  "ĠJohnston": 10572,
  "Ġreason": 3669,
  "igg": 5904,
  "ĠHav": 10503,
  "Ġmale": 3665,
  "Ġessentially": 10517,
  "ians": 1229,
  "opus": 15481,
  "ĠLittle": 4423,
  "ether": 3841,
  "Ġderiv": 14577,
  "eke": 6159,
  "Ġgrandfather": 10479,
  "MA": 7608,
  "official": 13937,
  "aming": 4887,
  "ights": 2652,
  "Ġconfer": 12536,
  "ebruary": 1446,
  "Ġenthusiasm": 15452,
  "Ġdied": 1923,
  "ĠPitts": 9100,
  "onnie": 11749,
  "ĠMed": 2168,
  "Ġkidn": 10791,
  "eng": 1384,
  "Ġamount": 4088,
  "Ġret": 720,
  "avery": 9213,
  "rees": 7590,
  "Ġsteadily": 12147,
  "Ġimprovements": 9310,
  "Ġprofess": 2413,
  "Ġswing": 11989,
  "hi": 6097,
  "Ġentertain": 6893,
  "Ġpresented": 3823,
  "Ġdo": 848,
  "Ġcomment": 2277,
  "ĠWhit": 6056,
  "N": 53,
  "Ġspan": 8292,
  "ĠVas": 15523,
  "ĠObs": 7582,
  "Se": 12756,
  "Ġroles": 5097,
  "Ġfinish": 5380,
  "Ġaccount": 3784,
  "assing": 15426,
  "itars": 12347,
  "Ġtrunk": 11443,
  "Ġresur": 13192,
  "E": 44,
  "oz": 5803,
  "ĠChem": 12260,
  "at": 227,
  "Ġprayer": 14506,
  "rat": 4654,
  "Ġpur": 2758,
  "ĠFras": 13662,
  "ĠMcK": 6482,
  "ĠMiddlesex": 15748,
  "rome": 8279,
  "alk": 1482,
  "Ġlarvae": 15279,
  "icted": 3795,
  "ĠTed": 9583,
  "Ġaccent": 15223,
  "bit": 4713,
  "acer": 12170,
  "ailand": 15235,
  "Ġgra": 3566,
  "osevelt": 8237,
  "ĠGood": 4485,
  "ĠOntario": 9309,
  "ĠCal": 1734,
  "Am": 11372,
  "Ġtourn": 4183,
  "ister": 1417,
  "ĠNot": 3689,
  "ĠAug": 1104,
  "Ã¡n": 5748,
  "aret": 6631,
  "Ġpriests": 15435,
  "Ġguidance": 15731,
  "yp": 1111,
  "Ġpercussion": 12832,
  "Ġshifted": 10357,
  "Ġdepiction": 12466,
  "Ġupcoming": 11318,
  "agg": 11430,
  "Ġcere": 14009,
  "ĠRest": 10436,
  "Ġdiverse": 10455,
  "ĠFund": 9870,
  "Ġabsolute": 12726,
  "Ġhyper": 11410,
  "Ġhighly": 3820,
  "Ġinstrumental": 8100,
  "ĠMin": 1572,
  "Ġstuck": 15003,
  "unch": 8346,
  "Ġgentle": 11987,
  "ĠId": 6422,
  "used": 1814,
  "aved": 5166,
  "ĠWings": 13162,
  "Ġdebuted": 4582,
  "Ġgest": 12597,
  "Ġcharac": 862,
  "Ġdisplacement": 15579,
  "ec": 279,
  "ĠAires": 15108,
  "Ġfavourite": 11127,
  "Ġcomments": 7914,
  "Ġeye": 5057,
  "Ġprocedure": 12617,
  "Ġinterrog": 15764,
  "ood": 644,
  "Ġupdated": 12382,
  "ĠBBC": 4307,
  "Ġten": 1847,
  "ĠWells": 10514,
  "ause": 875,
  "ĠOlymp": 3109,
  "Ġstand": 1534,
  "Ġmathematical": 14655,
  "ĠCincinnati": 11769,
  "een": 4089,
  "ader": 6115,
  "Ġcrew": 2232,
  "ĠÃĹ": 6764,
  "Ġstra": 3822,
  "ĠMiss": 3640,
  "unes": 7718,
  "ĠPunk": 12834,
  "zens": 15315,
  "Ġparticles": 11451,
  "Ġminority": 10208,
  "Ġexpert": 9837,
  "van": 2797,
  "oven": 8873,
  "Ġbroken": 5209,
  "ih": 4242,
  "Ġreluct": 8610,
  "Ġwords": 3964,
  "father": 8446,
  "Ġaer": 6494,
  "Ġinaug": 8044,
  "Ġmaintain": 4666,
  "Ġdecomm": 13756,
  "Ġany": 1004,
  "ral": 762,
  "Ġquar": 2623,
  "ĠMur": 3569,
  "ĠTriple": 9582,
  "ĠCrane": 14496,
  "ĠSand": 5827,
  "Ġdrums": 7640,
  "Ġinfection": 11673,
  "Ġintense": 7649,
  "ĠWith": 1969,
  "Ġcompositions": 11258,
  "Ġplaying": 2237,
  "Ġadds": 12813,
  "ĠâĢ²": 13241,
  "Ġenters": 7561,
  "uable": 8498,
  "Ġstrikes": 11615,
  "ession": 3002,
  "ĠCommonwealth": 7403,
  "Other": 10387,
  "ĠWagner": 11943,
  "ational": 712,
  "Ġgift": 10908,
  "Ġ1907": 8256,
  "Ġcemetery": 12240,
  "Ġcrowned": 13470,
  "Ġthreats": 11395,
  "hurst": 13765,
  "ĠCraw": 10458,
  "Ġanniversary": 7048,
  "Ġinfected": 14111,
  "Ġwarm": 6690,
  "Ġ'": 284,
  "Ġcomparisons": 15535,
  "poration": 6202,
  "pped": 2187,
  "Ġsoon": 2495,
  "ĠDet": 5080,
  "Ġft": 1906,
  "í": 173,
  "ĠMason": 10332,
  "Ġvibr": 15587,
  "ĠHis": 1491,
  "Ġgreet": 13622,
  "band": 3972,
  "Ġcourse": 3228,
  "sych": 3999,
  "ĠJac": 5009,
  "Ġlegally": 15393,
  "Ġmur": 3426,
  "ĠWor": 9157,
  "opic": 11584,
  "Äį": 8088,
  "ĠJon": 4911,
  "ĠMagn": 8816,
  "Ġregion": 2396,
  "Re": 8379,
  "ĠBen": 2999,
  "Ġcases": 3961,
  "Ġcorruption": 12584,
  "wise": 5900,
  "ju": 11490,
  "Ġthousands": 6675,
  "Ġhorn": 9035,
  "Ġappoin": 2327,
  "Ġartific": 8895,
  "Ġwestern": 2940,
  "Ġmakes": 3490,
  "urb": 2208,
  "ĠProvince": 10631,
  "ider": 4165,
  "asks": 10156,
  "ĠTrail": 10306,
  "ĠCross": 4002,
  "Ġathletes": 9116,
  "Ġengineering": 7844,
  "Ġreportedly": 7635,
  "Ġburning": 10360,
  "Ġwrote": 1345,
  "Ġbull": 10362,
  "merce": 10420,
  "ted": 527,
  "ervative": 6308,
  "Ġconducting": 12225,
  "Ġreforms": 10355,
  "Ġrush": 14354,
  "ĠLatin": 4139,
  "Ġidentification": 14171,
  "ĠLast": 7253,
  "ĠTibet": 15596,
  "ĠArms": 14827,
  "Ġended": 2624,
  "Ġchallenges": 10649,
  "ĠBeatles": 6691,
  "Ġelderly": 14045,
  "Ġproclaimed": 12258,
  "Ġclimb": 6347,
  "ĠMuslim": 7627,
  "Ġrelating": 13080,
  "ranean": 6375,
  "Ġoutstanding": 11819,
  "en": 230,
  "occ": 11193,
  "self": 1523,
  "Later": 15263,
  "Ġgrant": 3622,
  "star": 12944,
  "orde": 15066,
  "Ġstreets": 7187,
  "Ġdeal": 2927,
  "Ġnatural": 3283,
  "Ġsyn": 3269,
  "odox": 9148,
  "Ġpsy": 14322,
  "Ġshould": 1813,
  "ching": 7444,
  "Ġallies": 8950,
  "Ġapplications": 10444,
  "Ġspirit": 4959,
  "Ġlacked": 8671,
  "ospel": 10831,
  "Ġpronounced": 13285,
  "owski": 9824,
  "ĠMississippi": 8567,
  "Ġlit": 1366,
  "ĠCanterbury": 9406,
  "Ġoption": 8181,
  "ĠDav": 1669,
  "urn": 598,
  "der": 925,
  "Ġ1972": 5531,
  "ĠZero": 11668,
  "Ġmaneuvers": 14190,
  "ĠTex": 3108,
  "ĠKeith": 9460,
  "oyle": 15443,
  "ply": 2596,
  "levard": 10650,
  "Ġride": 7585,
  "ĠKim": 6358,
  "Ġvessel": 7793,
  "yll": 12975,
  "thur": 4076,
  "To": 8223,
  "Ġwalked": 12166,
  "Ġsettle": 4072,
  "Ġfuture": 2875,
  "ases": 1881,
  "ĠDown": 5781,
  "eenth": 7425,
  "Ġdeeper": 13462,
  "Ġunanim": 12476,
  "oda": 10309,
  "ĠLim": 7778,
  "aga": 4456,
  "ishops": 12080,
  "Ġstrings": 12849,
  "ĠMos": 5945,
  "Tunes": 12657,
  "ĠEver": 7003,
  "Ġdread": 9881,
  "ĠAllMusic": 13983,
  "Ġbeach": 7703,
  "utter": 11771,
  "ize": 1666,
  "Ġsour": 2437,
  "agonists": 14702,
  "After": 2393,
  "Ġfault": 12060,
  "Ġproduce": 3752,
  "Ġassociate": 12710,
  "Ġcompanion": 11921,
  "mers": 8033,
  "action": 8185,
  "Ġthereby": 11187,
  "ĠGard": 7291,
  "odes": 2139,
  "Ġrect": 10706,
  "No": 12762,
  "ĠIndianapolis": 15551,
  "int": 2087,
  "ught": 11375,
  "ĠScout": 8807,
  "ĠFisher": 10659,
  "ĠChap": 5556,
  "ĠHaving": 9254,
  "ĠEarth": 3438,
  "itud": 8063,
  "ecause": 4140,
  "ĠActor": 10783,
  "ĠPitt": 15041,
  "ĠPhilipp": 5338,
  "ĠEdmund": 12120,
  "ĠFormation": 10461,
  "ourable": 12123,
  "È": 138,
  "Ġboth": 901,
  "Ġal": 326,
  "Ġsiege": 7488,
  "ĠWhen": 1549,
  "prise": 7711,
  "Ġcommonly": 5278,
  "isan": 11276,
  "ĠCert": 15408,
  "Ġcomponents": 9827,
  "ĠPad": 10001,
  "ancy": 4515,
  "ĠCanadiens": 15828,
  "Ġpatterns": 8573,
  "Ġtiny": 15861,
  "ĠXII": 10746,
  "ĠClark": 5268,
  "igan": 3007,
  "ĠHein": 12624,
  "Ġgive": 2867,
  "ayette": 13746,
  "ĠArgentina": 9861,
  "Ġrepresents": 8534,
  "Ġoccasional": 11275,
  "Ġdi": 3176,
  "Ġfinanc": 3504,
  "Ġ1892": 10759,
  "Ġhon": 2418,
  "ĠML": 8031,
  "Ġexamined": 12004,
  "ĠGregory": 12068,
  "Ġfasc": 10187,
  "Ġheroes": 14272,
  "Ġparticipated": 4925,
  "Ġmedian": 15141,
  "Ġund": 689,
  "Ġcyclone": 3998,
  "Ġregained": 13437,
  "yn": 1733,
  "¸": 124,
  "Ġrushing": 11192,
  "Ġstance": 13998,
  "Ġguide": 9686,
  "Ġgills": 15677,
  "Ġcrowds": 14694,
  "Ġtheor": 14970,
  "Ġdecade": 6198,
  "ĠEvening": 15774,
  "Ġrequ": 1385,
  "Ġcoaching": 12540,
  "Ġartillery": 4522,
  "Ġspectators": 12995,
  "Ġchampionships": 11622,
  "inem": 3939,
  "ĠNCAA": 9638,
  "Ġarms": 4894,
  "Ġanime": 9710,
  "Ġrecover": 3696,
  "Ġdetails": 6123,
  "Ġcorrespondence": 14952,
  "ĠVal": 2606,
  "Ġbrief": 3046,
  "Ġbow": 3168,
  "Ġin": 240,
  "Ġpropaganda": 12411,
  "ĠMarines": 11403,
  "Ġensured": 15096,
  "ĠWillis": 14958,
  "isl": 2824,
  "ĠNevertheless": 7958,
  "Ġlater": 727,
  "Ġwit": 12404,
  "ĠDay": 2977,
  "ĠAlberta": 11638,
  "uls": 4710,
  "ments": 1066,
  "Ġavailability": 14700,
  "Ġ1888": 10963,
  "Ġco": 871,
  "aven": 4979,
  "Ġmurd": 8229,
  "ĠWindows": 9588,
  "Ġvictories": 8144,
  "Ã¶r": 12198,
  "Ġtoss": 14438,
  "Ġgrandmother": 15507,
  "osen": 3899,
  "Ġtwin": 8202,
  "Ġposs": 1439,
  "Ġbacked": 9126,
  "isters": 4879,
  "Ġlooks": 9081,
  "5": 28,
  "Ġ67": 5757,
  "ĠBattalion": 4210,
  "Ġexcluded": 15368,
  "ĠMaya": 9938,
  "Ġsurprised": 10579,
  "Ġeditorial": 13390,
  "Ġsympathetic": 15485,
  "after": 6496,
  "ĠDram": 10061,
  "Ġcrowd": 4718,
  "Ġlighting": 10372,
  "iang": 12559,
  "ĠArg": 5389,
  "ettes": 12292,
  "ĠRoad": 1992,
  "Ġ8": 673,
  "Ġsubsid": 14921,
  "hen": 824,
  "Ġsteering": 15237,
  "asa": 9501,
  "Ġcompromise": 12831,
  "Ġ200": 453,
  "Ġflowers": 9978,
  "vious": 1289,
  "Ġinjuries": 7049,
  "ĠAndrew": 5019,
  "Ġrecru": 7083,
  "ĠEar": 1635,
  "ĠPoland": 6078,
  "Ġpm": 10569,
  "Ġhist": 1102,
  "ĠFord": 7043,
  "Ġhow": 1860,
  "ĠCategory": 7612,
  "Ġcoming": 4434,
  "ĠEr": 3912,
  "own": 524,
  "Ġfly": 6377,
  "ĠErnest": 11578,
  "Ġagricult": 5899,
  "Ġbarely": 13497,
  "ĠPrice": 14148,
  "ĠGiants": 7824,
  "Ġliter": 2953,
  "ya": 3652,
  "Ġspl": 4033,
  "hattan": 8208,
  "Ġtornadoes": 15901,
  "ĠGabri": 11741,
  "break": 5771,
  "rodu": 1622,
  "Ġfin": 1055,
  "Ġtrucks": 15788,
  "Ġbusinesses": 8347,
  "Ġscar": 9890,
  "ĠTasman": 13328,
  "sea": 7818,
  "Ġsocieties": 14619,
  "ĠChar": 1634,
  "adier": 9463,
  "Ġnomination": 6340,
  "ĠIndia": 2821,
  "ĠCatholics": 14567,
  "ĠFlood": 13546,
  "Ġcamera": 6181,
  "ĠCass": 10417,
  "rapy": 9796,
  "ĠThan": 11552,
  "ĠWarren": 8705,
  "B": 41,
  "Ġapplication": 8828,
  "Ġslowly": 6529,
  "Ġ1980": 2944,
  "ĠAfrica": 3462,
  "ĠTerm": 11602,
  "Ġentertaining": 14106,
  "arily": 2721,
  "dom": 1929,
  "Ġnorthbound": 14259,
  "Ġemp": 6156,
  "Ġsituations": 11663,
  "Ġare": 427,
  "ope": 2016,
  "ĠMotor": 13506,
  "Ġsang": 9846,
  "Ġsong": 723,
  "ĠMoon": 6427,
  "Ġadj": 4438,
  "Ġnum": 744,
  "ways": 2092,
  "Ġdaughters": 9850,
  "Ġwait": 9825,
  "it": 232,
  "fted": 8306,
  "Ġcounter": 3446,
  "Ġequip": 3146,
  "Ġsentenced": 10897,
  "ĠRad": 3626,
  "Ġbecause": 1129,
  "9": 32,
  "pler": 9872,
  "Ġtelling": 8139,
  "Ġcompete": 7944,
  "Ġcaught": 5230,
  "Ġcolored": 11851,
  "ĠSomet": 10131,
  "oring": 2677,
  "Ġint": 490,
  "Ġentirely": 5360,
  "Ġfinishing": 6804,
  "Ġ91": 6600,
  "ĠTab": 12929,
  "utherford": 15047,
  "Ġjump": 7402,
  "Ġcarries": 10366,
  "ĠMay": 1064,
  "ĠMich": 1629,
  "ĠMills": 12676,
  "ĠHurricane": 4518,
  "Ġnote": 6036,
  "ĠCultural": 10574,
  "ĠEnv": 11016,
  "Ġcompens": 9067,
  "ĠMain": 5958,
  "Ġhappens": 15634,
  "Ġsailors": 12525,
  "thing": 3273,
  "Ġchallen": 4552,
  "ĠCarr": 14724,
  "Ġdeclared": 3699,
  "ĠKnights": 13370,
  "ĠWang": 15064,
  "uble": 7133,
  "ĠAvon": 15528,
  "Ġreconcil": 14940,
  "Ġfaith": 6603,
  "ĠRocky": 14389,
  "Ġhandle": 11049,
  "Ġclan": 13114,
  "is": 234,
  "Ġprest": 11497,
  "Ġroot": 12599,
  "ĠPerform": 8637,
  "Ġexperimental": 9717,
  "ĠTill": 15847,
  "Ġheat": 6895,
  "Ġsings": 10389,
  "Ġaid": 5568,
  "ĠKot": 14286,
  "els": 1132,
  "Ġmessages": 12133,
  "weight": 6915,
  "ĠManchester": 4248,
  "Ġsubordin": 13061,
  "µ": 121,
  "Ġmac": 9194,
  "Ġprohibited": 13658,
  "ĠChairman": 13718,
  "ĠSteel": 10476,
  "ie": 476,
  "Ġdetermination": 15166,
  "ĠHoward": 6630,
  "hey": 14364,
  "ops": 1607,
  "Ġsugar": 10784,
  "Ġmillimetres": 14640,
  "ĠCong": 2790,
  "ĠPakistan": 9101,
  "lance": 14517,
  "ami": 6740,
  "itzer": 7182,
  "ĠFebruary": 1452,
  "Ġansw": 10386,
  "Ġceremonies": 12321,
  "Ġmilk": 12560,
  "Ġcinem": 6160,
  "Ġrecurring": 10462,
  "ĠTropical": 4786,
  "Ġmaturity": 14392,
  "ĠCivil": 4661,
  "Ġcharacter": 1123,
  "Ġconfused": 11979,
  "ographic": 5723,
  "Ġfe": 661,
  "Ġreviewing": 15612,
  "Ġplatinum": 7930,
  "ĠDawn": 14681,
  "ĠIC": 13824,
  "Ġestimates": 10453,
  "Ġenough": 2727,
  "Ġcritical": 3582,
  "Ġ82": 6220,
  "ĠLuther": 12922,
  "Ġlandmark": 12446,
  "Ġelevated": 12186,
  "Ń": 212,
  "ĠYorkshire": 9767,
  "Ġdemo": 10675,
  "ained": 846,
  "atives": 3170,
  "ĠNav": 13799,
  "Ġtickets": 10988,
  "ki": 2564,
  "Ġchildren": 1931,
  "ĠMcM": 9231,
  "ĠJup": 9373,
  "Ġrecur": 7973,
  "Ġratings": 6933,
  "ening": 3809,
  "Ġkilled": 2067,
  "Ġpoetry": 7689,
  "istically": 13809,
  "Ġclean": 6525,
  "Ġupper": 3548,
  "Ġextrem": 5450,
  "ĠColumbus": 14501,
  "Ġperm": 4004,
  "Ġ11": 997,
  "ized": 1035,
  "Ġoutf": 7874,
  "elli": 8804,
  "ĠDun": 4627,
  "Ġclasses": 6520,
  "Ġviewer": 15719,
  "Ġrequirement": 12655,
  "rote": 1328,
  "ĠThree": 4407,
  "And": 12274,
  "Ġinsurance": 12053,
  "fts": 9536,
  "Ġfurn": 9628,
  "isers": 4997,
  "Ġreference": 4700,
  "Ġwounded": 4849,
  "Ġcleared": 10107,
  "kinson": 13230,
  "Ġclimate": 6954,
  "Ġmechan": 4184,
  "Ġlawsuit": 11506,
  "ĠLaw": 3450,
  "ĠEdwards": 9221,
  "Ġaccepting": 15383,
  "ĠMir": 5281,
  "ĠPu": 5620,
  "rator": 8503,
  "Ġcommerc": 2734,
  "ĠLeader": 14276,
  "ged": 1142,
  "Ġfratern": 15526,
  "ocks": 5136,
  "lusion": 5168,
  "zy": 4982,
  "ĠPrest": 10937,
  "Ġqu": 738,
  "Ġalbum": 826,
  "Ġcompliment": 9183,
  "ĠIrish": 5023,
  "Ġguitarist": 9140,
  "Ġoff": 569,
  "ĠKnight": 7619,
  "ranch": 2818,
  "utch": 3764,
  "vant": 8742,
  "asm": 10086,
  "ait": 13986,
  "ĠBrazilian": 10516,
  "ĠPolitical": 12371,
  "ĠBond": 4715,
  "Î±": 11345,
  "Ġ7": 648,
  "ĠReyn": 13605,
  "Ġprogressed": 11404,
  "Ġhole": 10259,
  "ĠOrange": 10393,
  "ĠPan": 4084,
  "ĠBeach": 6379,
  "icia": 15558,
  "Ġthous": 4357,
  "Ġbeings": 15502,
  "emen": 9008,
  "Ġuser": 11614,
  "Ġrepairs": 8428,
  "Ġventure": 12602,
  "Ġcurrency": 13277,
  "Ġ146": 13504,
  "ĠKill": 11920,
  "ĠII": 1341,
  "fe": 8938,
  "Ġhat": 7741,
  "ĠHer": 1611,
  "Ġatomic": 9928,
  "Ġpercentage": 8370,
  "zym": 14741,
  "Ġvariety": 3993,
  "front": 13298,
  "ylogen": 14103,
  "alls": 10814,
  "ĠGri": 7370,
  "Ġfed": 11398,
  "iration": 5587,
  "ĠNebraska": 14592,
  "achute": 10555,
  "Ġdesc": 1013,
  "ĠRal": 9471,
  "Ġclimbing": 13884,
  "ĠBosn": 9282,
  "Ġdou": 2443,
  "Ġsupp": 4542,
  "ĠRichmond": 10686,
  "ighters": 6262,
  "Ġairport": 7267,
  "oked": 7934,
  "ĠTall": 13479,
  "ĠSimilar": 7295,
  "Ġ41": 3786,
  "Ġretro": 9640,
  "Ġsummon": 12516,
  "Ġterritorial": 11572,
  "ishn": 11901,
  "cast": 2023,
  "ĠEmma": 12680,
  "ug": 717,
  "Ġreflect": 5296,
  "ivic": 13797,
  "ĠCow": 8729,
  "Ġprominence": 15271,
  "dess": 8824,
  "Ġtot": 7984,
  "Ġjudges": 10804,
  "ĠDeb": 9697,
  "ĠLe": 763,
  "Ġtennis": 13806,
  "ideo": 1376,
  "Ġanswer": 10414,
  "Ġ195": 1150,
  "Ġscore": 2542,
  "ahl": 11746,
  "Ġexplanation": 11426,
  "ĠAirlines": 10870,
  "Ġsession": 5501,
  "Ġ1867": 12698,
  "Ġliterary": 6677,
  "ance": 580,
  "Ar": 5178,
  "ĠButter": 15696,
  "ection": 1238,
  "ĠBased": 12405,
  "brates": 15455,
  "ais": 8491,
  "ashi": 10220,
  "imination": 13953,
  "Ġcommentary": 9807,
  "ĠServices": 9982,
  "ĠMade": 14323,
  "Ġadapt": 4716,
  "ppers": 14233,
  "ĠCanu": 11699,
  "Ġhamlet": 13995,
  "Ġconcerned": 6562,
  "ĠMyc": 15744,
  "Ġsurviving": 6894,
  "ĠPriest": 15367,
  "ĠAtlanta": 9071,
  "ger": 1075,
  "aughters": 8988,
  "Ġdominance": 14988,
  "Ġrarely": 7853,
  "chang": 7261,
  "ĠCyp": 15162,
  "Ġplacement": 14866,
  "Jo": 8243,
  "ĠKing": 1249,
  "Ġdefe": 1758,
  "acc": 9003,
  "ĠLad": 4075,
  "Ġpolit": 1543,
  "Ġdiscontinued": 13397,
  "Ġunl": 6372,
  "Ġexcept": 2916,
  "birds": 13815,
  "ĠDy": 14561,
  "ĠDel": 3685,
  "ĠSox": 10808,
  "gl": 4030,
  "Ġspiritual": 8385,
  "Ġdrive": 5111,
  "ĠVincent": 10130,
  "ancouver": 9412,
  "Ġsponsored": 10527,
  "ubble": 11636,
  "ĠYanke": 7997,
  "Ġavo": 7683,
  "Ġnurs": 10727,
  "Ġintroduces": 14429,
  "Ġratio": 10615,
  "Ġphysician": 14292,
  "ĠBradford": 15989,
  "Ġhomes": 5034,
  "Ġtechnique": 7879,
  "Ġnumerous": 3512,
  "Ġdorsal": 14571,
  "aka": 5797,
  "MC": 13528,
  "Ġnort": 1830,
  "Ġarea": 1216,
  "abil": 6961,
  "ĠNothing": 14126,
  "Ġprivately": 13494,
  "Ġapprox": 3005,
  "ful": 953,
  "Ġwriting": 2066,
  "Ġaltern": 3510,
  "Ġstarted": 2147,
  "ĠÄĲ": 11589,
  "ĠDef": 4291,
  "24": 15741,
  "Ġstorms": 8113,
  "lus": 8794,
  "Ġdetective": 15918,
  "qu": 392,
  "ĠJay": 6179,
  "Ġedges": 13683,
  "Ġexcited": 14788,
  "ĠMat": 4608,
  "omm": 2943,
  "Ġseveral": 975,
  "Ġenemy": 4131,
  "airs": 2870,
  "ĠKa": 5689,
  "Ġguns": 2268,
  "Ġce": 2414,
  "Ġcontinuously": 15286,
  "Ġpriv": 2640,
  "ĠHomer": 4732,
  "Ġtriggered": 15749,
  "Ġ1800": 10794,
  "ATO": 10696,
  "Ġrout": 8407,
  "ĠMend": 10764,
  "ath": 704,
  "Ġafterwards": 7298,
  "ĠThis": 840,
  "Ġstage": 2259,
  "ĠFern": 11358,
  "Ġtotaled": 14596,
  "Ġreviews": 2809,
  "Ġaristocr": 12968,
  "Ġuncertain": 7889,
  "Ġeconomics": 15421,
  "Ġtheme": 3811,
  "Ġpersonnel": 5141,
  "Ġbulk": 8781,
  "Ġhous": 2740,
  "Ġvolcano": 13539,
  "Ġmounted": 5479,
  "Ġyard": 4018,
  "anim": 11191,
  "apes": 6299,
  "erv": 1108,
  "Ġprecip": 8158,
  "Ġaver": 2010,
  "cers": 4350,
  "Ġdemolition": 15979,
  "ps": 1387,
  "iers": 2141,
  "arents": 3860,
  "Ġ/": 821,
  "Ġseasons": 4498,
  "id": 286,
  "found": 11765,
  "Ġuprising": 13455,
  "Ġdesired": 12625,
  "Ġeffectiveness": 14646,
  "Ġlose": 7862,
  "gar": 3508,
  "ĠAub": 12309,
  "ĠLong": 3832,
  "oni": 15062,
  "Ġgifts": 14621,
  "Ġtram": 14179,
  "Ġgraphic": 13089,
  "Ġemphas": 4885,
  "Ġriding": 10426,
  "ĠLane": 7755,
  "acement": 4681,
  "leg": 2561,
  "ĠUntil": 13368,
  "ĠNew": 724,
  "Ġbre": 1350,
  "Ġbehind": 2265,
  "Ġ1918": 5482,
  "Ġsuggestion": 11863,
  "Ġplayers": 2033,
  "Ġpres": 861,
  "ĠFlames": 13055,
  "Ġenvironment": 3959,
  "Ġbi": 2843,
  "Ġsources": 4348,
  "Ġmounts": 11601,
  "Ġ176": 6866,
  "ovan": 14795,
  "Ġwider": 8834,
  "in": 216,
  "Ġlanes": 9113,
  "ollow": 708,
  "ues": 1146,
  "ĠType": 9866,
  "ĠSteven": 8664,
  "Ġy": 435,
  "Ġlate": 1495,
  "Ġemot": 4450,
  "ork": 492,
  "ĠFil": 10737,
  "Ġedited": 9521,
  "Ġshaft": 12640,
  "ĠOriginal": 9014,
  "Ġsubmar": 5563,
  "ĠPrad": 14202,
  "Ġpetition": 10498,
  "Ġseem": 3920,
  "Ġdesigner": 7882,
  "©": 110,
  "Ġspeculated": 12764,
  "bach": 11530,
  "Ġtelevised": 15541,
  "ova": 8710,
  "asons": 2854,
  "Ġinitially": 2590,
  "Ġteacher": 6039,
  "Ġcandidate": 6129,
  "Ġenemies": 6560,
  "ĠJosÃ©": 11502,
  "Ġpitch": 5804,
  "ĠHard": 4810,
  "appen": 4638,
  "ĠJan": 6280,
  "Ġexcess": 7494,
  "rians": 12223,
  "Ġpreserve": 11629,
  "ĠBel": 2466,
  "ĠWWE": 6700,
  "ĠSul": 15820,
  "Ġstorm": 1519,
  "Despite": 7326,
  "ĠMoore": 6200,
  "Ġvery": 1443,
  "Ġcontinue": 3821,
  "Ġsurrounding": 4836,
  "Ġfilmed": 5026,
  "emeter": 6924,
  "Ġreputation": 5869,
  "Ġpolls": 15497,
  "overs": 8224,
  "Ġorganized": 5225,
  "Ġreporter": 11915,
  "Ġfit": 5836,
  "ilia": 13708,
  "ihanna": 8994,
  "ĠJennifer": 13693,
  "Ġdestroyer": 10049,
  "ĠAri": 6214,
  "ĠJoh": 8771,
  "emor": 2531,
  "ĠTam": 5545,
  "Ġchronic": 10601,
  "Ġenvironments": 12458,
  "ĠCou": 12066,
  "gie": 10769,
  "TC": 4978,
  "Ġ1939": 5084,
  ",": 19,
  "Ġang": 3627,
  "Ġ2011": 1584,
  "Ġsound": 1692,
  "Ġsegment": 6659,
  "Ġhier": 13023,
  "Ġpriority": 12531,
  "Ł": 210,
  "Ġwealthy": 9362,
  "Ġextent": 7656,
  "pton": 4967,
  "Ġlistening": 12610,
  "Ġsigns": 8376,
  "Ġvoted": 6264,
  "herent": 12181,
  "ĠBermuda": 12952,
  "Ġmember": 2131,
  "apa": 13940,
  "Ġrun": 1032,
  "Ġeffort": 3837,
  "Ã¢": 10416,
  "Ġliver": 11413,
  "ĠIslam": 7180,
  "ĠBang": 7066,
  "Ġescaped": 8660,
  "Ġpaper": 4805,
  "Ġchapel": 9418,
  "mph": 8281,
  "Ġhosts": 9487,
  "Ġfil": 7660,
  "ĠReviews": 15855,
  "Ġ1830": 12299,
  "zh": 11266,
  "Ġdelegates": 12518,
  "ĠCom": 786,
  "ĠCircuit": 13537,
  "Ġseverely": 8757,
  "lew": 13635,
  "Ġseasonal": 14973,
  "isor": 14101,
  "ctic": 8387,
  "ographer": 4908,
  "Ġancest": 6962,
  "ĠRich": 2197,
  "Ġear": 705,
  "ĠRes": 2674,
  "ill": 364,
  "ĠBaltic": 11077,
  "Ġadvertis": 10502,
  "zil": 5191,
  "Ġphilosopher": 12550,
  "ĠMI": 10493,
  "ĠLi": 7536,
  "Ġair": 957,
  "¬": 113,
  "ĠPage": 14665,
  "ertain": 2072,
  "Ġincome": 6606,
  "Ġ183": 3452,
  "Ġ1942": 4092,
  "rod": 9650,
  "Ġnob": 5474,
  "se": 416,
  "Due": 13719,
  "ĠGermans": 5608,
  "Ġfoot": 1723,
  "ly": 282,
  "Ġtorpedoes": 12019,
  "Ġhyp": 5654,
  "ĠPatton": 14661,
  "Ġgenes": 12580,
  "iblical": 15155,
  "Ġfeels": 9149,
  "ĠLondon": 1701,
  "auge": 11752,
  "Ġmultipl": 9201,
  "Ã¥": 10388,
  "het": 2775,
  "Ġrac": 5718,
  "ĠPetersburg": 14854,
  "Ġcities": 4486,
  "Ġ1879": 13359,
  "Ġexplain": 8593,
  "ĠTreat": 6754,
  "raction": 9135,
  "Ġeconomy": 5678,
  "ĠContinental": 11594,
  "Ġmisc": 13202,
  "ĠkW": 8830,
  "Ġsymb": 4006,
  "Ġacquire": 13267,
  "ado": 3890,
  "Ġ93": 6864,
  "Ġtwo": 532,
  "thodox": 10923,
  "Ġple": 4060,
  "Ġabolition": 15374,
  "Ġrecord": 784,
  "ĠNapole": 8103,
  "erve": 3035,
  "Ġcannon": 9439,
  "Ġimages": 6459,
  "Ġmomentum": 14350,
  "Ġvalue": 4565,
  "ĠHeritage": 9864,
  "ĠDavies": 10221,
  "<bos>": 2,
  "Ġterrestrial": 15012,
  "Ġglass": 6161,
  "Ġsubject": 2768,
  "ĠPeters": 10190,
  "Ġmax": 3717,
  "arus": 12418,
  "Ġnine": 2777,
  "Ġop": 2874,
  "Ġtongue": 15375,
  "ĠCook": 7560,
  "itational": 15264,
  "uary": 8654,
  "ĠAges": 11074,
  "ĠOt": 7715,
  "ĠFinal": 3402,
  "Ã³": 3454,
  "ĠBroadway": 8866,
  "Ġanywhere": 14427,
  "Ġ1880": 8358,
  "artime": 11392,
  "Ġenlisted": 9068,
  "VD": 3564,
  "Ġable": 2076,
  "Ġshirt": 13163,
  "ore": 366,
  "Ġinsects": 9498,
  "Ġ1951": 6964,
  "un": 318,
  "ately": 1211,
  "assed": 12593,
  "Ġmanufactured": 12829,
  "Ġresemb": 5414,
  "elf": 933,
  "ather": 883,
  "ilus": 15924,
  "Ġdiscussing": 12654,
  "nor": 14269,
  "Ġcontem": 3713,
  "Ġusually": 2928,
  "Ġactivated": 14813,
  "suing": 12851,
  "ĠTampa": 15220,
  "Ġgang": 8703,
  "ayan": 9709,
  "Ġwicket": 8715,
  "bul": 15156,
  "Ġshowc": 15640,
  "inder": 6997,
  "esc": 1613,
  "stead": 14117,
  "Ġcrown": 6271,
  "Ġtough": 12241,
  "ween": 702,
  "ĠFranz": 14566,
  "agn": 4705,
  "Ġreligion": 6252,
  "ĠFilm": 2964,
  "ĠLeicester": 12847,
  "Ġhomosexual": 12430,
  "Ġtowards": 2386,
  "Ġconclusion": 7215,
  "ĠAngle": 13063,
  "Ġdevelop": 934,
  "ordination": 15588,
  "Ġtroops": 2410,
  "ivated": 8150,
  "Î¹": 15370,
  "ĠGarc": 13650,
  "ĠAcc": 7500,
  "Ġcapture": 4585,
  "ĠB": 281,
  "ĠMond": 10237,
  "ĠHale": 14305,
  "Ġcalls": 5507,
  "Ġsim": 1100,
  "Ġaudiences": 8463,
  "ĠStef": 10488,
  "Ġground": 1901,
  "ĠMarie": 8927,
  "hanced": 11688,
  "ĠPhilip": 6811,
  "Ġages": 10829,
  "Ġcontro": 1233,
  "Ġconsolid": 10558,
  "Ġmom": 3590,
  "Ġcorner": 6345,
  "Ġtru": 5210,
  "ming": 2347,
  "Ġcig": 15721,
  "aj": 853,
  "ĠPay": 11951,
  "ĠOg": 15127,
  "ĠDu": 3193,
  "Ġshr": 9810,
  "asters": 8402,
  "Ġgenerations": 13948,
  "fire": 7533,
  "Ġtight": 8984,
  "Ġlast": 1276,
  "Ġnormal": 5015,
  "viÄĩ": 15409,
  "sby": 13788,
  "Ġrepresentatives": 9795,
  "ĠTommy": 11896,
  "Ġgoverned": 14975,
  "ĠEngineers": 15080,
  "Ġprofile": 9175,
  "ĠLead": 14235,
  "Ġstrongest": 9550,
  "Ġout": 581,
  "Ġgetting": 5848,
  "a": 72,
  "ĠFort": 3407,
  "Ġdiscipline": 13049,
  "ĠWilliams": 4069,
  "Ġloss": 2286,
  "Ġperpet": 13436,
  "Ġsatell": 7839,
  "ushes": 13755,
  "Ġeither": 2402,
  "uch": 950,
  "Ġenhance": 14362,
  "Ġdeterior": 9276,
  "Ġsuggested": 3025,
  "Ġoriginally": 2318,
  "ĠConfederate": 8823,
  "Ġwitness": 5741,
  "Ġwin": 1149,
  "Ġpop": 982,
  "Ġfilming": 4957,
  "Ġvillain": 10964,
  "ĠHope": 10926,
  "Ġendors": 9786,
  "ironment": 3420,
  "ĠCommittee": 4134,
  "well": 3403,
  "Ġintermedi": 10821,
  "Ġprosecut": 13928,
  "ĠBed": 7742,
  "Ġalong": 1072,
  "tend": 959,
  "Ġmon": 895,
  "Ġscandal": 11341,
  "ĠCommon": 5406,
  "ĠJazz": 15234,
  "Ġbeating": 10680,
  "Ġtalking": 9675,
  "heastern": 6622,
  "Ġfragments": 12785,
  "ĠUEFA": 9959,
  "ĠCox": 12302,
  "Äĥ": 8468,
  "Ġbonus": 9208,
  "ationally": 10292,
  "ĠWebber": 15285,
  "Ġbag": 15307,
  "ĠAIDS": 14342,
  "Ġfavoured": 14919,
  "Ġvan": 6163,
  "Ġroute": 2140,
  "Ġgas": 4534,
  "Ġgovernor": 4808,
  "Ġcho": 4263,
  "Äģ": 6087,
  "Ġhumor": 10019,
  "ications": 9573,
  "\\": 67,
  "et": 285,
  "Ġfifty": 8581,
  "ĠApril": 1263,
  "ichi": 13145,
  "Ġmyst": 9932,
  "GS": 15262,
  "ier": 900,
  "Ġmagnitude": 10281,
  "ĠLess": 9436,
  "ĠWorld": 1128,
  "ĠTar": 6666,
  "ĠEconomic": 15016,
  "Ġcarefully": 13897,
  "ĠCosta": 15796,
  "expected": 10202,
  "ĠByzantine": 7001,
  "Ġdistant": 10289,
  "ĠBaseball": 9096,
  "ĠHonor": 9845,
  "nik": 8264,
  "Ġboats": 5538,
  "Ġ150": 4347,
  "ĠComputer": 12549,
  "Ġserve": 4460,
  "Ġ06": 7165,
  "berg": 2770,
  "aying": 1789,
  "Ġgradually": 6114,
  "Ġ181": 4044,
  "Ġ1200": 14645,
  "ivers": 919,
  "ŀ": 209,
  "ĠSpears": 7625,
  "ĠUnd": 12234,
  "ĠBangl": 14256,
  "Ġcorn": 4432,
  "Ġschool": 1305,
  "ĠParis": 4254,
  "never": 14783,
  "iling": 5463,
  "Ġmodes": 13801,
  "'": 14,
  "ĠEC": 12455,
  "Ġface": 3306,
  "osite": 6460,
  "ĠMLB": 12034,
  "Ġestablishment": 6850,
  "ielberg": 14102,
  "ĠSant": 4509,
  "ume": 2732,
  "Ġportrayal": 9726,
  "Ġalleg": 7466,
  "mo": 10914,
  "Ġwork": 647,
  "Ġpad": 15548,
  "Ġdesigns": 6038,
  "ĠFreedom": 11518,
  "Ġnortheastern": 12492,
  "oking": 8289,
  "mont": 11384,
  "Ġsteep": 10564,
  "Ġmost": 696,
  "ĠMort": 7577,
  "ĠDj": 12955,
  "ĠRegional": 11163,
  "cious": 13223,
  "Ġcelebr": 4228,
  "Ġpregnancy": 13673,
  "Ġturn": 1282,
  "ccording": 1808,
  "augh": 1504,
  "Ġleaders": 4647,
  "h": 79,
  "Ġreinforcements": 9893,
  "»": 127,
  "Ġnas": 15925,
  "Ġway": 1396,
  "ĠMann": 11914,
  "avy": 1319,
  "Ġdrops": 15284,
  "rop": 710,
  "bell": 6093,
  "ĠWolver": 13050,
  "Ġpopulated": 13325,
  "Ġvarious": 2000,
  "ĠDraft": 11296,
  "ĠFoot": 4111,
  "ĠAlexand": 8466,
  "ĠBec": 14993,
  "Ġfactor": 7786,
  "ve": 655,
  "Ġcertainly": 10050,
  "ouch": 12695,
  "ĠRing": 8772,
  "Ġsou": 14479,
  "ĠBrooks": 11056,
  "ĠZealand": 3831,
  "rav": 11592,
  "Ġbor": 5808,
  "Ġairline": 10552,
  "ĠKos": 14653,
  "ĠHeath": 13301,
  "ĠBure": 7547,
  "cut": 11012,
  "Ġstri": 2210,
  "Ġculture": 3986,
  "istence": 13415,
  "Ġo": 225,
  "ĠHarbor": 10114,
  "Ġ144": 13790,
  "Ġim": 592,
  "mitt": 14472,
  "Ġwedding": 8276,
  "ĠSpencer": 13287,
  "ĠRoger": 6963,
  "Ġpleased": 11791,
  "Ġsurviv": 7229,
  "Ġcompet": 1817,
  "Ġthanks": 12037,
  "Ġpolic": 3093,
  "ĠBoston": 4185,
  "ĠParkway": 12338,
  "Ġwhales": 12658,
  "Ġsole": 6461,
  "asty": 5785,
  "Ġlong": 939,
  "Ġdest": 1506,
  "rigade": 3124,
  "Ġrestore": 10376,
  "Ġsphere": 14683,
  "ĠJava": 15763,
  "ĠMotion": 13620,
  "ony": 1340,
  "ĠColumb": 4301,
  "Ġpurposes": 8152,
  "Ġentry": 6304,
  "Ġconfined": 13944,
  "ĠArmed": 15483,
  "Ġelder": 8541,
  "ewhere": 7006,
  "ip": 405,
  "plane": 15906,
  "act": 586,
  "iod": 1406,
  "enses": 6818,
  "Ġromantic": 7288,
  "Ġsupport": 1159,
  "ĠBernard": 9527,
  "Ġ53": 4721,
  "Ġey": 2801,
  "ĠCaptain": 4305,
  "Ġmedicine": 10373,
  "Ġnumbered": 10542,
  "Ġlar": 822,
  "Ġelection": 2925,
  "ĠUran": 15973,
  "Ġcolony": 7299,
  "nest": 7884,
  "stone": 4688,
  "ĠSchw": 14465,
  "Ġ147": 14747,
  "Ġjam": 14498,
  "ĠDiscovery": 15699,
  "ĠBod": 12651,
  "ver": 311,
  "Ġpursuit": 11060,
  "ĠGarden": 8048,
  "ĠFreeway": 15757,
  "Ġscene": 2367,
  "ĠStuart": 10869,
  "itch": 2472,
  "ittle": 4042,
  "gent": 14855,
  "ĠAnton": 7042,
  "ĠBever": 15801,
  "Ġunits": 2668,
  "Ġtraining": 2562,
  "Ġsic": 12854,
  "Ġfuneral": 8506,
  "Ġ1895": 10336,
  "entially": 6303,
  "Ġethnic": 7835,
  "Ġhigh": 838,
  "Ġacou": 9235,
  "ĠJeremy": 13660,
  "ĠGold": 2857,
  "When": 4628,
  "Ġproposed": 3135,
  "Ġsaying": 2538,
  "Ġstopped": 6140,
  "Ġresear": 7665,
  "Ġhandled": 10026,
  "Ġfire": 1776,
  "une": 1050,
  "Ġcommanders": 10233,
  "ĠYoung": 4682,
  "Ġclassical": 7203,
  "ĠVI": 8380,
  "Ġ1897": 10044,
  "ĠIndian": 2252,
  "Ġsalary": 10419,
  "Ġaff": 1729,
  "Ġfemales": 6416,
  "ĠHutton": 15905,
  "inguished": 13893,
  "ĠGone": 14412,
  "Ġtit": 1354,
  "ple": 1356,
  "erts": 11267,
  "ĠSpringfield": 11676,
  "ĠNort": 3762,
  "beit": 14357,
  "back": 2911,
  "ĠKid": 11004,
  "ĠAld": 9125,
  "ĠFringe": 15691,
  "Ġ174": 8799,
  "ME": 10500,
  "ĠOcean": 4783,
  "Ġallocated": 13243,
  "Ġunc": 2869,
  "mp": 1438,
  "Ġtrav": 5308,
  "ĠPale": 13798,
  "Ġclosest": 9518,
  "alford": 15410,
  "orig": 12918,
  "Ġnoticed": 11434,
  "Ġconnection": 6568,
  "Ġnorthwestern": 13358,
  "ulf": 3009,
  "Ġpiece": 4251,
  "ĠPrincess": 7679,
  "Ġidentified": 4506,
  "Ĭ": 189,
  "Ġhidden": 9295,
  "Ġsoutheastern": 10748,
  "Ġcreated": 1985,
  "Ġentrance": 6105,
  "gest": 5542,
  "porting": 10160,
  "Ġsuffer": 12760,
  "Ġparallel": 5662,
  "ĠMadagascar": 9301,
  "Ġemig": 12891,
  "wald": 11025,
  "Ġbecom": 2082,
  "ĠNorfolk": 10006,
  "Ġrest": 1252,
  "Ġfranchise": 5760,
  "ĠKu": 8645,
  "Ġcourt": 2544,
  "Ġplanned": 3223,
  "uters": 10947,
  "Ġ240": 10775,
  "Ġchapters": 12903,
  "lan": 5963,
  "Ġcarrier": 7412,
  "Ġenthusiastic": 14076,
  "ĠGalile": 15226,
  "ĠMarcus": 13495,
  "Be": 6657,
  "Ġprodu": 718,
  "rab": 2994,
  "ovsky": 12989,
  "olution": 2048,
  "hu": 8813,
  "Ġpress": 1822,
  "olk": 3461,
  "ĠBrook": 5576,
  "izard": 11865,
  "ĠLeft": 15728,
  "ĠDepartment": 3941,
  "Ġbehav": 4257,
  "Ġinfluences": 7487,
  "Ġexactly": 9265,
  "idia": 11305,
  "rimination": 14383,
  "ĠMix": 11520,
  "ĠExam": 15311,
  "iffer": 11944,
  "azine": 2405,
  "ĠMack": 8619,
  "ion": 253,
  "ĠReview": 6180,
  "ix": 703,
  "Ġshore": 6873,
  "acher": 3758,
  "Ġter": 1924,
  "onto": 6790,
  "Ġoz": 14856,
  "Ġlegislation": 7313,
  "Ġlike": 1133,
  "ĠThough": 5242,
  "ĠAgainst": 11525,
  "ĠEvans": 7671,
  "ĠHamp": 8094,
  "ĠJanuary": 1332,
  "Ġstrengt": 5552,
  "ests": 1805,
  "Ġmilit": 6426,
  "Ġdolph": 15777,
  "Ġdistances": 14298,
  "ellig": 4025,
  "Ġcontroversy": 6300,
  "phone": 8102,
  "ĠDean": 7143,
  "Ġfind": 1766,
  "Ġsovereignty": 15414,
  "Ġcut": 2196,
  "Ġpurp": 3629,
  "Ġnucleus": 15581,
  "Ġpract": 2300,
  "Ġvideo": 1511,
  "Ġlifted": 13008,
  "ĠHell": 7018,
  "overty": 11789,
  "ĠBillboard": 3286,
  "Ġmilitia": 8759,
  "Ġmillions": 12969,
  "ĠCN": 13621,
  "14": 10295,
  "ĠJamaica": 12489,
  "ographed": 12904,
  "Ġsecond": 775,
  "Ġrecruited": 10968,
  "Ġneither": 6914,
  "ides": 1556,
  "Ġthroughout": 2074,
  "oga": 8773,
  "ĠJ": 350,
  "Ġinstallment": 15006,
  "Ġconsistently": 12388,
  "ĠDur": 8123,
  "Ġbrut": 12925,
  "Ġknots": 6237,
  "ĠCena": 11576,
  "Ġmit": 11563,
  "Ġcharter": 9892,
  "Ġrever": 11319,
  "Ġincluding": 886,
  "Ġconsist": 3442,
  "Ġrebuilt": 8653,
  "Ġdancing": 9163,
  "ĠUpon": 5919,
  "Ġsuited": 13082,
  "insula": 6102,
  "Ġmonaster": 9815,
  "Ġori": 7193,
  "Ġgarden": 8686,
  "Ġlarg": 1810,
  "Ġpainted": 7332,
  "ilm": 622,
  "Ġadm": 1804,
  "DS": 7557,
  "Ġfamily": 1392,
  "ĠManning": 13862,
  "ĠCatherine": 10244,
  "ĠCroat": 4341,
  "inction": 7908,
  "Ġproteins": 11029,
  "Ġmountains": 8522,
  "¶": 122,
  "Ġans": 6587,
  "Ġanchor": 15154,
  "oster": 7218,
  "Ġimproving": 12487,
  "ĠArtist": 14418,
  "ĠEt": 13696,
  "ĠLuc": 4360,
  "Ġunders": 15067,
  "ow": 304,
  "1": 24,
  "Ġtracked": 11252,
  "rific": 10800,
  "eal": 2861,
  "ĠSomerset": 7923,
  "ĠRu": 10494,
  "ĠPalest": 8579,
  "tario": 9251,
  "ictions": 14109,
  "Ġvo": 5062,
  "elda": 14937,
  "Ġneigh": 3864,
  "Ġremember": 7008,
  "ong": 393,
  "Ġconsequences": 12784,
  "Ġsank": 8395,
  "Ġhell": 14744,
  "ĠOrd": 11842,
  "Ġcomm": 631,
  "ĠSw": 1862,
  "Ġhosted": 6655,
  "While": 5428,
  "Ã«": 10155,
  "Shortly": 15121,
  "Ġche": 1982,
  "Ġpl": 403,
  "Ġbol": 13238,
  "ĠShakespeare": 8516,
  "ĠMas": 5798,
  "ĠBear": 13590,
  "ĠLodge": 14957,
  "Ġign": 5787,
  "Ġgrants": 13748,
  "Ġcens": 9794,
  "Ġ280": 13984,
  "ĠChampionship": 2528,
  "Ġopportunity": 5582,
  "Ġreward": 9924,
  "Ġchrom": 11582,
  "Ġcolonel": 14231,
  "Ġelectron": 8849,
  "ĠSaint": 4398,
  "Ġprotecting": 13481,
  "Ġinability": 15231,
  "Ġwhe": 471,
  "ĠDale": 9831,
  "Ġaim": 5315,
  "ĠColin": 12724,
  "Ġprovides": 5346,
  "ullivan": 7749,
  "ĠButler": 13222,
  "Ġtons": 3434,
  "ĠPopular": 14820,
  "ĠInternet": 9108,
  "Ġcomfort": 8967,
  "ogue": 3702,
  "ired": 917,
  "R": 57,
  "Ġdrug": 4706,
  "ĠStars": 10382,
  "ĠJeff": 4295,
  "dale": 8417,
  "Ġclaim": 1588,
  "encies": 7323,
  "ĠSoon": 9015,
  "Ġ2000": 2361,
  "Ġdivide": 14638,
  "ĠFuture": 11711,
  "Ġgenerally": 2451,
  "ĠVi": 6067,
  "Ġradar": 8111,
  "Ġindividuals": 5024,
  "Ġslavery": 9944,
  "ĠNavy": 2617,
  "Ġ2004": 2255,
  "Ġoperated": 4834,
  "ĠHungarian": 7244,
  "Ġ1847": 15988,
  "ef": 1846,
  "Ġ155": 8913,
  "Ġodd": 9225,
  "Ġpoison": 8312,
  "Ġcelebration": 11270,
  "ĠKar": 4668,
  "Ġrate": 3747,
  "Ġscenario": 13773,
  "Ġcells": 5954,
  "ĠEll": 4512,
  "Ġrevolution": 6259,
  "Ġmoist": 12439,
  "Ġorchestra": 9128,
  "Ġfollowing": 1163,
  "Ġworker": 12478,
  "Ġspeeds": 11733,
  "Ġsuperior": 7237,
  "Ġcub": 9509,
  "Ġconversion": 9147,
  "oyd": 6855,
  "ĠPokÃ©": 12040,
  "anuary": 1330,
  "ĠOk": 6453,
  "Ġreceives": 10939,
  ":": 33,
  "ĠLanc": 6951,
  "Ġavoid": 4531,
  "Ġmayor": 9270,
  "Ġcatal": 10318,
  "Ġtap": 12126,
  "ĠNon": 8841,
  "ĠSmackDown": 12403,
  "Ġfees": 14565,
  "ĠFull": 11080,
  "Ġelements": 2781,
  "ĠMore": 3945,
  "RT": 13848,
  "lides": 14601,
  "Ġearthquake": 10005,
  "enos": 10886,
  "bre": 8734,
  "Ġtools": 11428,
  "sover": 15031,
  "Ġdrivers": 9103,
  "Ġanarch": 12598,
  "ĠReds": 14721,
  "Ġnovels": 7493,
  "Ġwouldn": 14347,
  "quad": 1890,
  "Ġpiano": 5524,
  "Ġessay": 12998,
  "ĠPont": 14754,
  "Ġtribes": 8678,
  "ĠRaymond": 12740,
  "ĠAns": 15914,
  "2": 25,
  "Ġthinking": 8338,
  "ĠGren": 14366,
  "Ġhoused": 11036,
  "amb": 1899,
  "ĠBea": 13014,
  "Ġbelief": 5700,
  "(": 15,
  "Ġthrew": 8795,
  "amount": 10866,
  "Ġactivist": 15057,
  "Ġdeterm": 2989,
  "Ġexplos": 5220,
  "enz": 11508,
  "ĠPoly": 10889,
  "ĠWaters": 11913,
  "Ġpeaceful": 15323,
  "Ġcastles": 11724,
  "Ġencounters": 11489,
  "ĠCrawford": 12926,
  "ben": 15570,
  "Ġpled": 13843,
  "Ġoffering": 8586,
  "ĠYugoslav": 7489,
  "atively": 3191,
  "ĠPete": 11679,
  "Ġkilometres": 5160,
  "Ġforests": 8389,
  "Ġassert": 10992,
  "Ġapplied": 6045,
  "Ġcraft": 10325,
  "Ġheritage": 10682,
  "Ġadventures": 15298,
  "ĠHMS": 5753,
  "Ġcrashed": 11005,
  "rified": 14159,
  "ĠKh": 3994,
  "thm": 6862,
  "ĠPl": 1170,
  "ĠTo": 2287,
  "Ġlink": 3600,
  "Ġthorough": 11677,
  "ĠAllan": 15611,
  "Ġlaps": 11199,
  "inate": 14734,
  "Ġ32": 2908,
  "colm": 11344,
  "Ġpresidency": 12444,
  "Ġnotice": 8763,
  "Ġfull": 2039,
  "ĠBus": 4545,
  "Ġconduct": 2550,
  "Ġmodel": 3399,
  "Ġfict": 6278,
  "oya": 15491,
  "Ġovercome": 13133,
  "ĠMorris": 6991,
  "Ġamateur": 10053,
  "ginning": 10427,
  "Ġprofessor": 8566,
  "John": 8887,
  "Ġworld": 1254,
  "Ġsuspension": 11644,
  "omot": 6957,
  "Ġrenewed": 11150,
  "ĠHampshire": 9621,
  "Ġcameras": 13959,
  "ĠHey": 10644,
  "ĠPil": 9156,
  "Ġinjured": 5833,
  "Ġconnected": 5852,
  "ĠBeat": 4867,
  "Ġtrips": 13037,
  "ĠGothic": 12205,
  "ĠâĪĴ": 5912,
  "eli": 13653,
  "Ġbomber": 11338,
  "ĠNATO": 11274,
  "Ġdecomp": 13582,
  "Ġmeasures": 7400,
  "inc": 1244,
  "Ġborder": 4487,
  "Ġvertical": 8912,
  "Ġnest": 6582,
  "Another": 10905,
  "Ġcateg": 8204,
  "ĠDevon": 13742,
  "ky": 2412,
  "Ġcarriers": 8944,
  "ille": 1748,
  "strong": 10092,
  "Ġwide": 3178,
  "avia": 10301,
  "Ġflower": 12203,
  "velt": 8109,
  "oto": 7624,
  "Ġcasting": 9032,
  "odies": 3775,
  "ĠForm": 4402,
  "Ġmorale": 15093,
  "Ġconve": 13603,
  "owa": 7417,
  "mat": 9210,
  "soon": 14530,
  "Ġampl": 14004,
  "ĠPhill": 6890,
  "Ġidentity": 6472,
  "Ġreaches": 8855,
  "ĠCap": 2449,
  "Ġterminal": 12024,
  "li": 7329,
  "anish": 2608,
  "ĠHab": 13932,
  "ironments": 12381,
  "Ġ800": 5233,
  "Ġfreeway": 6055,
  "^": 69,
  "av": 353,
  "aws": 7369,
  "Ġsust": 4462,
  "Ġregistered": 8523,
  "Ġkicked": 14420,
  "Ġbooks": 3740,
  "opold": 15753,
  "Ġgathered": 9523,
  "ĠVen": 5151,
  "Ġends": 4977,
  "ĠCat": 5082,
  "ĠRPG": 12992,
  "Ġ1995": 3532,
  "ĠLie": 13472,
  "ĠIreland": 4436,
  "Ġall": 642,
  "ushing": 6177,
  "equ": 8517,
  "Ġinteraction": 10725,
  "Ġfriends": 3688,
  "Ġfet": 15479,
  "Ġreject": 3931,
  "isans": 13668,
  "osion": 11621,
  "_": 70,
  "Ġspots": 12319,
  "Ġportra": 8477,
  "Ġv": 361,
  "Ġ1977": 6090,
  "ĠFC": 15138,
  "Ġsubmer": 11933,
  "Ġalone": 4543,
  "ĠSo": 3918,
  "Ġdigit": 12962,
  "Ġdust": 11339,
  "ĠSchool": 2309,
  "holm": 13726,
  "ĠArena": 12526,
  "Ġsexuality": 14725,
  "ĠMumb": 14594,
  "Ġradio": 2942,
  "Ġirregular": 11982,
  "Ġconvoy": 7720,
  "Ġindicate": 7788,
  "atorial": 12505,
  "ĠWind": 4475,
  "Ġsettlement": 6059,
  "ĠTurkish": 7682,
  "Ġtalked": 15013,
  "ĠClassic": 10497,
  "omer": 3211,
  "hentic": 12095,
  "Ġbatsmen": 15902,
  "ĠInstead": 6352,
  "Ġpor": 11475,
  "Ġcultural": 5353,
  "ĠClaire": 14078,
  "aded": 4538,
  "no": 8192,
  "ĠPhiladelphia": 5290,
  "or": 229,
  "lymp": 3080,
  "avi": 12161,
  "horn": 15272,
  "Ġdrawn": 5516,
  "Ġinstitution": 8877,
  "Ġfast": 3881,
  "Ġconnects": 12127,
  "val": 2503,
  "Ġcontracts": 11479,
  "hammad": 9768,
  "Ġtrump": 15212,
  "Ġblood": 3727,
  "ĠTw": 4318,
  "Ġwins": 7406,
  "ches": 1591,
  "Ġphotographs": 9753,
  "Ġstead": 7508,
  "ali": 5725,
  "Ġconcluded": 4149,
  "arian": 4113,
  "ĠHoll": 13933,
  "Ġusing": 1825,
  "issance": 6092,
  "ild": 654,
  "erman": 1008,
  "Ġproceeds": 13155,
  "rial": 3393,
  "ĠGaza": 15543,
  "ased": 621,
  "Ġaggressive": 9410,
  "Ġdogs": 9666,
  "Ġscholar": 8339,
  "Ġbook": 1308,
  "Ġ1904": 8542,
  "Ġuniversity": 4750,
  "Ġdawn": 13365,
  "ĠMadonna": 4001,
  "ĠTechnology": 11764,
  "Ġsinger": 3628,
  "amous": 15171,
  "Ġhoney": 12650,
  "osystem": 14028,
  "Both": 14450,
  "oral": 6757,
  "illing": 5374,
  "ĠDynasty": 15635,
  "ĠWalker": 8442,
  "Ġadvanced": 4940,
  "ĠPearson": 15396,
  "Ġfriendly": 8023,
  "iment": 1726,
  "Ġunlik": 10169,
  "Ġwelfare": 15387,
  "ĠMag": 2638,
  "izable": 15878,
  "Ġpeaking": 8955,
  "Ġfeatured": 2375,
  "bec": 7185,
  "Ġextensively": 10847,
  "Ġaired": 4612,
  "Ġinfantry": 5190,
  "Ġboyfriend": 11323,
  "ros": 3958,
  "Ġstronger": 9774,
  "usic": 7163,
  "Ġcase": 2331,
  "Ġreport": 1221,
  "ĠThese": 1888,
  "Ġcensus": 11152,
  "erness": 12688,
  "ĠGall": 5040,
  "00": 349,
  "ĠFurthermore": 9381,
  "Ġmerchant": 8721,
  "Ġfiction": 4966,
  "Ġmysterious": 12546,
  "ĠAs": 896,
  "Ġplan": 1667,
  "ĠLevel": 15987,
  "fires": 15972,
  "Ġinstruction": 13053,
  "ĠProgram": 8891,
  "Ġnearby": 3828,
  "Ġmodest": 12467,
  "Ġaerial": 9331,
  "Ġdisappeared": 11853,
  "Ġspring": 5050,
  "Ġhaving": 1639,
  "Ġmaneuver": 13342,
  "Ġdoubled": 15259,
  "Ġassembled": 9788,
  "uring": 540,
  "@": 39,
  "otion": 11128,
  "ĠRelations": 13625,
  "ĠSerge": 12091,
  "adows": 12620,
  "rapped": 9467,
  "Ġpoorly": 8500,
  "Ġhosp": 12227,
  "ĠLear": 14036,
  "ĠTaiwan": 11779,
  "Ġvary": 6834,
  "lege": 1972,
  "oard": 6131,
  "ald": 1689,
  "Ġthermal": 15833,
  "Ġexpect": 6938,
  "oner": 15943,
  "Ġreun": 7815,
  "ant": 387,
  "Ġtrying": 4726,
  "Ġargument": 7938,
  "ĠGener": 1779,
  "Ġchoir": 11505,
  "inist": 2519,
  "onic": 3649,
  "Ġintegrated": 12167,
  "Ġrelease": 1493,
  "bird": 9154,
  "Ġassemb": 7092,
  "ĠRather": 15163,
  "Ġcomplicated": 11469,
  "Ġasked": 2858,
  "Ġatt": 620,
  "roke": 7804,
  "Ġsubjected": 15533,
  "Ġ25": 1318,
  "ĠBoat": 9920,
  "Ġinstrument": 4591,
  "ĠMV": 11639,
  "Ġreplied": 9759,
  "ĠNative": 8545,
  "inary": 6000,
  "ue": 483,
  "rison": 2191,
  "ĠSecurity": 10298,
  "ĠStewart": 7695,
  "Ġmotorway": 13804,
  "ĠZh": 11499,
  "ĠFr": 10594,
  "Ġcentimetres": 15423,
  "ĠMurray": 7532,
  "phal": 11604,
  "ĠShelley": 13116,
  "ĠLisa": 6947,
  "Ġsuc": 4392,
  "Ġpublishers": 15910,
  "Ġmaritime": 14994,
  "ĠIts": 3509,
  "opter": 7770,
  "fish": 8777,
  "Ġresidential": 7722,
  "Ġhurt": 12391,
  "Ġwet": 8197,
  "iggins": 12888,
  "orship": 4980,
  "Ġsupporter": 13212,
  "ims": 3773,
  "Ġnature": 3528,
  "Ġremarks": 15046,
  "Ġ152": 9414,
  "Ġsignificance": 10390,
  "ĠLennon": 7792,
  "Ġunveiled": 12950,
  "ĠDue": 6154,
  "Ġhonorary": 12895,
  "Ġseat": 5200,
  "Ġage": 2081,
  "Ġvital": 11236,
  "Ġ54": 4872,
  "ĠCyclone": 11961,
  "Ġfinds": 5318,
  "Ġstrict": 8919,
  "ĠTrad": 11876,
  "Ġcoat": 9798,
  "Ġ1923": 7990,
  "ĠOrchest": 10786,
  "Ġheavier": 12332,
  "Ġhour": 3554,
  "ĠA": 263,
  "Ġgre": 15221,
  "Ġallows": 5862,
  "ĠHanna": 14704,
  "ĠAaron": 13264,
  "iv": 295,
  "rection": 12804,
  "ĠArn": 7183,
  "ached": 1437,
  "ĠPlat": 12838,
  "oded": 10868,
  "Ġvariations": 11302,
  "ora": 5744,
  "Ġring": 4631,
  "Ġ145": 11054,
  "ĠNobel": 13348,
  "ĠRe": 782,
  "teg": 15927,
  "aulted": 14780,
  "æ": 166,
  "ĠUC": 11194,
  "Ġmovies": 9853,
  "Ġsuddenly": 10817,
  "ĠStreet": 2009,
  "Ġgarage": 14693,
  "Ġpatrol": 6601,
  "Ġdeter": 7841,
  "Ġcyclones": 10422,
  "ream": 1933,
  "Ġpoly": 6431,
  "ĠIsland": 2738,
  "Ġpositions": 3846,
  "inae": 13598,
  "Ġalcohol": 8633,
  "ĠLogan": 13615,
  "ledge": 4696,
  "Ġ59": 5500,
  "iasm": 15014,
  "Ġrestoration": 8607,
  "Ġdirectly": 3826,
  "r": 89,
  "Ġaccounting": 15962,
  "è": 168,
  "Ġcompound": 10312,
  "Ġwriter": 3106,
  "Ġpin": 8016,
  "Ġachievement": 12457,
  "ills": 2452,
  "ĠSyria": 10250,
  "ĠFriedrich": 12039,
  "Ġsiblings": 15073,
  "mented": 8756,
  "jamin": 8127,
  "iction": 2488,
  "Ġlevel": 1614,
  "ics": 808,
  "ĠPirates": 14271,
  "Ġforty": 8391,
  "Ãł": 12694,
  "Ġpeak": 2334,
  "ffield": 10138,
  "ĠQuar": 11000,
  "Ġunderneath": 14443,
  "Ġpedest": 13772,
  "Ġoperations": 3240,
  "held": 11335,
  "#": 10,
  "ĠHand": 8040,
  "rants": 8515,
  "Ġorders": 4891,
  "Ġ1992": 3801,
  "Ġvoy": 9284,
  "and": 346,
  "ricts": 9907,
  "Ġlacks": 13438,
  "Ġacknowledged": 9345,
  "Ġlight": 1800,
  "ĠSkin": 11603,
  "Ġfib": 14063,
  "Ġabsent": 10364,
  "Ġsays": 4455,
  "Ġcalc": 5834,
  "vous": 15478,
  "Ġwarning": 6879,
  "Ġvictim": 10350,
  "ologists": 7733,
  "ĠSr": 13796,
  "aine": 4174,
  "ĠCon": 938,
  "ĠColl": 6435,
  "Ġarbit": 14013,
  "ĠNatural": 9871,
  "join": 9599,
  "ĠRain": 6877,
  "ĠCollect": 14168,
  "ĠMidd": 11188,
  "ĠRom": 4842,
  "ishna": 15021,
  "Ġdestroying": 9912,
  "Ġcommanded": 6766,
  "Ġfailure": 5039,
  "Ġvoiced": 8416,
  "Ġcongress": 11189,
  "Ġflags": 13966,
  "ĠGay": 10714,
  "ĠAmerican": 985,
  "ĠDor": 7164,
  "itiz": 4129,
  "Ġdisabled": 12435,
  "Ġcitizens": 5584,
  "ĠImm": 15413,
  "Ġsacrif": 10566,
  "Ġtouchdown": 5385,
  "Ġresembles": 14459,
  "Ġplant": 3375,
  "ĠHarrison": 4325,
  "olesc": 14652,
  "ĠVariety": 14670,
  "inal": 659,
  "Ġpolicy": 4314,
  "Ġsale": 7144,
  "Ġsheep": 11775,
  "ĠOn": 825,
  "ĠBart": 4954,
  "ĠÅł": 14591,
  "Ġrevenue": 9090,
  "Ġunnamed": 14268,
  "old": 650,
  "Ġofficers": 3357,
  "Ġmade": 781,
  "ĠSmy": 15377,
  "ĠâĢĿ": 6650,
  "ĠDeath": 6493,
  "Ġwithout": 1645,
  "ĠFarm": 9426,
  "ĠCentre": 7157,
  "iper": 9657,
  "ayer": 4788,
  "16": 10329,
  "ĠDisc": 6802,
  "Ġast": 4983,
  "vet": 10662,
  "anted": 10792,
  "adow": 6315,
  "shore": 9294,
  "vey": 3313,
  "ĠBosnia": 13244,
  "Ġmind": 4206,
  "Ġstaged": 12509,
  "Ġacids": 14348,
  "Ġsculpt": 6122,
  "achelor": 13594,
  "Ġports": 9218,
  "Ġpounds": 7833,
  "ĠDodgers": 15369,
  "asion": 2527,
  "Ġof": 238,
  "Ġexpress": 5102,
  "ritic": 11124,
  "ĠJimmy": 9313,
  "Ġlaun": 2383,
  "Ġships": 1832,
  "Ġimmigrants": 12791,
  "Ġsubtropical": 12519,
  "idan": 15822,
  "Ġstyl": 11040,
  "ĠX": 1542,
  "Ġaccused": 6618,
  "opard": 12214,
  "ula": 2376,
  "Ġpain": 2162,
  "oor": 2484,
  "Ġarrive": 8815,
  "Ġguitars": 12689,
  "ript": 2133,
  "ĠColon": 4844,
  "Ġcoastal": 6100,
  "ĠCl": 990,
  "Ġhypothes": 9461,
  "orted": 11427,
  "Ġproportion": 10611,
  "Ġunrel": 12632,
  "Ġcommand": 1440,
  "ĠByzant": 5571,
  "Ġmarkets": 9553,
  "Ġamendment": 13925,
  "Ġdismiss": 5055,
  "akers": 5266,
  "Ġtempor": 7734,
  "ĠFilming": 12733,
  "Ġr": 370,
  "Ġaftermath": 9339,
  "ĠBrian": 5739,
  "ante": 8153,
  "atty": 12067,
  "Ġsigning": 8355,
  "eton": 8456,
  "ĠBrid": 12055,
  "Ġreunited": 15199,
  "ET": 14502,
  "itness": 4476,
  "lement": 4897,
  "ĠCruz": 15354,
  "af": 1490,
  "ĠFinland": 9886,
  "ĠBurn": 5364,
  "Ġhost": 2311,
  "Ġnaming": 10959,
  "Ġadvant": 4984,
  "½": 129,
  "ĠNHL": 5594,
  "Ġfinger": 13205,
  "ĠCIA": 15821,
  "ampion": 4814,
  "order": 3396,
  "ĠMe": 1223,
  "Ġwhereas": 7838,
  "Ġvulner": 8835,
  "Ġannounced": 1979,
  "ĠSever": 4082,
  "Ġprinting": 12887,
  "Ġdramatically": 15661,
  "ĠNetherlands": 6992,
  "ĠMiller": 5664,
  "ĠFa": 12713,
  "Ġ78": 6021,
  "hetic": 6479,
  "ryst": 5761,
  "Ġrer": 14802,
  "Ġevident": 10719,
  "ĠGil": 5478,
  "aya": 7153,
  "ĠCharlie": 8159,
  "ĠThom": 2171,
  "ĠAmy": 9053,
  "agon": 3694,
  "Ġspell": 12270,
  "Ġd": 251,
  "chers": 6244,
  "ĠThere": 1661,
  "ainted": 14545,
  "Ġinstead": 2206,
  "Ġconflicts": 11087,
  "Ġens": 3619,
  "Ġdef": 785,
  "Ġexc": 2626,
  "ĠPort": 2368,
  "unt": 2939,
  "ĠYears": 9836,
  "down": 3563,
  "Ġenv": 2968,
  "ĠAnat": 12770,
  "Ġcenters": 9937,
  "Ġwriters": 4188,
  "amas": 9761,
  "Ġexplo": 8078,
  "Ġresearch": 3010,
  "elles": 15722,
  "ĠRobinson": 7024,
  "ĠKnow": 7937,
  "ĠVictoria": 4521,
  "Ġfewer": 9354,
  "Ġ350": 9698,
  "Ġpeople": 1127,
  "ĠÂ": 1444,
  "ĠDakota": 13070,
  "ĠHill": 2877,
  "mate": 7507,
  "ipelago": 15941,
  "Ġrelied": 12908,
  "pping": 5400,
  "ĠAbbey": 9061,
  "vent": 1081,
  "ort": 380,
  "Ġpatent": 15964,
  "Ġmissions": 6777,
  "ĠIng": 13617,
  "aints": 7506,
  "ivia": 8844,
  "ĠFun": 12294,
  "ĠKirk": 8732,
  "Ġ,": 220,
  "Ġdistribution": 6124,
  ">": 37,
  "Õ": 151,
  "ember": 566,
  "Ġthro": 11283,
  "Ġclaims": 4731,
  "uating": 10042,
  "Ġcounty": 4457,
  "ĠDak": 10077,
  "ĠÃī": 12113,
  "ĠScreen": 13425,
  "Ġevacuate": 15536,
  "Ġpractice": 3845,
  "ĠRecording": 7146,
  "Ġanyone": 7385,
  "Ġblockade": 12773,
  "Ġcentered": 11712,
  "Ġcats": 13086,
  "ĠIndies": 8699,
  "Ġunemploy": 13604,
  "Ġparticipants": 11148,
  "ĠKend": 15839,
  "ĠDenver": 12360,
  "wealth": 7238,
  "Ġtend": 4269,
  "ĠU": 411,
  "ultane": 7375,
  "isher": 3720,
  "Ġtro": 1664,
  "rupted": 8199,
  "Ġmood": 10596,
  "ĠCaribbean": 7961,
  "Ġad": 499,
  "Ġrenamed": 5857,
  "ĠXX": 11545,
  "otypes": 12810,
  "ĠTrophy": 9535,
  "ĠIra": 6671,
  "Ġstripped": 14026,
  "Ġbasement": 14826,
  "Ġsessions": 6656,
  "Ġoccupied": 5464,
  "rang": 8003,
  "Ġpill": 11103,
  "Ġanal": 2995,
  "Ġdecision": 2952,
  "Ġabb": 11957,
  "Ġcoins": 7546,
  "Ġhol": 14494,
  "etball": 5248,
  "Ġla": 4539,
  "Ġ3": 445,
  "ĠCanal": 7982,
  "uments": 3495,
  "Ġyield": 8935,
  "Ġweak": 4902,
  "Ġprisoner": 10305,
  "ices": 1630,
  "ĠDylan": 8968,
  "Ġart": 1034,
  "ĠVern": 13963,
  "Ġconform": 15391,
  "Ġtop": 1459,
  "Ġrepresentation": 10113,
  "ĠNed": 14247,
  "Ġpreparations": 12353,
  "Ġmamm": 7962,
  "Ġinclud": 595,
  "ft": 667,
  "Ġvolunte": 6808,
  "ĠBot": 13460,
  "Ġbattleship": 7382,
  "overy": 12081,
  "Ġuns": 5997,
  "ĠPred": 15009,
  "X": 63,
  "Ġrhy": 6047,
  "om": 270,
  "Ġvisuals": 14928,
  "Ġastron": 7095,
  "ding": 4109,
  "Ġtransfer": 2865,
  "ĠKevin": 6909,
  "ĠSept": 1106,
  "aro": 8880,
  "Ġtwice": 4793,
  "Å«": 9001,
  "ersey": 4118,
  "yler": 8981,
  "aters": 10192,
  "Ġetc": 12344,
  "ĠSaturn": 11115,
  "Ġfles": 11437,
  "ining": 1650,
  "Ġ!": 2117,
  "Ġadministered": 13443,
  "Ġexecutives": 12618,
  "zz": 8141,
  "Ġpositioned": 11946,
  "Ġinhabited": 13968,
  "ĠPerson": 5447,
  "Ġgam": 13003,
  "Ġaboard": 6926,
  "Ġpuzz": 13290,
  "oved": 15803,
  "Ġentered": 3027,
  "able": 624,
  "Ġvideos": 7762,
  "wood": 2274,
  "ealous": 15215,
  "ĠDiana": 15380,
  "ĠCampaign": 9064,
  "ĠTitan": 11303,
  "Ġdissolved": 12852,
  "time": 6071,
  "ĠGabriel": 14274,
  "Ġpoll": 5025,
  "ĠUsing": 13671,
  "ĠAgricult": 13535,
  "Ġmy": 1604,
  "Ġreb": 2325,
  "Ġsee": 2052,
  "ĠMont": 3319,
  "Ġmotor": 5590,
  "ĠPS": 10819,
  "ting": 949,
  "ĠUnited": 898,
  "Ġcelebrity": 14254,
  "ĠGreene": 15921,
  "ED": 13150,
  "Ġsounded": 15159,
  "ĠThailand": 15651,
  "Ġchemical": 6977,
  "Ġaccidentally": 11259,
  "38": 15358,
  "Ġconstit": 3739,
  "ugh": 533,
  "Ġpurely": 15730,
  "Ġ135": 10758,
  "opal": 13473,
  "Ġ77": 5675,
  "idge": 12704,
  "ĠScots": 11008,
  "ĠAk": 6697,
  "lands": 1940,
  "Ġalien": 7239,
  "Ġinaugural": 11632,
  "Ġinsc": 7906,
  "ĠDart": 14972,
  "Ġ28": 1834,
  "ym": 4121,
  "aku": 12090,
  "itive": 1870,
  "ĠFish": 11422,
  "Ġhit": 2098,
  "oul": 2568,
  "Ġproducing": 6040,
  "ĠCele": 15418,
  "Ġtreated": 7509,
  "Ġnearest": 13975,
  "Ġ1963": 6127,
  "ĠKarn": 15638,
  "Ġbuild": 1199,
  "Ġguests": 11352,
  "Ġ140": 7529,
  "owever": 827,
  "Ġpos": 761,
  "Ġvice": 7869,
  "Ġ6": 616,
  ".@": 529,
  "Ġpaint": 6042,
  "bro": 6240,
  "Ġlandfall": 6057,
  "ision": 779,
  "Ġreaders": 8973,
  "Ġnickel": 14486,
  "ĠArt": 2849,
  "Ġwaves": 8375,
  "Ġunderlying": 14426,
  "itation": 3603,
  "ĠRoss": 5995,
  "Ġrunning": 3167,
  "Ġagricultural": 8331,
  "Ġmine": 7552,
  "Ġevacuation": 11432,
  "ando": 11145,
  "alling": 9876,
  "thlete": 12848,
  "Ġmanagement": 5177,
  "ĠChan": 14378,
  "Ġnoise": 11954,
  "Ġintent": 7609,
  "é": 169,
  "ĠMcL": 8717,
  "Ġsocial": 2601,
  "ĠNaz": 5791,
  "Ġcreek": 10439,
  "Ġbreakthrough": 15322,
  "ĠJacques": 14069,
  "Ġlakes": 12289,
  "Ġconcentrated": 9643,
  "ĠFlow": 11361,
  "col": 7850,
  "ĠCM": 13143,
  "Ġ143": 15953,
  "if": 365,
  "Ġscreenplay": 11142,
  "bury": 3359,
  "Ġvocal": 4147,
  "Ġthrow": 5570,
  "Ġfus": 15123,
  "Ġseparated": 6932,
  "ĠLud": 12015,
  "Ġromance": 11910,
  "mann": 6267,
  "Ġmanager": 3355,
  "Ġ1845": 14713,
  "Ġ1943": 4466,
  "ame": 407,
  "bi": 10929,
  "ĠDisney": 5520,
  "ample": 2136,
  "Ġfund": 2498,
  "Ġport": 1357,
  "Ġauthor": 1850,
  "iano": 4362,
  "inding": 9122,
  "Har": 13732,
  "aments": 9358,
  "ĠIf": 3194,
  "Ġshallow": 10567,
  "Ġmodern": 2216,
  "Many": 9508,
  "Ġfem": 2094,
  "Ġburn": 4474,
  "ĠFair": 5880,
  "Ġninet": 8390,
  "Ġcom": 360,
  "iences": 3768,
  "Ġdemand": 6689,
  "matic": 15345,
  "ĠÎ": 4986,
  "Ġnewspaper": 4985,
  "Ġcollecting": 12739,
  "Ø": 154,
  "Ġarrest": 4015,
  "ij": 3275,
  "racted": 4356,
  "ĠHarper": 13927,
  "Ġpuzzles": 14969,
  "Ġalert": 14755,
  "Ġpers": 2718,
  "Ġacid": 6384,
  "Ġdevice": 7648,
  "Ġarchitecture": 7106,
  "ĠMagic": 11263,
  "Ġwelcomed": 15461,
  "FA": 4938,
  "Ġwishes": 13112,
  "Ġconfidence": 9997,
  "ĠClass": 4229,
  "Ġobject": 2579,
  "gi": 15432,
  "Ġcab": 5789,
  "illa": 4293,
  "Ġimpact": 4063,
  "ĠMiles": 11219,
  "Ġeducation": 3631,
  "Ġ142": 14414,
  "Ġchem": 4488,
  "Ġplug": 15701,
  "į": 192,
  "rels": 11806,
  "Ġpicture": 6972,
  "Ġá": 13507,
  "Ġtied": 6783,
  "omb": 1555,
  "Ġswe": 4846,
  "Ġpositive": 2730,
  "ĠEld": 11988,
  "Ġcontent": 4420,
  "ĠHIV": 15018,
  "for": 10469,
  "ĠDesign": 7175,
  "Ġ27": 1828,
  "ĠTro": 4115,
  "lights": 10892,
  "Ġrehears": 10374,
  "Ġchann": 12304,
  "Ġabsol": 8274,
  "Ġcategory": 7126,
  "ĠHerman": 12811,
  "oths": 13522,
  "ĠBer": 2618,
  "ĠAndre": 10142,
  "Ġpian": 14573,
  "Ġrejoin": 10749,
  "Ġamphib": 12502,
  "ĠWard": 8443,
  "ĠBrigadier": 13717,
  "ĠPhilippine": 13361,
  "Ġcompanies": 4218,
  "olec": 6836,
  "lection": 2297,
  "Ġoften": 1563,
  "Ġfight": 2085,
  "ital": 1381,
  "Ġhelped": 3183,
  "Ġtune": 11729,
  "ĠBost": 4022,
  "Mich": 15241,
  "Ġpersons": 9715,
  "Ġopin": 4785,
  "ĠKepler": 13526,
  "ĠBrighton": 14775,
  "ulations": 4057,
  "Ġdressed": 9377,
  "Ġrequires": 9232,
  "Ġmanufact": 4857,
  "ecially": 2918,
  "Ġdorm": 14304,
  "ĠSac": 10632,
  "lane": 11079,
  "Ġtorn": 6641,
  "ĠHappy": 15895,
  "ras": 4127,
  "Ġminim": 13659,
  "Ġinterven": 11195,
  "Ġtime": 603,
  "roit": 7338,
  "Ġrestricted": 8760,
  "Ġdowntown": 6737,
  "Ġsuccessfully": 5204,
  "Ġrunner": 12296,
  "ur": 283,
  "ĠQue": 2429,
  "Ġrailroad": 7413,
  "Ġ1971": 5511,
  "ĠWeek": 4571,
  "Ġinto": 606,
  "ĠHarvard": 10126,
  "Ġdoub": 4635,
  "sburg": 10770,
  "Ġtiming": 15872,
  "arthy": 12272,
  "ĠPokÃ©mon": 12575,
  "Tube": 10652,
  "com": 1965,
  "ugu": 13583,
  "ĠSolar": 12313,
  "Ġbirthday": 9736,
  "ĠGovernment": 4745,
  "ĠRA": 5251,
  "Ġ1978": 6016,
  "Ġsuspect": 14456,
  "Ġpartially": 7924,
  "Ġsucceeded": 5969,
  "Ġspeculation": 11521,
  "Ġdeclaring": 13601,
  "Ġadmission": 15781,
  "Ġbench": 12718,
  "Ġeducational": 9543,
  "Ġruler": 10159,
  "Ġpretty": 8943,
  "Ġknows": 11701,
  "ĠLady": 5850,
  "other": 863,
  "amps": 8487,
  "incoln": 5383,
  "ĠMalta": 11738,
  "Ġduty": 6268,
  "Ġplate": 7740,
  "Ġaffection": 15900,
  "ĠSwiss": 10181,
  "ĠSeattle": 7980,
  "Ġaccess": 2826,
  "Ġvirt": 6077,
  "stock": 15126,
  "Ġnuc": 3882,
  "Ġisol": 5831,
  "ĠMcCain": 14081,
  "arded": 11984,
  "Ġsit": 1858,
  "Ġman": 583,
  "Ġpursuing": 15578,
  "Ġvoices": 10294,
  "Ġæ": 14902,
  "hart": 11808,
  "ĠMajor": 3942,
  "ĠMaj": 9143,
  "Ġrapper": 13561,
  "Ġanc": 3527,
  "Ġbeauty": 10689,
  "Ġimmediate": 7167,
  "ovich": 13676,
  "Ġopening": 2546,
  "Ġhorizont": 11310,
  "ĠNBA": 6464,
  "ilib": 15993,
  "Or": 15636,
  "iece": 7903,
  "ĠSingle": 14300,
  "Ġcast": 1683,
  "Ġcontroversial": 7328,
  "ĠMaple": 15172,
  "mer": 505,
  "ĠCock": 15378,
  "Bl": 13412,
  "Ġlinking": 15218,
  "Ġweekend": 7170,
  "ĠSar": 3968,
  "ĠHolocaust": 14804,
  "ĠTruman": 13029,
  "ĠCooper": 7372,
  "ĠPun": 14096,
  "Ġpump": 12767,
  "Ġcustom": 8302,
  "enberg": 11411,
  "Ġanthem": 11907,
  "Ġ134": 12163,
  "Ġexper": 1486,
  "Ġindicates": 9465,
  "ĠFree": 7396,
  "mes": 6756,
  "Ġgiving": 3731,
  "ures": 914,
  "Ġstudents": 2912,
  "Ġstorylines": 13713,
  "ba": 5370,
  "Ġchoices": 14336,
  "ĠGlen": 9958,
  "Ġchances": 13740,
  "kh": 10928,
  "erous": 2505,
  "ennium": 9485,
  "ĠPeace": 9320,
  "ĠGiant": 15522,
  "Ġhor": 2535,
  "Ġreview": 1378,
  "man": 590,
  "Ġsubstitute": 11007,
  "Ġproclaim": 9809,
  "ĠBrown": 2711,
  "Ġinstall": 6081,
  "ĠBi": 7501,
  "Ġdece": 10223,
  "Ġgoal": 2350,
  "Ġannouncement": 9462,
  "ĠMo": 2744,
  "ĠSouthampton": 14445,
  "Ġspeakers": 14416,
  "Ġfocus": 3360,
  "ge": 420,
  "Ġorganization": 4592,
  "Ġthis": 556,
  "olan": 12282,
  "Ġit": 343,
  "ĠNBC": 7502,
  "Ġcomposition": 5840,
  "ĠMP": 8053,
  "Ġcluster": 15043,
  "Ġusers": 10021,
  "ĠLab": 5684,
  "Ġhorizontal": 13040,
  "ĠAx": 9894,
  "ĠGuinea": 10413,
  "Ġpray": 15392,
  "Ġfal": 7016,
  "encer": 11766,
  "Ġperformers": 12515,
  "Ġpolicies": 7867,
  "ĠUSS": 7408,
  "ĠSnow": 8806,
  "Ġquit": 13545,
  "Ġ199": 706,
  "fect": 4178,
  "ortion": 11700,
  "Ġfrog": 13182,
  "Ġcrow": 4394,
  "ĠApollo": 10995,
  "ĠTre": 3944,
  "Ġbus": 1826,
  "Ġfeel": 2753,
  "Ġstepped": 14098,
  "Ġexplosion": 8540,
  "ĠPast": 10853,
  "ĠRemix": 14861,
  "ility": 1184,
  "Ġredes": 9990,
  "Ġibn": 13569,
  "Ġ?": 2837,
  "ĠPierce": 14396,
  "Ġreveals": 7593,
  "Ġopposed": 4903,
  "Ġties": 10907,
  "Ġcommanding": 10161,
  "She": 11562,
  "ĠSports": 7105,
  "Ĵ": 197,
  "Ġdeliberately": 12314,
  "Ġpil": 2929,
  "orer": 8769,
  "ha": 2969,
  "Ġ000": 794,
  "par": 1601,
  "eman": 5966,
  "Ġprogression": 13757,
  "ĠAmerica": 1974,
  "Ġcolumns": 10732,
  "eries": 12334,
  "unicip": 5974,
  "Ġsus": 14048,
  "Ġafternoon": 7731,
  "ĠMing": 14296,
  "ĠGaz": 13190,
  "Ġspacecraft": 12175,
  "Ġencouraged": 7278,
  "yond": 4444,
  "Ġhanded": 7646,
  "Ġthreat": 2545,
  "Ġdivorce": 10922,
  "ĠBranch": 11184,
  "una": 7440,
  "Ġbroad": 2108,
  "rest": 1721,
  "Ġkeyboard": 12738,
  "isure": 15992,
  "Ġpreparation": 8594,
  "Ġmissiles": 14194,
  "icit": 6488,
  "fr": 12935,
  "Ġdrop": 5333,
  "Ġcancer": 7364,
  "Ġtrees": 4707,
  "Ġmos": 11624,
  "Ġretrie": 14066,
  "Ġguarant": 9397,
  "Ġaccumulated": 15486,
  "ved": 679,
  "Ġgenera": 12820,
  "oth": 699,
  "Ġhitting": 9760,
  "Ġsum": 1927,
  "ĠRodrig": 12656,
  "Ġcycle": 7474,
  "Ġoverl": 5949,
  "ĠPercy": 12506,
  "ĠGuerr": 15429,
  "Ġbell": 10701,
  "rating": 7907,
  "rox": 13817,
  "ĠAT": 10691,
  "ĠEdmonton": 13649,
  "Ġnovel": 2661,
  "ĠOtto": 13362,
  "ĠChase": 13500,
  "awn": 3976,
  "Ġlaunched": 3537,
  "um": 347,
  "itz": 2723,
  "Ġrecalled": 6286,
  "osp": 1845,
  "Ġacceptance": 12711,
  "Ġworldwide": 4729,
  "ĠRight": 13323,
  "me": 1633,
  "lying": 2890,
  "ĠSug": 10487,
  "okes": 8704,
  "ĠAdministration": 9479,
  "ique": 2714,
  "isa": 13557,
  "Ġreson": 12743,
  "ĠJefferson": 10359,
  "ration": 1753,
  "ĠSel": 6043,
  "Ġrelieved": 11697,
  "Ġcommunist": 10185,
  "ĠMa": 3930,
  "Ġrocks": 10225,
  "luence": 14918,
  "ĠHeadquarters": 12802,
  "ĠMany": 3725,
  "Ġpoem": 5892,
  "Ġcarrying": 5999,
  "Ġsenior": 4723,
  "Ġheir": 10048,
  "Ġsilence": 15070,
  "gers": 5182,
  "ĠKil": 12367,
  "aves": 2390,
  "ĠNext": 10563,
  "ĠCarn": 12882,
  "yan": 11573,
  "Ġfinale": 7918,
  "ou": 255,
  "ĠGate": 9504,
  "Ġsatellite": 8898,
  "agonist": 6664,
  "ĠWol": 8504,
  "ĠWander": 14832,
  "Ġpotentially": 10584,
  "Ġacclaim": 6647,
  "run": 9688,
  "Ġrecre": 8481,
  "Ġkids": 12235,
  "oon": 1541,
  "Ġeliminate": 13679,
  "Ġlaunch": 5020,
  "Ġbranch": 5641,
  "lessly": 13552,
  "Ġformed": 2204,
  "Ġcow": 11205,
  "Ġmake": 1410,
  "Ġhal": 6960,
  "abama": 7933,
  "Ġintrig": 15589,
  "ĠTintin": 12355,
  "Ġmen": 1413,
  "Ġadequate": 15775,
  "Ġwick": 4435,
  "Ġdirect": 1069,
  "ĠSyrian": 15102,
  "ĠHubbard": 12420,
  "pon": 7362,
  "ap": 390,
  "Ġenc": 2213,
  "Ġpresence": 4090,
  "Ġimperial": 8437,
  "ĠEU": 13800,
  "Ġtrail": 9823,
  "Ġoverse": 6359,
  "ĠSummer": 5665,
  "ĠNa": 8979,
  "mission": 7702,
  "Ġquad": 9930,
  "Ġcommands": 15350,
  "Ġ1820": 14924,
  "Ġattack": 1122,
  "ĠCollins": 9940,
  "Ġorganize": 15181,
  "uture": 2619,
  "Ġalter": 7985,
  "Ġindivid": 2369,
  "Ġally": 13363,
  "ird": 954,
  "anz": 15107,
  "Ġsections": 6118,
  "Ġconference": 5616,
  "Ġroyal": 3827,
  "Ġ49": 3721,
  "Ġ1921": 7325,
  "Ġbadly": 8754,
  "Ġdinner": 11078,
  "Ġadminist": 3429,
  "Ġelectric": 4397,
  "ender": 6155,
  "ĠEdward": 3262,
  "Ġdocuments": 8511,
  "add": 6425,
  "Ġloud": 11242,
  "ĠHaz": 10534,
  "one": 604,
  "Ġ33": 3235,
  "Ġknew": 5755,
  "ĠBet": 3641,
  "ĠBro": 1313,
  "more": 4927,
  "Ġcontrad": 12254,
  "ĠWarsaw": 14320,
  "ĠLtd": 13281,
  "play": 2075,
  "Ġplain": 9623,
  "Ġexecution": 9306,
  "reater": 3488,
  "ty": 987,
  "Ġproduction": 1632,
  "Ġgrow": 2177,
  "riend": 1462,
  "Ġconsum": 6225,
  "Ġ1996": 3599,
  "ĠAnne": 7142,
  "Ġtri": 1522,
  "ĠSan": 2330,
  "Ġdiff": 7992,
  "oton": 14560,
  "ĠEaster": 14163,
  "Ġfears": 12914,
  "Ġprocesses": 10525,
  "leted": 11931,
  "ĠMac": 2620,
  "rical": 3906,
  "Ġcrash": 6782,
  "ĠCroatia": 7589,
  "Ĳ": 195,
  "ĠXI": 12528,
  "vers": 1659,
  "Ġmassacre": 13396,
  "ole": 1961,
  "Ġforward": 3315,
  "usty": 12677,
  "ĠFormula": 13883,
  "Ġ09": 7452,
  "iter": 2976,
  "ocated": 5007,
  "nery": 12690,
  "Ġag": 546,
  "Ġbiography": 11421,
  "Ġcover": 1520,
  "outs": 5339,
  "Ġmodels": 5906,
  "ournal": 3095,
  "icer": 8373,
  "ĠRaid": 12828,
  "Ġharvest": 15604,
  "ĠServ": 3284,
  "ĠLeaf": 11113,
  "Ġexempl": 15770,
  "Ġroutes": 6249,
  "orth": 691,
  "ĠTrade": 10974,
  "ctions": 6014,
  "Ġfortifications": 11970,
  "iner": 5013,
  "ady": 12945,
  "Ġcontroller": 15884,
  "ĠFrancisco": 5432,
  "Ġcommercial": 3039,
  "Ġroad": 1651,
  "ĠMC": 13042,
  "Ġgets": 7459,
  "psons": 5973,
  "Ġwinning": 3088,
  "osph": 10932,
  "Ġwool": 14489,
  "Ġarrested": 6334,
  "Ġeleph": 12732,
  "ĠYankees": 9150,
  "Ġbold": 14451,
  "Ġmineral": 15076,
  "cont": 11773,
  "ĠCanber": 14787,
  "Ġsignificantly": 5709,
  "Ġ300": 3151,
  "ĠâĢĶ": 888,
  "Ġmusicians": 6945,
  "ived": 778,
  "ĠAdvent": 7434,
  "ior": 1431,
  "Ġles": 9578,
  "ĠMu": 5681,
  "ĠFrancis": 7057,
  "Ġcorp": 14170,
  "Ġcondemned": 11980,
  "ĠLindwall": 14093,
  "Ġsym": 2673,
  "Ġpredicted": 8903,
  "Ġveh": 3549,
  "Ġbelieving": 9186,
  "Ġget": 1898,
  "oes": 3473,
  "ĠDiet": 15054,
  "Ġdetermined": 5293,
  "adelph": 5212,
  "ĠAlthough": 1962,
  "acle": 8241,
  "ĠRy": 4639,
  "Ġfluid": 13253,
  "ĠCompan": 15707,
  "ĠBusch": 13814,
  "Ġcomposers": 12782,
  "Ġ99": 5580,
  "Ġcontrol": 1768,
  "Ġforces": 1827,
  "ĠCP": 11045,
  "Ġlip": 13291,
  "ĠValley": 4499,
  "OK": 9800,
  "Ġfold": 10969,
  "Ġencounter": 8353,
  "Ġdrowned": 15797,
  "ĠJoan": 11063,
  "ĠWest": 1535,
  "Ġmajority": 3437,
  "ries": 1914,
  "Ġbasic": 6535,
  "¹": 125,
  "Ġannounce": 7701,
  "ĠLion": 9619,
  "Ġdelayed": 7031,
  "espread": 6391,
  "iest": 3560,
  "Ġadvocated": 12678,
  "im": 289,
  "Ġrecommended": 6376,
  "hatt": 7687,
  "where": 9089,
  "Ġcapabilities": 14277,
  "Ġpublicly": 8253,
  "Ġcircuit": 8535,
  "Ġdeveloped": 1926,
  "raltar": 11710,
  "nd": 226,
  "olas": 7826,
  "Ġrocket": 12970,
  "Ġ*": 6916,
  "Ġfif": 2281,
  "ograph": 1567,
  "ĠSchum": 11055,
  "sh": 1421,
  "onica": 9685,
  "ĠTim": 4344,
  "ĠSri": 12472,
  "Ġlocomotive": 13232,
  "ĠLynch": 13842,
  "eb": 1088,
  "asant": 9302,
  "ĠMuch": 9217,
  "uz": 3231,
  "ob": 709,
  "Ġpit": 3636,
  "ino": 2358,
  "Ġsanct": 15120,
  "Ġliquid": 9307,
  "Ġtrough": 9704,
  "Ġ1871": 12699,
  "Ġdial": 5357,
  "reck": 6925,
  "Ġbelieves": 7331,
  "ĠCz": 7881,
  "Ġexperiences": 7505,
  "ĠKrist": 11417,
  "ĠInf": 3086,
  "Ġcircular": 11064,
  "ĠKingdom": 2625,
  "brook": 13828,
  "Ġdeclare": 15975,
  "Ġ1905": 8128,
  "otyp": 9098,
  "Ġdetermine": 7102,
  "Ġextension": 6441,
  "Ġgarn": 10470,
  "ail": 649,
  "Ġchorus": 6833,
  "istics": 4156,
  "ox": 1451,
  "Ġfarmland": 15995,
  "ctor": 3423,
  "ĠMyst": 13826,
  "Ġdistingu": 5879,
  "irates": 9651,
  "oeuv": 15506,
  "Ġretire": 5882,
  "rost": 10261,
  "Ġattendance": 8439,
  "Ġtrib": 3132,
  "rib": 676,
  "Ġissue": 2954,
  "ĠÐ": 10456,
  "ression": 1922,
  "ĠLes": 5314,
  "Ġattrib": 4917,
  "ĠNewport": 13235,
  "Ġresponsibility": 6871,
  "Ġperform": 882,
  "isive": 10290,
  "Ġinternational": 2855,
  "ĠForest": 6433,
  "Ġarmored": 8708,
  "Ġcivilization": 15844,
  "Ġcontrolled": 5311,
  "Ġhandling": 11125,
  "Ġcountries": 3323,
  "Ġgoaltend": 15050,
  "ĠHung": 4043,
  "Ġreveal": 9854,
  "Ġmansion": 12333,
  "agonal": 14979,
  "ne": 632,
  "adequ": 14234,
  "Ġrecommendation": 15385,
  "ĠSold": 13921,
  "Ġlanguage": 3156,
  "Ġbe": 314,
  "Ġlonger": 3210,
  "ac": 275,
  "Ġyear": 563,
  "Ġestim": 2439,
  "ples": 3706,
  "led": 932,
  "Ġtask": 5116,
  "Ġdefended": 7521,
  "ĠAng": 1704,
  "Ġtom": 12460,
  "iden": 12860,
  "ĠWhat": 5154,
  "ĠÃĨthel": 9813,
  "ĠSquad": 12281,
  "Ġcontest": 5729,
  "ronic": 4546,
  "ipped": 10571,
  "ĠPol": 1780,
  "Ġperson": 1343,
  "Ġvoice": 3304,
  "Ġestab": 1529,
  "ona": 3750,
  "Ġcomplete": 3008,
  "Ġremn": 7154,
  "Ġsample": 10226,
  "ĠCharl": 4575,
  "Ġscream": 15617,
  "ĠSwedish": 7461,
  "Ġcurren": 8990,
  "ĠAlfred": 8329,
  "ĠEmpire": 3601,
  "Ġlinked": 7596,
  "ike": 813,
  "Ġwonder": 10269,
  "Ġ162": 10640,
  "Ġhockey": 8007,
  "Ġtells": 4513,
  "ĠView": 13657,
  "Ġcle": 3863,
  "aniel": 15510,
  "Ġconnect": 9207,
  "Ġprem": 2903,
  "Ġanim": 1857,
  "ĠRP": 10311,
  "Ġdropping": 11881,
  "erc": 5027,
  "Ġexp": 851,
  "Ġfee": 10903,
  "Ġcountry": 1767,
  "Ġper": 515,
  "Ġ1962": 6195,
  "Ġsteam": 5550,
  "Ġmythology": 10797,
  "Ġlegal": 3921,
  "ĠRena": 10545,
  "Ġbuildings": 3309,
  "Ġchose": 4910,
  "unc": 8538,
  "Ġemphasis": 9627,
  "Ġlect": 8505,
  "Ġatmospheric": 13553,
  "Ġcompris": 5861,
  "ĠEach": 5348,
  "Ġhappened": 7607,
  "ĠLut": 14227,
  "ĠLag": 14614,
  "rift": 11031,
  "Ġsubs": 6481,
  "ĠSpit": 13216,
  "ilda": 11284,
  "ution": 1058,
  "ĠMicro": 8618,
  "Ġauthorities": 5285,
  "pt": 442,
  "Ġunsuccessful": 7397,
  "changed": 11405,
  "Ġceremony": 5426,
  "Ġ(": 327,
  "Ġ1960": 3150,
  "Ġadvertisement": 15759,
  "ivision": 1429,
  "Ġbehavi": 7674,
  "Ġgallery": 13156,
  "Ġexhibited": 13115,
  "Ġsequence": 4933,
  "ĠRush": 11960,
  "ĠHond": 13265,
  "ĠAssembly": 6570,
  "Ġvit": 14097,
  "Ġmammals": 11631,
  "ĠRiver": 1725,
  "sts": 10736,
  "Î½": 13407,
  "rogen": 11439,
  "Ġmoney": 2962,
  "Ġcommented": 3659,
  "Ġgenerals": 13523,
  "Ġshif": 6942,
  "\"": 9,
  "Ġsure": 7805,
  "ĠHoly": 7198,
  "ĠNorman": 6931,
  "ĠMarsh": 4853,
  "Ġduo": 9646,
  "Ġpoint": 1727,
  "Ġdiscovers": 9191,
  "Ġstationed": 9443,
  "Ġsailed": 6720,
  "ĠBoth": 3687,
  "Ġsquadrons": 10619,
  "Ġtried": 3875,
  "od": 357,
  "Ġcord": 15316,
  "Ġexplored": 12759,
  "Ġmanag": 2180,
  "Ġtake": 1621,
  "ĠScottish": 4792,
  "road": 3769,
  "Ġconvert": 12537,
  "Ġ107": 11514,
  "Ġcriminal": 6769,
  "ĠDutch": 4577,
  "ĠStandard": 12830,
  "Ġterm": 1432,
  "Ġoccasionally": 6832,
  "ĠNicholas": 10103,
  "Ġstudios": 12057,
  "ĠRou": 2438,
  "Ġclar": 10111,
  "Ġchains": 14633,
  "Ġerrors": 13410,
  "heim": 5648,
  "Ġlocomot": 7626,
  "Ġblocks": 8915,
  "ĠHil": 12977,
  "ĠBelgium": 8129,
  "ĠDie": 5555,
  "Ġengine": 2355,
  "Ġment": 6959,
  "ĠStates": 1120,
  "ĠReform": 13873,
  "ĠFinally": 10391,
  "Ġhind": 10529,
  "There": 5282,
  "Ġminute": 3475,
  "ĠMake": 13709,
  "ual": 818,
  "chi": 10921,
  "Ġsport": 5588,
  "usal": 7891,
  "Ġpromoting": 11178,
  "olved": 4340,
  "Ġwearing": 6637,
  "isco": 4860,
  "otic": 5548,
  "Ġairing": 10365,
  "ĠComple": 13215,
  "Ġuniverse": 7693,
  "Ġfolk": 6593,
  "G": 46,
  "Ġreturns": 6454,
  "Ġour": 3224,
  "Ġairfield": 10098,
  "Ġharder": 15965,
  "Ġreferred": 3598,
  "Ġcruisers": 7721,
  "Ġreflecting": 14967,
  "Ġgranted": 5146,
  "Ġphoto": 11702,
  "ropolitan": 7706,
  "Ġcanal": 8112,
  "iker": 15256,
  "ĠVo": 12035,
  "lish": 1264,
  "ĠArts": 6106,
  "ĠCzech": 8747,
  "ania": 7355,
  "ĠShe": 942,
  "ĠSh": 845,
  "imm": 9750,
  "ĸ": 201,
  "bers": 3217,
  "Ġdamage": 2332,
  "Ġcoin": 3392,
  "Ġlegs": 7522,
  "ĠSunderland": 14992,
  "tains": 11088,
  "orced": 6767,
  "Ġ138": 12096,
  "ĠArctic": 13942,
  "IT": 14409,
  "Ġhurricane": 2655,
  "Ġrevolutionary": 11588,
  "Ġreligious": 3741,
  "ourney": 5593,
  "cess": 1759,
  "Ġ1944": 4204,
  "ist": 359,
  "Ġfail": 3111,
  "Ġglobal": 6853,
  "Ġmight": 2965,
  "Ġsect": 13181,
  "ople": 1015,
  "Ġalumin": 14885,
  "EC": 8685,
  "Ġmuch": 1325,
  "Ġparticipating": 12267,
  "Ġtur": 3847,
  "Ġsongwriter": 10023,
  "Ġowner": 6329,
  "apan": 1349,
  "Ġrespective": 10085,
  "ĠGraham": 8752,
  "Ġconvicted": 11608,
  "ĠThey": 1224,
  "ĠAnthony": 7655,
  "ishi": 14403,
  "ĠLesser": 14998,
  "Ġasp": 3927,
  "ĠFlorence": 13373,
  "kn": 4148,
  "ĠDam": 4702,
  "Ġemployee": 14151,
  "Ġwitnesses": 11923,
  "Ġwebs": 4386,
  "ĠArchae": 13429,
  "Ġscient": 3611,
  "ĠNewfoundland": 13544,
  "Ġpool": 8195,
  "Ġskiing": 14892,
  "Ġcircum": 6683,
  "gr": 3366,
  "Over": 12630,
  "Ġloop": 8661,
  "Ġe": 271,
  "Ġformation": 4712,
  "Ġdive": 12741,
  "alf": 1355,
  "Ġmorning": 3995,
  "ĠGlass": 13642,
  "ĠBird": 7888,
  "ĠHardy": 10063,
  "ĠMc": 1297,
  "Ġtemporary": 7123,
  "ĠShin": 12797,
  "Ġpassion": 10434,
  "terior": 9689,
  "Ġleast": 2373,
  "ĠFederal": 6792,
  "á¹": 15904,
  "Ġdeployed": 7457,
  "ĠFA": 6578,
  "BC": 2551,
  "ĠStudent": 15961,
  "Ġsuccession": 9858,
  "ĠR": 316,
  "ĠAlabama": 8055,
  "con": 1769,
  "ĠIGN": 6583,
  "Ġwhat": 1323,
  "Ġjuven": 11156,
  "Ġmolecular": 12674,
  "ĠHitler": 6633,
  "Ġsout": 4372,
  "ĠAdd": 4816,
  "ĠBrunswick": 15818,
  "Ġmes": 14122,
  "Ġweap": 3293,
  "Ġslight": 3587,
  "ĠHarv": 9028,
  "Ġprimitive": 15111,
  "cat": 15732,
  "ache": 7360,
  "ĠJohnson": 3347,
  "Ġoversaw": 15453,
  "ĠPatri": 11020,
  "Ġaug": 14386,
  "ĠChoice": 13032,
  "iveness": 8318,
  "Ġdrum": 3843,
  "body": 7156,
  "Ġdang": 4882,
  "fully": 4851,
  "Ġpric": 8026,
  "ĠEighth": 14546,
  "Ġdegener": 15795,
  "ĠWing": 7892,
  "duct": 2035,
  "ions": 462,
  "iya": 15835,
  "ĠExpl": 12197,
  "This": 6687,
  "Ġfunny": 9512,
  "Ġgrass": 7378,
  "Ġgenerated": 7442,
  "arant": 8985,
  "Ġnaval": 4409,
  "ic": 248,
  "ĠAustria": 7728,
  "ĠLibrary": 7286,
  "IA": 6807,
  "ĠMartin": 3583,
  "Ġpe": 783,
  "ĠIslamic": 10885,
  "ĠStudios": 4801,
  "Ġskill": 10313,
  "ĠGreen": 3189,
  "ĠMcD": 8136,
  "Ġopposite": 6789,
  "ery": 1625,
  "Ġindividual": 3470,
  "Ġvariant": 12910,
  "Ġexact": 5765,
  "tern": 716,
  "ats": 1295,
  "Ġsurfaces": 13735,
  "uther": 7129,
  "itects": 13307,
  "ĠAL": 11739,
  "ĠOri": 10341,
  "Ġeducated": 10901,
  "Ġpartner": 7074,
  "erals": 14175,
  "ĠDemocratic": 5672,
  "ĠJonathan": 9311,
  "Ġposted": 6541,
  "Ġbowled": 12339,
  "Ġdeployment": 13469,
  "Ġcad": 9857,
  "Ġreprodu": 7756,
  "Ġevolved": 8868,
  "Ġscreen": 2868,
  "overn": 926,
  "Ġnost": 15836,
  "Ġreceiver": 14984,
  "Ġbattleships": 6984,
  "ĠMonth": 12106,
  "umber": 4195,
  "ĠProfessional": 13093,
  "Ġdiagnosis": 14990,
  "Ġviolent": 8262,
  "ashes": 9802,
  "Ġvaluable": 10377,
  "Ġ2001": 2598,
  "<eos>": 3,
  "Ġfre": 1617,
  "isle": 14051,
  "Ġspokes": 15740,
  "ighth": 4514,
  ".": 21,
  "Ġwings": 7334,
  "Ġdome": 14807,
  "ĠFrid": 8744,
  "ech": 1518,
  "Ġnegotiations": 7791,
  "Ġphotograph": 7082,
  "amus": 15399,
  "Ġmotivated": 14851,
  "Ġpneum": 15336,
  "Ġgauge": 12881,
  "ĠWallace": 10465,
  "ama": 2379,
  "ĠSaints": 14258,
  "ĠHerm": 13144,
  "ails": 3824,
  "artz": 15209,
  "ĠBeast": 15194,
  "Ġsoldier": 9325,
  "raints": 15786,
  "ĠEdin": 9532,
  "aja": 9476,
  "ĠLions": 15363,
  "Ġnarrative": 7503,
  "Ġ2005": 1996,
  "rine": 7246,
  "ĠCollege": 2852,
  "ĠBanksia": 14727,
  "ering": 1652,
  "ĠRNA": 13189,
  "ĠLeices": 11606,
  "Ġbroadcast": 3177,
  "ĠRussell": 7052,
  "ott": 1383,
  "Ġexperiment": 4907,
  "Ġsuperst": 10840,
  "Ġvariants": 15153,
  "ĠWas": 14519,
  "iles": 3172,
  "Ġjuvenile": 14871,
  "ĠAtlantic": 3330,
  "Ġconclus": 15267,
  "ind": 602,
  "Ġpromised": 9092,
  "Ġanthrop": 14853,
  "ĠBir": 6368,
  "Ġmarble": 15780,
  "Ġor": 395,
  "Ġ123": 13047,
  "Ġfixed": 8897,
  "ulating": 8252,
  "ĠVol": 5546,
  "Ġnick": 5913,
  "ĠErn": 13452,
  "ĠGu": 1433,
  "Ġ79": 6339,
  "Ġtransp": 13630,
  "Ġministers": 12372,
  "ield": 980,
  "Ġeleven": 6907,
  "ĠBooth": 14222,
  "issa": 12899,
  "ĠMcCartney": 9488,
  "ĠHutch": 14664,
  "Ġqueen": 9746,
  "ĠPacific": 3267,
  "aring": 2933,
  "ĠLeon": 6679,
  "Ġ1910": 6561,
  "ith": 305,
  "edom": 5127,
  "esh": 8174,
  "asi": 12623,
  "Ġsatisf": 7023,
  "Ġmyth": 5724,
  "Ġvia": 3384,
  "Ġinformed": 7415,
  "Ġexterior": 12233,
  "ĠWithout": 10998,
  "resp": 4749,
  "Ġrelief": 6258,
  "apolis": 9037,
  "ĠIceland": 11235,
  "na": 1536,
  "Ġgenuine": 14094,
  "Ġswimming": 9811,
  "Ã¡": 2301,
  "Ġtyphoon": 9062,
  "ĠEth": 10750,
  "Ġbot": 8547,
  "ĠBig": 3406,
  "ĠHel": 4035,
  "Ġresponse": 2959,
  "essions": 4573,
  "NC": 10666,
  "ĠBath": 9497,
  "Ġdim": 10656,
  "ĠPrinceton": 11947,
  "Ġ1849": 15505,
  "ĠHawaii": 9901,
  "ĠAirborne": 13697,
  "Ġrap": 3015,
  "Ġep": 797,
  "mosp": 5113,
  "Ġundergo": 13293,
  "Ġhighlight": 6717,
  "Ġimmigration": 15168,
  "Ġaut": 1206,
  "Ġspoken": 10084,
  "sters": 8166,
  "ĠSyl": 12981,
  "ff": 463,
  "b": 73,
  "ĠBrothers": 9822,
  "Ġexpansion": 5021,
  "Ġreflected": 8605,
  "Ġost": 15122,
  "Ġdark": 3206,
  "ĠSecond": 3105,
  "Ġdise": 4290,
  "Ġguards": 12201,
  "Ġmillimeter": 14974,
  "Ġmanages": 12843,
  "Ġrepl": 1423,
  "ophone": 14149,
  "ĠMak": 12413,
  "ta": 6380,
  "Ġbra": 6564,
  "Ġtended": 13910,
  "atar": 12176,
  "ĠJohn": 983,
  "Ġfavour": 5321,
  "Ġadminister": 10723,
  "Ġashore": 11011,
  "Ġsub": 765,
  "ĠHelen": 12178,
  "Ġboilers": 10033,
  "itative": 15273,
  "Ġstory": 1375,
  "ĠJersey": 5035,
  "Ġhalf": 1636,
  "Ġslee": 15888,
  "ĠHotel": 8334,
  "Ġcould": 970,
  "Ġhistorically": 12085,
  "folk": 9199,
  "Ġagg": 4559,
  "Ġfollowers": 10795,
  "amental": 9581,
  "Ġconcerts": 7972,
  "ĠBark": 11832,
  "Ġrival": 4996,
  "ĠDurham": 14939,
  "Ġcounteratt": 13949,
  "Ġexclud": 8843,
  "ĠMinne": 15705,
  "ĠRomans": 13218,
  "Ġallowing": 4078,
  "Ġinches": 4036,
  "uan": 5254,
  "Ġbattery": 6126,
  "Ġenvironmental": 7519,
  "Ġunh": 12320,
  "ĠOmaha": 15229,
  "iley": 6531,
  "Ġpromote": 6421,
  "ĠEle": 7114,
  "Ġwire": 9731,
  "vest": 5896,
  "Sc": 14135,
  "ĠCons": 3898,
  "Ġinherited": 11203,
  "uit": 3852,
  "izes": 4758,
  "Ġturbines": 12824,
  "AS": 4355,
  "Ġwinners": 12023,
  "Ġdarker": 12073,
  "ĠHen": 2103,
  "ĠWii": 9895,
  "Ġperfect": 5411,
  "Ġvariable": 11792,
  "Ġadvance": 3911,
  "Ġenforcement": 14437,
  "ĠCardiff": 10912,
  "Ġword": 3707,
  "orage": 7568,
  "ĠOslo": 10149,
  "iji": 14589,
  "Ġpreservation": 14691,
  "ĠEarly": 3265,
  "Ġseason": 791,
  "ĠâĢĵ": 489,
  "Some": 8733,
  "Ġrealised": 14719,
  "lie": 7464,
  "Ġconfiguration": 15099,
  "Ġreserved": 13647,
  "Ġappearances": 4500,
  "ĠMichigan": 3754,
  "Ġorig": 962,
  "atinum": 6771,
  "Ġmust": 2541,
  "Ġeastern": 2997,
  "ĠJak": 15824,
  "ĠLed": 12442,
  "ivered": 6084,
  "ampa": 12151,
  "IC": 14099,
  "Ġpenet": 9913,
  "mun": 6133,
  "Ġphilosoph": 13707,
  "Ġarticles": 8876,
  "Ear": 13245,
  "aches": 3451,
  "Ġspeaking": 6787,
  "ĠUtah": 10620,
  "Ġgravity": 13441,
  "Ġbronze": 8791,
  "Ġtim": 5502,
  "Ġon": 280,
  "ĠHum": 12441,
  "Ġchild": 1348,
  "ĠPine": 12769,
  "Ġclergy": 11796,
  "Ġfinding": 6171,
  "aign": 1795,
  "Ġexpected": 3648,
  "Ġwhatever": 11862,
  "ĠAtt": 5779,
  "ond": 498,
  "Ġflooded": 9729,
  "adal": 9537,
  "ĠYan": 7428,
  "W": 62,
  "Ġcanceled": 11759,
  "Ġreminisc": 12316,
  "aint": 2980,
  "aser": 10463,
  "Ġimmedi": 2676,
  "Ġrookie": 14116,
  "ĠAdam": 6589,
  "box": 5683,
  "ĠLancaster": 13511,
  "Ġattracted": 6892,
  "ĠMaurice": 13996,
  "ĠKiss": 13962,
  "Ġâģ": 10828,
  "Ġconserv": 15504,
  "Ġbat": 5452,
  "mb": 6553,
  "ËĲ": 12041,
  "Ġpages": 9162,
  "ĠAust": 1003,
  "Ġinterp": 4207,
  "ļ": 205,
  "Î¿": 11391,
  "vement": 3869,
  "Ġthought": 2099,
  "Ġpunishment": 12471,
  "Ġunited": 14606,
  "ĠLook": 10252,
  "ĠConv": 15550,
  "Ġintact": 12930,
  "Ġearly": 1033,
  "force": 13072,
  "itting": 8753,
  "DA": 12020,
  "ĠDevelopment": 5471,
  "Ġemergency": 7462,
  "ĠHess": 14391,
  "aughter": 2697,
  "Ġachie": 2715,
  "Ġplatforms": 9987,
  "ĠAngel": 2485,
  "bin": 15710,
  "Ġdens": 7070,
  "Ġpartnership": 8076,
  "ĠEls": 14850,
  "ifically": 5643,
  "Ġmode": 6607,
  "Ġmob": 5074,
  "â": 162,
  "ĠSi": 8378,
  "ua": 5567,
  "ĠKenn": 4037,
  "rim": 6620,
  "ĠProtection": 13588,
  "Ġkitchen": 13666,
  "Ġspite": 12443,
  "abled": 6918,
  "ards": 1513,
  "ĠKes": 13703,
  "Ġfunctional": 13380,
  "ĠPok": 10920,
  "Ġfract": 11937,
  "ĠBal": 6070,
  "Ġcomp": 466,
  "Ġjunction": 8465,
  "Ġ250": 5754,
  "Ġmild": 11845,
  "riors": 9884,
  "Ġvalley": 6661,
  "hire": 7069,
  "most": 1978,
  "Ġpolar": 9956,
  "Ġbigger": 15238,
  "Ġerror": 10317,
  "Ġ]": 1187,
  "ĠChin": 13242,
  "Ġ1920": 4324,
  "Ġcann": 3345,
  "ĠSimpsons": 5991,
  "inking": 5812,
  "Ġif": 1309,
  "cknow": 6501,
  "Ġpleasure": 13877,
  "Ġdoesn": 7864,
  "Ġbased": 1337,
  "Ġinstrumentation": 13077,
  "Ġkit": 8858,
  "As": 2813,
  "Ġorbit": 8384,
  "ĠPel": 11894,
  "artment": 2489,
  "ocaust": 14046,
  "Ġattempt": 1419,
  "Ġconced": 11900,
  "ĠRecre": 14079,
  "rupt": 4299,
  "ĠUSA": 6943,
  "Ġgrav": 8641,
  "Ġneg": 2434,
  "Ġthoughts": 13935,
  "Ġforeign": 4108,
  "Ġunique": 5356,
  "Ġartificial": 9639,
  "Ġbattlecru": 9533,
  "text": 7044,
  "Ġsending": 9742,
  "Ġanat": 14575,
  "ĠFIFA": 11051,
  "ĠEff": 10464,
  "Ġapproximately": 3247,
  "ĠMean": 5824,
  "ĠKas": 15465,
  "-": 20,
  "Ġparam": 12911,
  "Ġworksh": 14845,
  "ĠRaw": 7744,
  "Ġ122": 12119,
  "ĠHob": 10153,
  "ampton": 11295,
  "Between": 14408,
  "Ġtorpedo": 5121,
  "Ġtravelling": 10975,
  "Ġannual": 3853,
  "ĠRoute": 2628,
  "ĠCuba": 8684,
  "Ġsimple": 5430,
  "child": 12110,
  "Ġsolve": 14797,
  "ĠKay": 14833,
  "Ġsympt": 7775,
  "Ġherit": 10343,
  "Ġobst": 9189,
  "adel": 4403,
  "Ġmagical": 14236,
  "west": 2530,
  "icken": 11347,
  "ĠNas": 11122,
  "Ġeligible": 12173,
  "Ġfinest": 12277,
  "acked": 9279,
  "Ġreader": 12328,
  "raft": 1260,
  "ĠCov": 9611,
  "Ġenormous": 13001,
  "Ġobs": 1955,
  "itic": 11210,
  "ĠAngels": 15754,
  "Ġprevented": 7614,
  "Ġattend": 3348,
  "Ġtier": 15113,
  "ĠGill": 6703,
  "ĠFamily": 6852,
  "ĠMeg": 9820,
  "ed": 223,
  "va": 5392,
  "Ġrisk": 4751,
  "ĠNig": 15806,
  "Ġbene": 3546,
  "aceae": 14898,
  "Ġinterpreted": 10268,
  "ĠHeavyweight": 11315,
  "irable": 15950,
  "Ġparalle": 5179,
  "imum": 3165,
  "Ġvarying": 11803,
  "Ġpsychological": 12673,
  "ĠBaldwin": 13442,
  "Ġdors": 13774,
  "ities": 935,
  "ink": 1110,
  "Ġrel": 748,
  "Ġdomain": 14654,
  "Ġplag": 15010,
  "olen": 9910,
  "Ġhistoric": 7473,
  "ĠSimpson": 7484,
  "ĠValent": 13864,
  "ĠAnt": 3486,
  "Ġbred": 15388,
  "ĠComics": 11790,
  "ĠSurv": 13204,
  "anced": 3715,
  "Ġgo": 930,
  "Ġoperational": 8425,
  "ĠâĢ¦": 10184,
  "Ġdesper": 11703,
  "head": 2218,
  "ig": 293,
  "ĠBow": 3593,
  "Ġprob": 2691,
  "Ġitems": 6112,
  "Ġmigration": 13200,
  "kien": 15545,
  "ag": 351,
  "Ġdrama": 5253,
  "Ġexamination": 11100,
  "Ġstudy": 2896,
  "Ġcelebrations": 15967,
  "Ġauthors": 7337,
  "Ġru": 7510,
  "Ġstands": 7122,
  "ĠPh": 1266,
  "Ġabroad": 11138,
  "hold": 3365,
  "Ġduck": 12943,
  "ĠBarb": 5690,
  "ĠBurton": 10166,
  "ĠJake": 11906,
  "Ġmaximum": 4281,
  "axy": 10105,
  "ĠBruns": 15499,
  "ĠChamber": 7678,
  "Ġhostile": 10987,
  "ĠIntern": 2242,
  "ĠPsych": 12251,
  "Ġsuburban": 14370,
  "ĠActress": 11019,
  "Ġexclusive": 9816,
  "Ġcargo": 8495,
  "Ġareas": 1983,
  "ĠJews": 7045,
  "ĠSouthern": 4152,
  "Ġsuperstructure": 15614,
  "Ġcultures": 13126,
  "Ġov": 12642,
  "Ġ112": 11059,
  "ilera": 12963,
  "Ġengines": 6176,
  "inn": 2532,
  "Ġ104": 9517,
  "¢": 103,
  "Ġproceedings": 13763,
  "Ġframe": 8890,
  "Ġguard": 4971,
  "Ġmainland": 9118,
  "Ġreconstruct": 12864,
  "Ġimag": 5115,
  "Ã¦": 9480,
  "Ġpossibly": 5065,
  "Ste": 12703,
  "Ġlowered": 15214,
  "Ġreturning": 4609,
  "Ġsave": 5743,
  "Ġperf": 12795,
  "am": 273,
  "Ġnaked": 13946,
  "ĠAction": 11551,
  "Ġmic": 5490,
  "Ġcosm": 12250,
  "Ġopposing": 11136,
  "vens": 6910,
  "restrial": 11362,
  "Ġimportant": 2217,
  "ĠTownship": 8037,
  "Ġcreat": 2354,
  "Ġchance": 5702,
  "Ġ52": 4412,
  "ĠSch": 2159,
  "ĠBreak": 11591,
  "ĠOber": 14367,
  "Ġcavalry": 6854,
  "Ġcounties": 9190,
  "omed": 11717,
  "Ġ1931": 7562,
  "ĠJeffrey": 14750,
  "Ġmurdered": 11459,
  "Ġshowing": 5996,
  "Ġfeat": 1028,
  "azing": 9021,
  "Ġpersonal": 3042,
  "Ġinvited": 6369,
  "Ġdown": 1065,
  "Ġadjacent": 8038,
  "ĠGilbert": 7723,
  "Ġmort": 6360,
  "Ġsimply": 4847,
  "ĠAustralian": 2135,
  "Ġstroke": 13078,
  "Ġstructures": 5425,
  "Ġstom": 12477,
  "ĠAmong": 6049,
  "ĠHV": 14922,
  "Ġsin": 13807,
  "ĠEvery": 7391,
  "ĠJar": 9396,
  "anian": 14022,
  "Ġdetached": 13821,
  "Ġsingers": 12932,
  "Ġremainder": 6370,
  "rastructure": 9951,
  "Ã¼r": 9702,
  "ĠCol": 1057,
  "ĠSum": 3867,
  "Ġexperience": 3226,
  "dict": 14399,
  "Bob": 12117,
  "ĠRome": 5726,
  "ĠHur": 9075,
  "Ġstrengthening": 13980,
  "Ġsolutions": 14626,
  "Ġsomew": 6210,
  "Ġrefuge": 7965,
  "Ġorganic": 11928,
  "ĠGi": 5561,
  "Ġtooth": 10880,
  "Ġkn": 730,
  "ĠWalter": 5793,
  "Ġtail": 5486,
  "Ġtrio": 12164,
  "á»ĩ": 12226,
  "ĠDod": 9737,
  "Ġclose": 2305,
  "Ġangle": 9566,
  "Ġmagnetic": 12033,
  "ĠSebast": 14492,
  "Ġ126": 11734,
  "guard": 13399,
  "usted": 7540,
  "ĠBible": 10888,
  "Ġcomplaints": 12840,
  "Ġschedule": 8242,
  "Ġretain": 9031,
  "ĠUt": 7456,
  "ipp": 2492,
  "Ġoverseas": 9255,
  "ĠGlasgow": 12083,
  "ĠCulture": 12731,
  "ĠDoll": 15084,
  "ĠKhan": 8246,
  "ĠNewcastle": 11330,
  "fall": 3947,
  "Ġuse": 1116,
  "ĠReception": 5031,
  "ĠStanley": 6745,
  "Ġnar": 2812,
  "Ġfollowed": 2005,
  "Ġcommissioned": 5239,
  "Ġcount": 1119,
  "Ġstrengthen": 6845,
  "Ġtruly": 11390,
  "aged": 1540,
  "etime": 7831,
  "ĠSlav": 11571,
  "ĠNat": 8173,
  "Ġnone": 6902,
  "Ġnon": 2051,
  "ĠSpongeBob": 14340,
  "Ġcong": 6463,
  "ĠRoll": 9132,
  "Ġmarch": 10371,
  "ĠTaylor": 4992,
  "Ġovers": 7986,
  "Ġdisplays": 10368,
  "line": 1508,
  "mates": 8015,
  "Ġrevol": 8833,
  "ival": 1436,
  "ĠCher": 8931,
  "ĠShar": 13262,
  "Ġresponsible": 3971,
  "Ġand": 245,
  "yles": 5480,
  "Ġcharacteristics": 7255,
  "ĠOutstanding": 9446,
  "Ġscholarship": 12097,
  "Ġstability": 11939,
  "odied": 13184,
  "Ġprompted": 8002,
  "Ġrepublic": 12814,
  "Ġpursued": 11105,
  "Ġ2009": 1566,
  "Ġen": 553,
  "Ġball": 2224,
  "epend": 2111,
  "iant": 3356,
  "ĠCycl": 9699,
  "ality": 2015,
  "Ġvisitors": 7659,
  "ently": 1352,
  "ĠAli": 10330,
  "Ġamong": 1578,
  "Ġreconnaissance": 9050,
  "ĠSerbs": 13838,
  "Ġ101": 11745,
  "ĠGray": 9260,
  "ĠLeeds": 12002,
  "ating": 768,
  "Ġaccompanied": 5418,
  "urd": 9868,
  "Ġboat": 5075,
  "ew": 371,
  "Ġhus": 4329,
  "ĠStyle": 14564,
  "onnell": 13477,
  "Ġallied": 12428,
  "ep": 639,
  "rained": 12463,
  "izers": 12071,
  "Ġphylogen": 15531,
  "Ġ193": 1171,
  "Ġescort": 5962,
  "uns": 13565,
  "Ġreleased": 1040,
  "Ġlasted": 6054,
  "Ġevidence": 2876,
  "Ġstayed": 6797,
  "ĠEllis": 13332,
  "Ġelig": 9950,
  "Ġwaiting": 8974,
  "rium": 11628,
  "Ġblue": 4309,
  "ĠNorm": 4540,
  "Ġdu": 4094,
  "Ġgrossing": 10134,
  "ĠKyle": 11058,
  "Ġedition": 3862,
  "geon": 12157,
  "Ġopt": 4120,
  "Ġplaced": 2406,
  "oper": 3810,
  "ĠResident": 13750,
  "ĠEsc": 12051,
  "Ġsilver": 5093,
  "Ġcontemporaries": 15459,
  "asive": 15406,
  "Ġcredit": 7311,
  "Ġoxid": 11942,
  "Ġyoung": 2124,
  "ĠNewman": 12919,
  "ĠPlaying": 15827,
  "Ġ129": 12162,
  "Ġopportun": 4179,
  "Ġtheater": 9185,
  "erse": 13177,
  "Ġsongs": 1867,
  "ĠPublishing": 13128,
  "Ġ1898": 9660,
  "erek": 14012,
  "Ġunclear": 9691,
  "ĠSoul": 9172,
  "Ġump": 14121,
  "Ġmeat": 8865,
  "ĠRoyal": 2198,
  "ĠCam": 7847,
  "ank": 835,
  "rac": 2659,
  "ĠScouting": 14841,
  "Ġfiring": 7650,
  "ĠWash": 2335,
  "Ġracial": 10477,
  "ĠBerkeley": 13860,
  "ĠHeart": 7179,
  "Ġathlet": 6052,
  "BA": 5006,
  "Ġillness": 8421,
  "Ġlosses": 5721,
  "Ġcausing": 4468,
  "Ġsky": 9403,
  "Ġ167": 10145,
  "ĠDelaware": 9088,
  "Ġcustody": 13258,
  "haps": 5229,
  "ient": 1286,
  "y": 96,
  "warf": 9289,
  "ĠBrand": 7491,
  "Ġmobil": 13922,
  "Ġdrove": 8714,
  "Ã£o": 13643,
  "ĠWy": 7349,
  "Ġcentury": 1209,
  "ĠFlying": 9833,
  "omic": 5815,
  "Ġcoll": 2119,
  "ury": 839,
  "oid": 2800,
  "Ġremin": 11605,
  "Ġexcellent": 8961,
  "ked": 14385,
  "ĠDemocr": 3767,
  "Ġdocumentary": 7113,
  "rust": 15157,
  "Ġpublication": 5677,
  "Ġgates": 12577,
  "ĠArsenal": 6990,
  "A": 40,
  "Ġbottom": 6319,
  "Ġhop": 3063,
  "Ġprovince": 6885,
  "Ġtransit": 13139,
  "are": 634,
  "Ġ61": 5123,
  "ĠCan": 1293,
  "Ġsettings": 14266,
  "ĠMedal": 8167,
  "Ġthemed": 12216,
  "ĠTrust": 8257,
  "Ġpenalty": 7065,
  "Ġcrystal": 14466,
  "Ġwarnings": 10370,
  "Ġelectro": 13314,
  "Ġgen": 1919,
  "Ġownership": 8691,
  "aware": 6557,
  "ilty": 8341,
  "Ġeggs": 7214,
  "Ġthe": 217,
  "Ġautumn": 10158,
  "ĠFlag": 14576,
  "Ġdirection": 3909,
  "cept": 1089,
  "ĠBarrett": 13394,
  "Ġuncon": 10245,
  "Ġseg": 4379,
  "Ġhonor": 5002,
  "Ġbitter": 13088,
  "ĠDover": 15514,
  "ĠDS": 9024,
  "lake": 12212,
  "Ġing": 9510,
  "Ġdisplaced": 10265,
  "Ġtoll": 7852,
  "Ġtrig": 12195,
  "Ġobsc": 9967,
  "ude": 2599,
  "Ġexternal": 9389,
  "Ġphysical": 4494,
  "olves": 13337,
  "Ġisn": 11706,
  "ĠIvan": 10844,
  "Ġsurvey": 6629,
  "Ġfactions": 14699,
  "Ġfrigates": 15290,
  "Ġfins": 15782,
  "ĠGuardian": 8116,
  "Ġnews": 4387,
  "ĠLind": 5176,
  "Ġchurches": 8019,
  "ufact": 4837,
  "Ġpreference": 15671,
  "Ġtonnes": 10174,
  "Ġreceived": 1177,
  "ensing": 15609,
  "ĠDom": 8649,
  "Ġdig": 3515,
  "Ġparad": 15887,
  "Ġfate": 10626,
  "Ġagriculture": 10728,
  "Ġindust": 2388,
  "Ġnickn": 7426,
  "Ġbotan": 14879,
  "ĠGeorg": 4177,
  "rie": 3308,
  "Ġtalks": 10039,
  "Ġregional": 6680,
  "ĠVis": 8848,
  "Ġoutlets": 15211,
  "Ġheart": 3684,
  "ocking": 8832,
  "Ġimm": 3281,
  "Ġvehicle": 6969,
  "Ġholid": 9036,
  "ĠAra": 10143,
  "Ġindependent": 4203,
  "Ġ1866": 12498,
  "Ġregard": 2647,
  "Ġtreaty": 8125,
  "Ġspread": 4560,
  "Ġcontact": 5087,
  "ati": 5859,
  "Ġbackst": 11841,
  "ĠMall": 11158,
  "Ġwaste": 9976,
  "Ġendangered": 14867,
  "Ġindu": 9155,
  "Ġsimultane": 7796,
  "<sep>": 4,
  "Ġrider": 12415,
  "ash": 968,
  "ĠRh": 3054,
  "ĠCommun": 4556,
  "Ġcare": 1298,
  "Ġexplains": 8670,
  "ĠCharacter": 13600,
  "Ġlieutenant": 8460,
  "ĠBeyon": 5795,
  "isconsin": 10861,
  "ĠWillie": 14966,
  "Ġfear": 6226,
  "Ġfrequ": 2901,
  "ico": 5070,
  "Ġ1900": 7079,
  "ĠAustrian": 8940,
  "Ġpaying": 11809,
  "Ġliber": 5042,
  "ords": 1866,
  "Ġironcl": 13706,
  "Ġchambers": 15289,
  "uated": 3617,
  "Ġeasy": 7676,
  "Ġparticularly": 2575,
  "ges": 1730,
  "Ġdeath": 1358,
  "Ġdriving": 6478,
  "emic": 4268,
  "Ġ1840": 11695,
  "Ġclim": 7605,
  "Ġpitcher": 11223,
  "Ġtanks": 6328,
  "Ġnecessary": 5094,
  "Ġtrading": 9904,
  "ajor": 1091,
  "ĠCarlos": 12410,
  "Ġjokes": 13610,
  "Ġthor": 8921,
  "Ġunknown": 4918,
  "Ġmis": 5382,
  "Ġtechn": 2096,
  "Ġreached": 1981,
  "Ġquantities": 13097,
  "ĠDanube": 15484,
  "Ġtoler": 10559,
  "Ġnavigation": 12792,
  "Ġsynd": 8852,
  "ĠCarey": 5557,
  "Ġadmitted": 6333,
  "Ġperiods": 7712,
  "Ġtunnel": 8359,
  "Ġabove": 2741,
  "estern": 1589,
  "Ġquestions": 7289,
  "ĠMelbourne": 7623,
  "ĠÄ": 8340,
  "ĠPas": 11239,
  "Ġstreak": 9847,
  "ropol": 6212,
  "onent": 5105,
  "ĠHok": 12208,
  "ĠLew": 4890,
  "Ġcros": 15326,
  "ĠHunter": 11021,
  "andon": 3646,
  "Ġrows": 15773,
  "ĠBurke": 12048,
  "ĠAllen": 7125,
  "sa": 11151,
  "£": 104,
  "Ġbacteria": 13030,
  "Ġbore": 12054,
  "ĠKom": 14682,
  "Ġobjectives": 12114,
  "Ġloose": 12231,
  "ĠOur": 9701,
  "Ġcor": 1646,
  "ressed": 1989,
  "Ġcompany": 1774,
  "Ġ43": 4226,
  "ĠAgu": 11500,
  "veloped": 14006,
  "Ġdiplomatic": 10841,
  "Ġber": 13608,
  "Ġresp": 1048,
  "ĠJames": 1949,
  "Ġscientists": 8115,
  "Brien": 12563,
  "ĠWay": 4374,
  "idi": 7651,
  "Ġelement": 4822,
  "Ġlic": 5497,
  "Ġlength": 2547,
  "ĠJohns": 15681,
  "cing": 2229,
  "Ġinfl": 10447,
  "<|assistant|>": 7,
  "Ġdeton": 15365,
  "Ġrequest": 5444,
  "Ġboard": 3322,
  "Ġvict": 1764,
  "ĠLove": 3368,
  "Ġgram": 12010,
  "ĠBre": 4747,
  "Ġcustoms": 14568,
  "Ġcity": 1231,
  "Ġredesign": 13282,
  "ĠPlot": 6387,
  "Ġsounds": 6843,
  "ĠYet": 14164,
  "Ġimprisoned": 11084,
  "uing": 3597,
  "Ġrelatives": 10334,
  "Ġnecessarily": 13418,
  "ĠLang": 8942,
  "Ġsupply": 4791,
  "Ġaviation": 13334,
  "ĠGang": 10985,
  "ma": 2767,
  "ĠBest": 2380,
  "atin": 2785,
  "Ġbrilliant": 10423,
  "Ġcaliber": 13210,
  "Ġleadership": 5158,
  "Ġplanning": 5930,
  "Ġvig": 11047,
  "Ġinnoc": 11065,
  "ĠLeigh": 13294,
  "ĠFurther": 5342,
  "Ġidea": 2893,
  "ĠVar": 6312,
  "Ġillustrated": 11721,
  "ĠCort": 11967,
  "uart": 9708,
  "ĠUltimately": 15324,
  "}": 100,
  "Ġchord": 13398,
  "Ġware": 14488,
  "ĠNews": 4085,
  "Ġyounger": 5387,
  "hero": 13832,
  "ĠBL": 15792,
  "Ġrebels": 10395,
  "ĠDesert": 12862,
  "Ġarmor": 6584,
  "Ġpreviously": 2771,
  "writ": 4010,
  "Ġcrossing": 5218,
  "Ġschol": 4013,
  "bone": 14572,
  "ĠSweden": 6955,
  "osure": 7235,
  "Ġcousin": 9793,
  "unge": 15338,
  "Ġpet": 5119,
  "Ġvirtually": 11131,
  "ocked": 4711,
  "ĠIndependence": 11010,
  "ĠMalay": 12766,
  "adic": 14736,
  "side": 1598,
  "Ġnor": 5844,
  "ĠBrother": 7254,
  "Ġbreaks": 10747,
  "ĠAffairs": 11290,
  "ĠLeo": 12283,
  "ake": 680,
  "ĠBCE": 12075,
  "Ġhours": 2507,
  "iens": 7558,
  "Ġwound": 11438,
  "ĠMobile": 13094,
  "ĠIndepend": 5929,
  "Ġgrew": 4829,
  "Ġprovincial": 9712,
  "Ġrunway": 14658,
  "Ġran": 3301,
  "ĠScient": 7000,
  "Ġregister": 6158,
  "ĠLaboratory": 11370,
  "Ġmining": 9139,
  "Ġaccommodate": 10697,
  "ĠWe": 1492,
  "ittees": 14859,
  "Ġacqu": 3050,
  "Ġ08": 7356,
  "ĠNathan": 12406,
  "ylvania": 4549,
  "Ġaided": 12424,
  "Ġaimed": 8512,
  "Ġoffensive": 4965,
  "Ġcour": 1425,
  "wick": 5440,
  "ĠNine": 9585,
  "ĠP": 309,
  "Ġseconds": 4365,
  "ĠBeh": 11369,
  "Ġbeing": 842,
  "ricket": 4261,
  "ĠSN": 14123,
  "ĠLas": 8864,
  "asures": 15346,
  "Ġdanger": 9347,
  "ĠBrah": 12132,
  "Ġleads": 7224,
  "SP": 8434,
  "Ã´": 11805,
  "Ġdates": 6429,
  "Ġlob": 7808,
  "Ġske": 7738,
  "ĠFear": 14537,
  "ĵ": 198,
  "aff": 1754,
  "Ġscorer": 14777,
  "Ġavoided": 11328,
  "Ġphenomenon": 12543,
  "ĠRepresentatives": 11221,
  "Ġrespect": 2398,
  "itarian": 9991,
  "avil": 12801,
  "ition": 531,
  "Ġfort": 2892,
  "essed": 5669,
  "Ġletters": 5717,
  "ĠJohnny": 9214,
  "Ġdeliver": 5221,
  "ĠLav": 14923,
  "ĠAthens": 11167,
  "ĠNem": 15327,
  "Ġstudio": 2633,
  "Ġcrossed": 6346,
  "Ġsent": 1600,
  "&": 13,
  "Ê": 140,
  "cil": 2122,
  "ĠRook": 15540,
  "iments": 5153,
  "Ġpreventing": 12587,
  "gets": 7093,
  "ĠLet": 6104,
  "Ġdestroyers": 8014,
  "ĠProv": 5784,
  "ĠGy": 15424,
  "onom": 14047,
  "Ġ118": 11233,
  "ĠBle": 15136,
  "aching": 10264,
  "Ġentire": 2115,
  "Ġfields": 6851,
  "ampions": 1640,
  "Ġthickness": 13185,
  "Ġurged": 11143,
  "Ġhelp": 2063,
  "Ġsatisfied": 14891,
  "Ġprof": 1728,
  "Ġcommunity": 2984,
  "£o": 11831,
  "<mask>": 5,
  "Ġschools": 3858,
  "ĠMit": 7098,
  "Ġdisorder": 11006,
  "water": 5365,
  "ĠExpress": 7621,
  "ĠBetween": 6821,
  "Ġactivists": 15466,
  "Ġpolice": 3020,
  "Ġgar": 4316,
  "Ġlegitimate": 14070,
  "ĠRober": 2106,
  "Ġincreases": 9137,
  "oo": 3708,
  "cott": 9209,
  "Ġchor": 5228,
  "etic": 3379,
  "Ġvar": 1205,
  "ĠScience": 6542,
  "ĠHammer": 14324,
  "aple": 10991,
  "Ġdefeats": 14157,
  "astern": 1911,
  "Ġintegr": 11623,
  "Ġplane": 7118,
  "Ġsurrendered": 9865,
  "Ġremind": 12708,
  "Ġdestruction": 6768,
  "Ġless": 1715,
  "ĠJack": 1896,
  "Ġnegoti": 4746,
  "ĠGal": 4759,
  "Ġbrigade": 6504,
  "ze": 2520,
  "olog": 929,
  "Ġattempted": 3553,
  "ĠGreeks": 14440,
  "ĠNik": 9018,
  "Ġopenly": 13487,
  "athan": 5918,
  "Ġbegan": 1009,
  "Ġfitting": 14660,
  "Ġpig": 11742,
  "ĠLos": 3051,
  "ĠRud": 10229,
  "Ġmental": 8735,
  "ĠSalv": 12340,
  "Ġpregn": 7518,
  "Ġfemin": 12798,
  "Ġoutd": 9771,
  "iott": 14493,
  "Ġliner": 10602,
  "ijing": 12636,
  "PD": 15193,
  "ĠFire": 6204,
  "Before": 10191,
  "ĠGerald": 14351,
  "room": 5299,
  "ĠGat": 15304,
  "ĠCoal": 12172,
  "Ġrelations": 1953,
  "Ġproperly": 12092,
  "ivation": 9318,
  "comb": 15776,
  "rid": 1051,
  "Ġobtain": 7377,
  "De": 13912,
  "ĠNar": 6936,
  "ĠSeas": 12687,
  "oa": 9275,
  "Ġstores": 8934,
  "Ġeditions": 11094,
  "Ġstun": 15999,
  "ably": 1809,
  "ĠMumbai": 15090,
  "Ġdestroyed": 3098,
  "ĠEP": 8798,
  "ĠMichel": 8422,
  "ĠReg": 2044,
  "Ġmelod": 12026,
  "opy": 11919,
  "Ġliv": 12719,
  "ĠDudley": 12934,
  "ĠHolland": 12141,
  "Ġproper": 2446,
  "..": 1300,
  "Ġpitched": 7995,
  "Ġtheore": 9954,
  "reated": 10528,
  "ront": 1674,
  "Ġfarming": 13548,
  "umbered": 11587,
  "Ġaddition": 1472,
  "ĠMorton": 14740,
  "ĠDuch": 11429,
  "Ġevolutionary": 14295,
  "ĠL": 335,
  "nt": 10716,
  "Ġtrilogy": 15161,
  "Ġpromoted": 4404,
  "Ġnational": 1913,
  "ĠPat": 2888,
  "Ġindicating": 9326,
  "Ġdeep": 3169,
  "Ġcalendar": 15673,
  "ĠJosh": 8709,
  "Ġcutting": 9454,
  "ounded": 3779,
  "Ġmathemat": 8620,
  "pper": 5522,
  "Ġera": 4277,
  "Ġcha": 12042,
  "Ġsequel": 6625,
  "Ġstretch": 10954,
  "Ġequipment": 4596,
  "Ġlined": 14284,
  "Ġcriticised": 7916,
  "Ġhumans": 6004,
  "Ġworst": 7108,
  "olic": 3243,
  "unciation": 15053,
  "Ġgroup": 1080,
  "life": 8786,
  "osexual": 10551,
  "Ġsupporters": 6530,
  "ĠCool": 13283,
  "Ġawarded": 3188,
  "roduction": 12122,
  "acco": 14865,
  "Ġrenown": 14534,
  "Ġgiven": 1732,
  "ĠBerk": 15631,
  "Ġat": 334,
  "neath": 13052,
  "ĠCrystal": 12883,
  "ension": 3122,
  "Ġclaimed": 2859,
  "atern": 9173,
  "New": 11879,
  "Ġstandard": 3576,
  "Ġroof": 5240,
  "organ": 6615,
  "Ġreduction": 10035,
  "Ġdisl": 9328,
  "ĠFour": 4100,
  "Ġperspective": 8692,
  "Ġ1935": 6927,
  "yrus": 9327,
  "Ġworn": 10099,
  "Ġyoungest": 9516,
  "uc": 1098,
  "Ġmyself": 12104,
  "Ġloved": 9826,
  "ĠAlice": 9766,
  "Ġcentral": 2658,
  "Ġtranslated": 10173,
  "rying": 2704,
  "Ġdoing": 4615,
  "ĠAdmiral": 4205,
  "espite": 2440,
  "ĠLinda": 15058,
  "Ġonto": 4238,
  "Ġcontrast": 4083,
  "Ġrecovery": 10431,
  "Ġdiseases": 13064,
  "Ġartwork": 8597,
  "à": 160,
  "Ġlosing": 4952,
  "ĠZone": 11153,
  "Ġsufficient": 6302,
  "auna": 13028,
  "ĠLyn": 7535,
  "ada": 4240,
  "Ġrescue": 7354,
  "Ġagain": 695,
  "ĠWh": 992,
  "Ġdisplay": 3983,
  "ĠEy": 7499,
  "ovakia": 15185,
  "Ġritual": 12273,
  "Ġruling": 9170,
  "Ġdifferent": 1595,
  "Ġship": 915,
  "Ġanimal": 5222,
  "Ġdiffer": 1291,
  "ĠMarine": 7159,
  "ĠLat": 9625,
  "Ġ03": 8595,
  "ĠBarbara": 11317,
  "Ġencoura": 5301,
  "Ġcommon": 1785,
  "Ġturrets": 7899,
  "Ġorbital": 15219,
  "ĠKent": 3543,
  "Down": 11787,
  "Ġlyrical": 11570,
  "Ġschem": 15022,
  "Ġ65": 4123,
  "Ġimpl": 5944,
  "da": 7293,
  "k": 82,
  "ĠCrazy": 15663,
  "Ġtribut": 12700,
  "ĠAndrÃ©": 14349,
  "Ġwilling": 8493,
  "Å¾": 13920,
  "ĠRose": 6616,
  "ĠBou": 7345,
  "Ġrib": 10734,
  "ys": 1070,
  "Ġwinter": 4376,
  "Ġtwenty": 3893,
  "Ġsuperv": 6784,
  "Ġenjoyed": 5855,
  "Ġtreatment": 4775,
  "ĠEd": 1303,
  "ĠMans": 9384,
  "bane": 15230,
  "ĠAustin": 10443,
  "Ġfriend": 1778,
  "Ġofficial": 1963,
  "Ġmissing": 5909,
  "ven": 927,
  "outher": 1869,
  "Ġadmired": 14812,
  "ĠDonald": 10331,
  "ygen": 7935,
  "Ġcommunicate": 15807,
  "Ġresistance": 5805,
  "Ġhighlighted": 10810,
  "Ġadvent": 5772,
  "Ġleagues": 12697,
  "shi": 14289,
  "Ġcombination": 6151,
  "Ġactions": 4244,
  "Ġresulted": 3615,
  "Ġaster": 15585,
  "Ġdisp": 2690,
  "Ġverses": 11969,
  "Ġbehalf": 8381,
  "Ġdescrib": 1124,
  "Ġpromin": 10296,
  "Ġbombardment": 11224,
  "plete": 9472,
  "ive": 406,
  "als": 739,
  "Ġholes": 11705,
  "Ġot": 15244,
  "ke": 557,
  "ige": 7010,
  "ĠWoll": 15339,
  "icz": 15462,
  "ĠLewis": 5618,
  "Ġlegislature": 9314,
  "aire": 6860,
  "Ġdepression": 3723,
  "Ġrelation": 11423,
  "Ġraces": 7210,
  "ĠBeau": 15743,
  "iot": 6649,
  "ĠLam": 8592,
  "Ġincor": 3592,
  "ĠCC": 13459,
  "ĠStories": 13474,
  "Ġhipp": 14991,
  "Ġne": 623,
  "Ġconceived": 10043,
  "ĠBenjamin": 8365,
  "Ġthan": 707,
  "ĠFore": 3856,
  "ĠManhattan": 8270,
  "ĠEn": 749,
  "Ġcinema": 10454,
  "ato": 5911,
  "come": 6005,
  "Ġeating": 10492,
  "ĠHenri": 13198,
  "ĠSymph": 9529,
  "arre": 15666,
  "SR": 14431,
  "Ġcurrently": 5489,
  "qual": 11837,
  "Ġautomatically": 15498,
  "Ġold": 1351,
  "Ġmush": 9459,
  "Ġclock": 9790,
  "ĠPix": 15222,
  "ĠHad": 11013,
  "Ġtechnologies": 15420,
  "Ġtendency": 14600,
  "Ġagreed": 3164,
  "Ġ1914": 5477,
  "Ġcoach": 3547,
  "Ġunpop": 13778,
  "ĠJew": 3376,
  "iny": 5124,
  "ets": 1114,
  "wn": 600,
  "Ġdistance": 4211,
  "ĠOff": 2672,
  "Ġperception": 14475,
  "Ġtheaters": 12301,
  "Ġ1959": 6662,
  "ĠSalt": 10657,
  "ents": 660,
  "Ġsmart": 14278,
  "ĠRecreation": 15143,
  "ĠTrek": 7876,
  "Ġet": 6164,
  "Ġcert": 4633,
  "Ġrealistic": 11523,
  "ĠBirth": 15100,
  "°": 116,
  "ĠScotland": 3960,
  "ĠEvent": 8448,
  "Ġcollabor": 4241,
  "Ġtriple": 8896,
  "ains": 1262,
  "ĠBusiness": 8811,
  "Ġthirds": 14206,
  "olithic": 15583,
  "os": 340,
  "ĠOf": 5375,
  "ther": 443,
  "riptions": 8956,
  "Ġsubmarine": 7243,
  "ĠAncient": 12098,
  "undy": 15482,
  "itude": 3654,
  "ĠVel": 10490,
  "Ġcylinder": 13386,
  "hib": 2604,
  "ĠMiddle": 4550,
  "Ġresul": 2360,
  "Ġwond": 15805,
  "Ġenclosed": 15817,
  "ĠColomb": 12819,
  "ĠShow": 4554,
  "Ä": 134,
  "Ġpoints": 2118,
  "Ġplanes": 13505,
  "Ġcollision": 13534,
  "graduate": 13572,
  "Ġ1899": 9784,
  "Ġadv": 1302,
  "HA": 13689,
  "isk": 12009,
  "ordin": 4760,
  "ĠChart": 3904,
  "Ġcooperation": 13432,
  "ĠTri": 4112,
  "ĠHolmes": 13979,
  "Ġoverlook": 10934,
  "Ġhousehold": 5327,
  "iforn": 2635,
  "ĠTV": 3577,
  "Ġliked": 8555,
  "ending": 3166,
  "Ġcompl": 3735,
  "Ġcomprises": 14485,
  "Ġillust": 5305,
  "Ġwrit": 802,
  "ĠWrit": 5202,
  "Ġnicknamed": 13213,
  "Ġprotests": 10412,
  "ĠS": 259,
  "Ġsuit": 7084,
  "Ġsacrifice": 13157,
  "Ġind": 823,
  "app": 1691,
  "ĠNS": 11250,
  "He": 6141,
  "Ġlived": 3530,
  "Ã©l": 15248,
  "Ġlor": 15864,
  "ĠAssist": 13140,
  "ancell": 8624,
  "Ġben": 8524,
  "leton": 6022,
  "ai": 1709,
  "Ġknow": 2290,
  "Ġkeeping": 7811,
  "Ġbacter": 9655,
  "ĠJin": 15348,
  "ement": 909,
  "gence": 14650,
  "ems": 2631,
  "Ġsaw": 2231,
  "ĠMTV": 6138,
  "Ġskilled": 15959,
  "Ġdealt": 13025,
  "Ġtelesc": 12341,
  "ĠMinogue": 13769,
  "ĠCole": 8452,
  "core": 12363,
  "ĠDescription": 10438,
  "Ġsimilarly": 9039,
  "ĠâĤ¬": 14526,
  "Ġlifetime": 10884,
  "icle": 2582,
  "Ġtribal": 14380,
  "ĠAthen": 12326,
  "Ġtank": 5826,
  "ĠIowa": 8008,
  "let": 1554,
  "Ġ103": 11985,
  "Ġofficer": 3710,
  "Ġtrace": 15703,
  "hy": 3844,
  "Ġsecret": 3633,
  "att": 668,
  "ĠYank": 15590,
  "Ġindustries": 11559,
  "Ġfierce": 15468,
  "Ġdebate": 6569,
  "ĠTon": 9123,
  "ener": 774,
  "Ġdinosaurs": 14954,
  "enc": 5730,
  "Ġtraditionally": 10924,
  "ĠHerbert": 12352,
  "ĠComposition": 12548,
  "ĠMusl": 5747,
  "ĠSuperman": 14132,
  "Ġsophisticated": 15954,
  "Ġrating": 4266,
  "ĠFiles": 8687,
  "Ġcomics": 11226,
  "ĠTan": 8856,
  "Ġoverwhelming": 12701,
  "az": 940,
  "Ġ1993": 3915,
  "Ġpopularity": 5843,
  "reens": 10670,
  "Ġindependence": 6137,
  "Ġ1986": 4932,
  "Ġfloating": 13401,
  "ush": 2181,
  "Ġsun": 5908,
  "Ġnov": 2203,
  "ĠGre": 4166,
  "rams": 7543,
  "Ġalongside": 4363,
  "ĠLate": 7747,
  "Ġintentions": 15098,
  "ĠRolling": 6699,
  "ĠAsia": 5303,
  "avan": 11856,
  "Ġfighting": 3736,
  "Ġdeveloping": 5676,
  "Ġcomprising": 12481,
  "Ġscripts": 15216,
  "ross": 1016,
  "Ġchamber": 9030,
  "ographical": 8194,
  "Ġseparately": 13252,
  "Ġseparate": 3816,
  "Ġsec": 657,
  "Ġborrowed": 15017,
  "Ġho": 10663,
  "ĠJG": 13499,
  "ĠRihanna": 9151,
  "low": 514,
  "ĠChal": 15085,
  "Ġsoci": 14002,
  "ab": 394,
  "ework": 11526,
  "Ġdescriptions": 15116,
  "Ġsty": 13895,
  "Ġblame": 15427,
  "Ġoct": 12118,
  "ĠFleet": 4433,
  "ĠSom": 10283,
  "Ġ1858": 15402,
  "Ġunderwent": 9780,
  "Ġcease": 13369,
  "Ġ1878": 12765,
  "Ġfeet": 2186,
  "Ġprim": 2025,
  "Ġsheet": 12669,
  "Ġdiscussions": 13284,
  "Ġdissip": 6889,
  "ĠInit": 6758,
  "Ġdom": 3987,
  "Â": 132,
  "Ġestate": 5876,
  "itage": 8964,
  "ĠSide": 11412,
  "ĠChancellor": 13793,
  "ch": 322,
  "Ġexhibition": 8872,
  "reg": 2026,
  "Ġthings": 4125,
  "Ġdreams": 15270,
  "osy": 11455,
  "Ġdesp": 2554,
  "ĠScott": 2615,
  "Ġmovie": 3907,
  "Ġnow": 1403,
  "Ġthriller": 14499,
  "ĠHem": 8588,
  "Ġcharged": 6401,
  "Ġrefer": 1722,
  "Ġcant": 10533,
  "ĠCra": 6183,
  "Ġbankrupt": 13263,
  "Ġtemporarily": 8568,
  "ĠPi": 13240,
  "Ġ1909": 8143,
  "Ġinstr": 3413,
  "ĠBrun": 8536,
  "ĠConsequently": 13880,
  "ĠInformation": 15140,
  "ĠCult": 6536,
  "Ġ2007": 1631,
  "ĠSoundtrack": 14019,
  "à¤": 8344,
  "ĠConservation": 10873,
  "?": 38,
  "ilt": 1284,
  "ĠAlb": 4505,
  "ĠCad": 9980,
  "Ġpocket": 14751,
  "Ġcomplex": 3297,
  "iding": 2392,
  "Ġme": 746,
  "embers": 1414,
  "kar": 15804,
  "ĠSC": 15571,
  "Ġstabil": 13018,
  "Ġduties": 6452,
  "ĠExt": 8124,
  "Ġwar": 973,
  "Ġtomb": 9993,
  "Ġteaching": 8187,
  "anner": 9787,
  "Ġconfirm": 9939,
  "ĠCommand": 5858,
  "ĠJune": 1227,
  "ĠBened": 15400,
  "Ġarose": 11654,
  "Ġdrainage": 14339,
  "Ġthemes": 5384,
  "Ġrevived": 13056,
  "ert": 916,
  "Ġquant": 6835,
  "ove": 1158,
  "dle": 2215,
  "ances": 1530,
  "overeign": 8679,
  "Ġfo": 12109,
  "e": 76,
  "Ġaccum": 9242,
  "Ġcoup": 9707,
  "10": 5856,
  "Ġsurre": 4737,
  "Į": 191,
  "ĠFriends": 11495,
  "Ġtip": 8904,
  "ĠSor": 12065,
  "ought": 2137,
  "Ġfinally": 3606,
  "Ġblast": 11829,
  "ensis": 10094,
  "Ġwake": 11513,
  "Ġapart": 6395,
  "ĠDen": 4243,
  "Ġ1868": 12972,
  "Ġalbums": 4427,
  "Ġdownload": 6256,
  "oll": 1880,
  "Ġbutt": 13972,
  "ĠGeneration": 13562,
  "ĠItaly": 4390,
  "Ġnests": 13576,
  "Ġdro": 2571,
  "Ġorchest": 5372,
  "Ġscreening": 13379,
  "Ġfeelings": 8400,
  "Ġthir": 4393,
  "Ġdue": 1322,
  "Ġmobile": 9198,
  "can": 3266,
  "Ġ1926": 7292,
  "Ġrape": 14759,
  "Ġlod": 15083,
  "Ġgolf": 13381,
  "Ġdiagn": 7779,
  "inated": 11950,
  "ĠMountain": 6626,
  "anium": 8561,
  "ecess": 2716,
  "Ġscience": 4031,
  "ĠNev": 10590,
  "Ġserv": 1137,
  "Ġtar": 3074,
  "spring": 14779,
  "limin": 11350,
  "ts": 538,
  "gestion": 15996,
  "ĠHollow": 15573,
  "ita": 3892,
  "ĠProfess": 7168,
  "iked": 11667,
  "ĠMinnesota": 8280,
  "Ġpersonally": 9094,
  "á»": 7251,
  "M": 52,
  "ocr": 2687,
  "Ġsix": 1167,
  "Ġprince": 12330,
  "ela": 6166,
  "ubb": 6523,
  "Ġempt": 9004,
  "astic": 4239,
  "Ġsubstantially": 14541,
  "Ġfac": 1970,
  "Ġpost": 1575,
  "Ġemploy": 2506,
  "ĠIndustrial": 13784,
  "Ġselect": 6142,
  "ruption": 8861,
  "ĠSilver": 7556,
  "Ġbath": 9994,
  "Ġagreement": 5022,
  "ĠCut": 12954,
  "Ġwarned": 11285,
  "utes": 1716,
  "ĠWhitney": 15015,
  "ĠâĪ": 5518,
  "ĠPittsburgh": 10183,
  "ĠAircraft": 15148,
  "Ġarena": 11818,
  "sson": 11567,
  "Ġdoct": 7309,
  "ĠWel": 12397,
  "ĠSoutheast": 14239,
  "Arthur": 10030,
  "lee": 6130,
  "eline": 7368,
  "Ġphase": 6261,
  "ĠChi": 14549,
  "Ġmarg": 12298,
  "ĠBlood": 8169,
  "ĠRaj": 6987,
  "Ġbig": 3161,
  "ished": 800,
  "igation": 12078,
  "reng": 2780,
  "Ġone": 521,
  "Ġbranches": 9849,
  "pha": 8749,
  "Ġcup": 9171,
  "Ġseventh": 5274,
  "erved": 2830,
  "Ġsetting": 4717,
  "ĠIndones": 6490,
  "iqu": 1720,
  "ĠChandler": 13271,
  "Ġroster": 12036,
  "Ġaccus": 12715,
  "Ġaf": 11875,
  "ĠYouth": 11393,
  "Ġmerger": 13958,
  "Ġforced": 2603,
  "Ġeffective": 5095,
  "Ġexcav": 8790,
  "Ġportrayed": 6291,
  "Ġconven": 10308,
  "ĠLucy": 14590,
  "Ġsymptoms": 8367,
  "ĠCrus": 10955,
  "ĠChildren": 8196,
  "ĠUniversal": 9351,
  "Ġ1976": 5703,
  "rain": 2526,
  "ĠOlympic": 5560,
  "ball": 1344,
  "ĥ": 182,
  "ober": 907,
  "Ġspont": 14776,
  "uchi": 13888,
  "ĠCo": 1675,
  "viation": 7768,
  "ĠSupreme": 5829,
  "II": 3066,
  "amm": 5837,
  "Ġspace": 3218,
  "ĠD": 319,
  "ja": 6245,
  "ĠPrepar": 14435,
  "Ġdocumented": 10933,
  "ĠBog": 13637,
  "ĠGr": 2050,
  "Ġhar": 3889,
  "sor": 10930,
  "Ġspecimen": 9587,
  "Ġimagination": 15623,
  "Ġcogn": 15726,
  "Ġresid": 11750,
  "Ġnationwide": 15816,
  "ping": 4132,
  "Ġlaw": 1623,
  "Ġconce": 10277,
  "Ġdemands": 9074,
  "ashire": 12394,
  "Ġimpression": 10224,
  "cho": 7782,
  "uss": 1162,
  "ĠBryan": 10605,
  "Ġlargest": 2563,
  "ĠWonder": 10916,
  "Ġmanaged": 3954,
  "ĠPC": 7575,
  "ural": 1272,
  "Ġtool": 13988,
  "angered": 12755,
  "Ġcalled": 1042,
  "Ġplat": 3712,
  "Ġacceler": 8838,
  "ĠConn": 5623,
  "Ġmanifest": 13805,
  "ocation": 10557,
  "Ġaccept": 2349,
  "Ġdep": 967,
  "emporary": 13051,
  "ĠBelie": 12750,
  "ĠMonument": 15472,
  "ĠCommunity": 9423,
  "uty": 6903,
  "Ġresidence": 8601,
  "Ġsuburb": 13577,
  "Ġdense": 10698,
  "Ġhimself": 1848,
  "Ġ1870": 8559,
  "istor": 11231,
  "ĠGary": 9738,
  "Ġ50": 1838,
  "Ġlesb": 12865,
  "orney": 7260,
  "Ġresumed": 8260,
  "Ġsubt": 8489,
  "ĠLocal": 10511,
  "Ġcorps": 9649,
  "Ġhealthy": 14058,
  "rell": 6120,
  "Ġfails": 14876,
  "Ġdisagre": 8918,
  "ĠTask": 13628,
  "ĠRailway": 5569,
  "Ġsn": 4440,
  "ternal": 7121,
  "Ġmarry": 9658,
  "ĠSwan": 14720,
  "Ġconvin": 6314,
  "ĠStud": 2823,
  "ils": 3796,
  "ĠShir": 15032,
  "Ġsouthwest": 5770,
  "DT": 14881,
  "Ġbecoming": 3012,
  "ĠEgyptian": 8537,
  "osaurs": 10848,
  "Ġro": 470,
  "Ġ1902": 8936,
  "Ġadditional": 2878,
  "Ġnavy": 9676,
  "ĠNational": 1469,
  "ambers": 10404,
  "Ġtorped": 4262,
  "ĠFace": 11200,
  "ĠKer": 7433,
  "Ġmoment": 4895,
  "por": 1259,
  "Ġboom": 15087,
  "reeks": 12295,
  "ĠJoshua": 15547,
  "ĠSyd": 5788,
  "ĠGriffin": 14020,
  "Ġstruggled": 9105,
  "writer": 14335,
  "opes": 7419,
  "arte": 14746,
  "anor": 15667,
  "rible": 11311,
  "Ġasserted": 11694,
  "ĠSe": 686,
  "Ġwater": 1471,
  "anda": 4953,
  "Ġemerging": 12401,
  "Ġcomplic": 7877,
  "ĠTem": 4813,
  "ĠEx": 1816,
  "Ġswim": 6643,
  "wind": 13159,
  "Ġpermission": 7900,
  "Ġconsent": 13906,
  "Ġensemble": 14053,
  "Ġrecent": 4389,
  "Ġprovided": 2344,
  "Ġir": 4429,
  "Ġwatershed": 9555,
  "Ġtemperature": 5674,
  "Ġregist": 13447,
  "ĠBell": 5849,
  "Ġpassenger": 7226,
  "hand": 12936,
  "Ġbearing": 9648,
  "Ġrele": 729,
  "ĠSecret": 4058,
  "Ġ29": 2012,
  "ĠBooks": 9915,
  "Ġstorage": 8690,
  "Ġadvocate": 14422,
  "Ġexpressing": 15384,
  "Ġlittle": 2084,
  "Ġ=": 272,
  "Ġstages": 5860,
  "uth": 3300,
  "Ġdetected": 11998,
  "ilian": 14543,
  "ĠNOK": 14185,
  "Ġdoll": 4752,
  "Ġlegisl": 3653,
  "eared": 10266,
  "iami": 7776,
  "ĠCritics": 9844,
  "Ġconfig": 12105,
  "erto": 6573,
  "Ġrepris": 10835,
  "eing": 6846,
  "Ġrelated": 3232,
  "Ġearned": 3656,
  "Ġmeeting": 3467,
  "bing": 11373,
  "Ġfollows": 4796,
  "ĠPant": 10765,
  "´": 120,
  "Ġcanon": 12276,
  "ĠRochester": 15789,
  "Ġadaptations": 13760,
  "Ġel": 1678,
  "Ġrings": 10961,
  "Ġarch": 2174,
  "Ġ1890": 7857,
  "Ġsource": 4021,
  "asts": 8869,
  "ĠRam": 4610,
  "Ġroom": 2512,
  "ĠSelena": 13219,
  "stitution": 4780,
  "Ġchoice": 5203,
  "Ġcampaigns": 9342,
  "Ġdecl": 1991,
  "ĠStra": 7234,
  "Ġplanted": 15755,
  "Ġcause": 3455,
  "obile": 8305,
  "Ġestimate": 12456,
  "Ġcheer": 15280,
  "ĠSerbian": 10625,
  "ĠMarl": 12437,
  "C": 42,
  "Ġabuse": 10326,
  "Ġrepair": 7987,
  "Ġstruggles": 14309,
  "Ġinner": 7127,
  "ĠFletcher": 14285,
  "Ġheating": 15606,
  "Under": 15242,
  "Ġ1981": 5871,
  "ĠAqu": 12596,
  "ult": 591,
  "Ġmanga": 10257,
  "Ġinvent": 9740,
  "Ġcolleges": 14034,
  "ĠMargaret": 8683,
  "¡": 102,
  "ĠSad": 11990,
  "lam": 4230,
  "Ġendorsed": 14471,
  "ti": 9233,
  "Ġneutral": 8230,
  "Ġhuge": 7739,
  "ĠKelly": 7335,
  "Ġaud": 2064,
  "rane": 6906,
  "Ġsustain": 11720,
  "aste": 7545,
  "ĠTheatre": 6222,
  "Ġperipher": 15670,
  "ĠWin": 4270,
  "Ġmedia": 3024,
  "ited": 626,
  "ĠChes": 9779,
  "ruct": 1136,
  "Ġplus": 8857,
  "Ġrequire": 4483,
  "Ġ46": 4189,
  "ission": 1241,
  "Ġfocusing": 11912,
  "Ġranking": 7948,
  "Ġdemonstrate": 13122,
  "Ġrequiring": 10741,
  "Ġreplacement": 6724,
  "Ġlangu": 2591,
  "igenous": 9629,
  "Ġconsiders": 9961,
  "ĠPon": 12564,
  "Ġdedic": 4525,
  "Ġpassengers": 6722,
  "Ġthreatened": 6228,
  "tendo": 5345,
  "Ġcharacters": 1903,
  "Ġeliminated": 8140,
  "ece": 6869,
  "Ġstrip": 7977,
  "Ġemerg": 6296,
  "Ġexhibits": 15097,
  "cc": 452,
  "Ġcountryside": 14932,
  "ĠEdwin": 14193,
  "Ġproposal": 6238,
  "iege": 6113,
  "ĠUr": 6383,
  "Ġarchitectural": 10014,
  "cliffe": 14894,
  "Ġmedic": 6939,
  "Ġmolecules": 13260,
  "Ġmurders": 14687,
  "onna": 2847,
  "Ġregarded": 5028,
  "ĠOrganization": 11889,
  "Ġsuffered": 3338,
  "ĠCritical": 6788,
  "Ġforth": 9525,
  "ĠReport": 11093,
  "ĠChel": 9216,
  "ĠAustral": 1164,
  "an": 239,
  "Ġshift": 9482,
  "ĠEmperor": 5629,
  "č": 177,
  "ficial": 13606,
  "enty": 3245,
  "uits": 13041,
  "Ġ62": 5632,
  "Ġcylind": 13385,
  "Ġconsumption": 11363,
  "ibbean": 7949,
  "Ġbatt": 1155,
  "istent": 10622,
  "ations": 560,
  "Ġbasis": 4968,
  "ĠSome": 2611,
  "Ġrecognition": 6581,
  "on": 219,
  "Ġexists": 10093,
  "Pro": 15439,
  "Ġfigure": 4209,
  "ĠFal": 8348,
  "rings": 8741,
  "Ġsimpl": 8261,
  "ä": 164,
  "ĠIntellig": 12144,
  "Ġanti": 3163,
  "Ġstored": 11772,
  "Ġalternative": 5886,
  "ah": 977,
  "Ġtypes": 5173,
  "Ġimprov": 12892,
  "Ġstories": 4159,
  "ce": 317,
  "Ġfacts": 14507,
  "ered": 652,
  "ĠDuck": 15188,
  "Ġbreast": 11586,
  "Ġquick": 2407,
  "ĠÂµ": 13782,
  "Ġinv": 859,
  "irm": 3196,
  "fter": 455,
  "Ġpreceding": 11929,
  "ĠFel": 9356,
  "ĠKens": 13690,
  "roph": 10016,
  "Ġdefin": 5085,
  "employ": 12758,
  "ĠCru": 7592,
  "rews": 12561,
  "Ġdefenders": 11481,
  "ĠCraig": 10090,
  "Ġassist": 2789,
  "Through": 11598,
  "eros": 14981,
  "power": 7998,
  "aling": 4431,
  "ĠJesse": 15643,
  "Ġadvice": 7913,
  "inental": 8630,
  "light": 3891,
  "ime": 516,
  "ĠRa": 6423,
  "Ġfifteen": 8351,
  "Ġclubs": 6930,
  "Ġmarked": 4028,
  "Ġgreatly": 7036,
  "Ġchanging": 8060,
  "Ġmovement": 3184,
  "Ġmyster": 10383,
  "Ġegg": 5513,
  "Ġinfant": 14482,
  "ct": 336,
  "Ġexclus": 6103,
  "ĠMov": 5332,
  "stad": 13024,
  "Ġmoral": 7898,
  "ĠPalace": 7374,
  "ĠJTW": 10216,
  "Ġprecise": 14133,
  "ĠMcCarthy": 12990,
  "Ġrice": 12030,
  "ĠTr": 1806,
  "Ġinch": 4212,
  "Ġconfident": 11480,
  "atural": 2639,
  "ĠPike": 15838,
  "olars": 12557,
  "Ġbro": 966,
  "ĠGlob": 7151,
  "Ġfungus": 11890,
  "ĠJo": 829,
  "17": 11117,
  "ountain": 13918,
  "ĠOtt": 4246,
  "achment": 7530,
  "ĠEnvironmental": 15556,
  "ĠHowever": 1201,
  "Ġconcentrate": 15772,
  "Ġ131": 14684,
  "ĠBour": 12275,
  "Ġphysics": 10809,
  "Ġatoms": 14632,
  "ĳ": 196,
  "ĠComic": 14757,
  "Ġbomb": 2285,
  "Ġintroduce": 12523,
  "Ġpull": 7617,
  "ĠCamer": 8308,
  "Ġconsisted": 4590,
  "Ġrelevant": 13835,
  "ĠBros": 8021,
  "ĠAustralians": 8077,
  "ĠNy": 14513,
  "Ġgenetic": 8727,
  "rum": 6966,
  "Ġhistorical": 5066,
  "Ġassault": 5810,
  "ĠScar": 10740,
  "CA": 6759,
  "gypt": 4048,
  "Ġsomet": 1864,
  "Ġscoring": 4157,
  "Ġincreased": 2644,
  "Ġsomething": 3424,
  "Ġmass": 2453,
  "Ġtransported": 10189,
  "Ġrugby": 11449,
  "Ġfreedom": 6726,
  "Ġhardware": 14279,
  "Ġsaves": 15243,
  "lished": 2071,
  "Ġhip": 6638,
  "ĠMarc": 6645,
  "ĠSpin": 13812,
  "Ġafterward": 15210,
  "ĠUsher": 13563,
  "oub": 13423,
  "ouse": 984,
  "standing": 5651,
  "Ġest": 1020,
  "Ġeleventh": 14112,
  "Ġimpressive": 11321,
  "Ġrelie": 7806,
  "Ġcard": 5751,
  "Ġballs": 12086,
  "ĠChristianity": 9806,
  "stances": 7597,
  "Ġprinciple": 10832,
  "ogg": 12754,
  "Ġgaming": 13221,
  "Ġexercises": 12402,
  "Ġloan": 8186,
  "Ġconnecting": 9473,
  "Ġrepeatedly": 8926,
  "Ġraise": 6988,
  "ĠJulian": 12199,
  "Ġ1812": 15467,
  "Ġreversed": 13744,
  "ays": 1573,
  "Ġbutter": 11846,
  "Ġburst": 14319,
  "ĠMahar": 15969,
  "ory": 561,
  "ĠCave": 14792,
  "ĠAh": 8107,
  "ĠGas": 14554,
  "Ġequ": 1565,
  "Ġdiss": 3203,
  "Mc": 12346,
  "Ġbenefits": 10958,
  "orge": 13076,
  "Ġmast": 15048,
  "Ġsuggest": 3647,
  "Ġuncle": 9735,
  "Ġtouc": 12317,
  "ĠIdol": 13430,
  "oufl": 15144,
  "ĠIllust": 13999,
  "ophy": 6566,
  "Ġclosely": 5483,
  "ĠGovernor": 4817,
  "istle": 13203,
  "Ġdefinition": 8883,
  "ĠKon": 11492,
  "urches": 7342,
  "ĠUniverse": 14407,
  "Ġwarfare": 10327,
  "Ġresolve": 14756,
  "veland": 6546,
  "ron": 735,
  "ĠSil": 4233,
  "ĠSah": 15549,
  "rolling": 13831,
  "ĠVietnamese": 8179,
  "Ġwear": 4354,
  "aken": 1468,
  "Ġexisting": 5386,
  "Ġb": 237,
  "olis": 7681,
  "Ġjob": 3459,
  "ĠCryst": 11596,
  "rench": 1428,
  "Ġdisaster": 8449,
  "Ġdiagnosed": 13929,
  "ĠTheodore": 12269,
  "Ġdual": 10654,
  "ĠGeneral": 1909,
  "BI": 6458,
  "Ġ187": 2377,
  "Ġfunded": 10688,
  "ĠHalifax": 15568,
  "Ġresolved": 10938,
  "Ġprincipal": 6367,
  "OR": 12906,
  "ĠIslands": 4975,
  "Ġapproval": 8041,
  "Ġgran": 12800,
  "ĠAsian": 7486,
  "iga": 11648,
  "ĠPrim": 10232,
  "icus": 13002,
  "ĠOver": 3238,
  "Ġtable": 5104,
  "ĠDo": 2910,
  "ĠBirmingham": 9371,
  "ias": 4598,
  "Ġdisplayed": 8059,
  "Ġceremonial": 15746,
  "lesi": 13955,
  "ĠRandy": 14137,
  "rous": 9332,
  "ĠVers": 10683,
  "Ġrefers": 7803,
  "Ġformat": 7571,
  "ĠGarfield": 14114,
  "ero": 4330,
  "Ġshorter": 9433,
  "Ġ137": 12725,
  "ĠYam": 10612,
  "ĠAfghan": 9674,
  "Ġprotected": 5558,
  "Ġretreat": 6392,
  "Ġannex": 11962,
  "ĠAlpha": 13004,
  "ĠMarx": 13153,
  "Ġtext": 3835,
  "pl": 518,
  "oned": 13132,
  "ĠPubl": 9359,
  "ĠDecember": 1314,
  "Ġhistorian": 4767,
  "ĠM": 278,
  "ĠGrammy": 8079,
  "Ġexclusively": 9906,
  "iate": 7054,
  "Ġtitled": 4190,
  "ging": 3314,
  "ĠABC": 8875,
  "vik": 14413,
  "rate": 4201,
  "Ġretired": 5109,
  "bum": 787,
  "Ġamid": 12979,
  "Ġbuying": 15840,
  "ĠMediterranean": 6692,
  "Ġ1872": 12961,
  "Ġcareers": 14858,
  "isms": 6738,
  "Ġunst": 13663,
  "ĠUm": 14582,
  "ĠSuz": 13514,
  "ĠMarqu": 12736,
  "amp": 627,
  "Ġadded": 2188,
  "Ġfifth": 3249,
  "Ġcivilians": 10673,
  "raine": 13197,
  "Ġnineteenth": 13402,
  "ĠTag": 8445,
  "Ġaged": 7813,
  "Ġgovernment": 1342,
  "Ġ170": 7668,
  "Ġdisappointment": 14199,
  "stand": 12982,
  "Ġdisturbed": 15747,
  "acre": 9131,
  "Ġappl": 5143,
  "Ġdull": 15530,
  "Ġdrown": 10891,
  "Ġvalues": 7922,
  "ĠRaf": 14818,
  "Ġinscription": 14245,
  "Ġphilosophy": 8945,
  "ready": 2827,
  "ĠGlenn": 14468,
  "ĠInside": 12686,
  "Ġeight": 1833,
  "bridge": 7849,
  "pen": 921,
  "Ġnegative": 5041,
  "Ġpatch": 14637,
  "ĠBelle": 14181,
  "enesis": 9999,
  "oop": 14602,
  "ily": 828,
  "Ġvessels": 6552,
  "jud": 14325,
  "irk": 12983,
  "ĠCitiz": 14679,
  "Ġcoun": 1987,
  "by": 1339,
  "Ġseeking": 8164,
  "Ġshares": 10079,
  "Ġreferee": 13108,
  "acted": 5451,
  "Ġmouse": 14770,
  "ĠOpen": 7132,
  "abilities": 10495,
  "ount": 638,
  "fer": 669,
  "ĠLand": 5030,
  "Ġlineup": 13976,
  "Ġmonastery": 12169,
  "Ġruns": 2427,
  "Ġsymmet": 13451,
  "Ġunhappy": 14962,
  "ĠRoth": 15762,
  "ĠBr": 2961,
  "Ġcompiled": 11686,
  "die": 8383,
  "Ġrul": 2486,
  "ĠOm": 10671,
  "ĠCincinn": 11646,
  "Ġgames": 1434,
  "ault": 3518,
  "Ġdispute": 8183,
  "One": 7497,
  "going": 7112,
  "Ġcaused": 2151,
  "Ġcous": 8677,
  "Ġbonds": 13991,
  "Ġmunicipal": 12482,
  "ĠStr": 9063,
  "Ġindirect": 12265,
  "OT": 9435,
  "Ġf": 233,
  "Ġap": 2724,
  "ev": 5286,
  "Ġscreens": 12191,
  "Ġpenal": 6462,
  "Ġbon": 7613,
  "ĠTru": 11377,
  "Ġassociated": 3507,
  "cÃ©": 5197,
  "arth": 8459,
  "Ġdifficult": 2296,
  "Ġchar": 719,
  "Ġphys": 2653,
  "Ġ1894": 10637,
  "Ġshelter": 11972,
  "Ġprepared": 5710,
  "Ġlack": 2291,
  "Ġelev": 5016,
  "endment": 7732,
  "Ġdirectors": 8614,
  "Ġwhy": 5373,
  "age": 509,
  "ĠSem": 9187,
  "ĠKorean": 5402,
  "piece": 11102,
  "Ġdil": 15742,
  "opez": 15035,
  "Ġrep": 894,
  "Ġre": 256,
  "Ġprincip": 3621,
  "Ġlemurs": 12921,
  "Ġmm": 2116,
  "Ġesp": 2816,
  "itious": 10316,
  "Ġdiscovered": 3499,
  "ĠEast": 2053,
  "Ġaccompanying": 9855,
  "ĠNorwe": 6513,
  "Ġsignal": 8839,
  "Ġac": 834,
  "p": 87,
  "Ġunre": 12776,
  "icles": 3155,
  "Ġothers": 2260,
  "Ġnat": 10110,
  "ĠBishop": 7178,
  "Ġanaly": 8024,
  "ĠComm": 1265,
  "Ġcoaches": 12385,
  "atas": 15676,
  "Ġsaved": 8695,
  "Ġassists": 8335,
  "Ġdedication": 15756,
  "ĠCrow": 11378,
  "ĠEpis": 12614,
  "ĠShaw": 9447,
  "ĠPre": 3830,
  "ector": 3760,
  "Ġwindows": 7975,
  "ĠTrip": 13795,
  "Ġ190": 1713,
  "Ġtoget": 2182,
  "Ġairborne": 12408,
  "Ġpeace": 4442,
  "ĠMach": 7855,
  "Ġpassing": 4422,
  "Ġspecialist": 14628,
  "ouver": 9200,
  "H": 47,
  "ĠJoe": 5032,
  "atic": 1551,
  "ĠWilhelm": 8910,
  "ÏĤ": 13289,
  "Ġremnants": 8745,
  "Ġstolen": 11180,
  "Ġpresents": 12101,
  "ĠUs": 5263,
  "right": 2467,
  "Ġweaken": 4202,
  "Ġswept": 11935,
  "ĠMong": 9882,
  "Ġstudies": 4478,
  "Ġ14": 1135,
  "ĠPorts": 13424,
  "formula": 7148,
  "ĠRights": 9264,
  "ĠNY": 2915,
  "Ġpremiere": 7033,
  "ans": 688,
  "ĠWood": 3506,
  "Ä«": 12357,
  "lings": 8801,
  "Ġinstitutions": 8652,
  "ĠMoreover": 15403,
  "ĠInd": 989,
  "Ġprecurs": 15095,
  "ikk": 15492,
  "ĠChristians": 11095,
  "ĠDh": 14401,
  "Ġsel": 14029,
  "Ch": 5312,
  "Ġtw": 1568,
  "ĠTrue": 13015,
  "ĠBuch": 13366,
  "Ġ220": 11593,
  "ĠMusical": 12236,
  "ĠSaf": 11294,
  "ĠHugo": 15184,
  "edia": 10403,
  "ĠPoe": 12470,
  "ĠChe": 4062,
  "Ġfreshman": 14739,
  "ĠOper": 3261,
  "Ġ....": 14875,
  "quer": 11297,
  "ĠJuan": 9166,
  "ĠLincoln": 5455,
  "field": 2008,
  "zel": 15646,
  "Ġtunnels": 13841,
  "Ġplans": 3388,
  "Ġplanets": 9047,
  "Ġproximity": 13268,
  "jo": 7697,
  "off": 2201,
  "ented": 4353,
  "ĠJTWC": 10219,
  "Ġmoon": 10198,
  "Ġciting": 8368,
  "ĠTalk": 12077,
  "ĠAlbums": 7694,
  "xual": 7983,
  "ling": 1189,
  "Ġtelephone": 12027,
  "irit": 3966,
  "ĠSugar": 15858,
  "ĠBradman": 9692,
  "Ġbeat": 4086,
  "Ġpermitted": 9299,
  "Ġ153": 10823,
  "Ġnationally": 14500,
  "shire": 3879,
  "Ġcommercially": 10981,
  "ĠEvil": 11154,
  "ĠSerbia": 11675,
  "Ù": 155,
  "Ġspo": 13766,
  "ĠConstitution": 6605,
  "iced": 4470,
  "ĠSicily": 14912,
  "ĠOfficial": 10731,
  "Ġeat": 7515,
  "Ġlab": 2963,
  "Ġlooking": 5309,
  "Ġliterature": 5686,
  "Ġscope": 14156,
  "cks": 6443,
  "hens": 5377,
  "eter": 1484,
  "Ġå": 11681,
  "Ġbank": 4052,
  "Ġinterrupted": 13357,
  "Ġsle": 4861,
  "Ġdegrees": 8234,
  "isting": 13045,
  "Ġsolution": 8689,
  "Ġstart": 1144,
  "ĠSport": 14735,
  "hew": 4643,
  "Ġrolling": 14815,
  "Ġassassination": 12507,
  "Ġpoisoning": 15200,
  "osaurus": 6411,
  "iverpool": 5331,
  "ĠBody": 12768,
  "Ġpowers": 5412,
  "During": 3377,
  "ĠIndians": 7430,
  "igo": 13012,
  "icity": 13188,
  "Ġ1869": 12480,
  "Ġups": 12898,
  "Ġdiscovery": 7030,
  "Ġsought": 4315,
  "Ġmany": 963,
  "I": 48,
  "Ġthunderstorm": 11590,
  "Ġdelay": 5045,
  "ould": 456,
  "Ġquality": 4046,
  "Ġ1991": 3916,
  "Ġchanges": 3079,
  "ĠRhys": 14911,
  "Ġsinging": 5351,
  "Ġadjust": 12541,
  "o": 86,
  "Ġgoverning": 14452,
  "fic": 1930,
  "Ġobservations": 9290,
  "oura": 3643,
  "Ġdign": 14930,
  "Ġrelationship": 2306,
  "ĠTob": 9804,
  "Ġroadway": 11782,
  "Ġvulnerable": 10485,
  "racts": 8521,
  "ĠSup": 2017,
  "ĠRobertson": 14938,
  "Ġconstitutional": 10108,
  "Ġphysically": 12256,
  "gov": 15301,
  "jord": 15998,
  "ĠParks": 11794,
  "ĠStanford": 14074,
  "Ľ": 206,
  "hood": 3332,
  "rot": 7475,
  "ĠIndonesia": 10240,
  "ĠMoscow": 10123,
  "Ġhorsepower": 12751,
  "ĠRegard": 15312,
  "Ġsimilarities": 10838,
  "Ġrotation": 12142,
  "ied": 628,
  "Ġhear": 7147,
  "Ġtradem": 13007,
  "Ġdomestic": 5749,
  "ator": 1571,
  "ĠEight": 10917,
  "celand": 11035,
  "Ġson": 1956,
  "ĠEngine": 6507,
  "itate": 10505,
  "artney": 8696,
  "Mean": 13246,
  "ÅĦ": 14463,
  "ective": 3529,
  "ructure": 6275,
  "Ġstrengthened": 9033,
  "amine": 11400,
  "Ġsid": 14824,
  "hn": 737,
  "Ġ1956": 6321,
  "ĠAthletic": 11544,
  "sk": 7996,
  "ĠMinistry": 8050,
  "Ġbran": 8779,
  "Ġtender": 14765,
  "Ġ1851": 14017,
  "ĠOut": 3729,
  "ĠMexic": 2895,
  "Ġbas": 1714,
  "uto": 10291,
  "ĠEgypt": 4110,
  "Ġfriendship": 9029,
  "Ġaction": 2230,
  "Ġdistrib": 3363,
  "Ġtouring": 8627,
  "Ġdeclining": 15683,
  "ĠLancashire": 12542,
  "Ġmov": 801,
  "ĠBach": 9792,
  "ĠBos": 6467,
  "Ġplot": 3498,
  "ĠRun": 6282,
  "ĠDennis": 12089,
  "Ġ07": 7919,
  "Ġpanels": 13231,
  "Ġseats": 7978,
  "Ġgh": 10936,
  "ĠGar": 3709,
  "Ġstation": 1990,
  "Ġpossessed": 12376,
  "Ġrebounds": 12044,
  "Ġborn": 2340,
  "ĠGibson": 13092,
  "Ġmelody": 10211,
  "Ġ156": 10721,
  "Ġpige": 14651,
  "though": 979,
  "ators": 2146,
  "ĠVirgin": 2686,
  "regular": 11740,
  "Ġpotential": 4107,
  "Ġvill": 2326,
  "Ġgovernments": 9931,
  "Ġbul": 4735,
  "ani": 3719,
  "Ġeverybody": 15660,
  "ature": 1465,
  "cend": 4026,
  "Ġassistant": 6086,
  "ĠAv": 5706,
  "Ġ750": 12555,
  "ĠJewish": 5431,
  "wen": 6876,
  "ĠColumbia": 5403,
  "ĠChuck": 12591,
  "An": 3967,
  "houses": 13667,
  "Ġ[": 1197,
  "ĠPut": 13498,
  "Ġauthorized": 11086,
  "Ġmeasurements": 14244,
  "Ġdepot": 15266,
  "Ġconclud": 3234,
  "urbs": 13322,
  "Ġenjoy": 3716,
  "Ġtransportation": 10396,
  "ubles": 15278,
  "round": 678,
  "ĠInfantry": 3988,
  "ĠIraq": 7087,
  "Ġdecreased": 11238,
  "Ã³n": 6950,
  "ĠWalt": 10990,
  "$": 11,
  "gÃ©": 11816,
  "ĠPrussian": 15593,
  "Ġvocalist": 13101,
  "Ġsymbolic": 14980,
  "ĠMinor": 10857,
  "rey": 2475,
  "Ġobserv": 5551,
  "Ġadopt": 8539,
  "Ġweb": 10394,
  "known": 4561,
  "ute": 964,
  "ingham": 10199,
  "Ġfant": 11892,
  "Ġsight": 7150,
  "Ġfigures": 4581,
  "Ġindustry": 3634,
  "uin": 15061,
  "Ġstating": 3903,
  "ĠMÃ¼": 15320,
  "Ġmemory": 6952,
  "Ġbowl": 11762,
  "Ġmemb": 12793,
  "ĠFiction": 15464,
  "ĠPeople": 5585,
  "achi": 13664,
  "ĠBatter": 14675,
  "Ġton": 6064,
  "]": 68,
  "ĠDuke": 4832,
  "Ġillustrations": 14382,
  "20": 3463,
  "Ġagency": 8837,
  "Ġdomin": 3516,
  "Ġsubd": 13087,
  "Ġvari": 5294,
  "ĠLaf": 13792,
  "Ġcomputers": 14128,
  "ĠNME": 15276,
  "house": 3923,
  "Ġsoundtrack": 4491,
  "Ġve": 2409,
  "Ġindustrial": 5505,
  "aur": 1925,
  "Ġcolours": 11207,
  "ĠBasketball": 12187,
  "Ġoxygen": 8361,
  "Ġchess": 13492,
  "inian": 9041,
  "Ġlearns": 10274,
  "Ġintellig": 5077,
  "ĠGallery": 10101,
  "ĠTai": 10486,
  "ĠOd": 9595,
  "ĠDwight": 9694,
  "ĠShip": 9601,
  "Ġmeet": 2097,
  "Ġshows": 2970,
  "Ġfruit": 6763,
  "ĠYard": 12306,
  "Ġfilter": 14075,
  "ĠWal": 3905,
  "Ġworking": 2378,
  "ĠStefani": 14672,
  "Ġgate": 8881,
  "Ġsubsequent": 4419,
  "haus": 15767,
  "ĠAthlet": 8484,
  "Ġjunior": 7802,
  "ate": 384,
  "ĠGene": 9818,
  "Ġch": 396,
  "ires": 3089,
  "ĠJur": 13609,
  "ĠUniversity": 1743,
  "Ġunderground": 8462,
  "Ġemphasized": 13761,
  "Ġdiscontin": 10972,
  "Ġhy": 2580,
  "Ġreduced": 3848,
  "Ġoverhaul": 15291,
  "Ġparliamentary": 11383,
  "ĠWag": 9297,
  "ĠFlore": 11182,
  "Ġperformance": 1836,
  "ĠGirls": 9322,
  "ĠTwitter": 11908,
  "gian": 4740,
  "Ġtab": 13403,
  "Ġapproaching": 9484,
  "Ġwitnessed": 12533,
  "feld": 11936,
  "Ġtheat": 3746,
  "ĠJoy": 9789,
  "ĠMunich": 14436,
  "Ġ72": 5866,
  "Ġ81": 6475,
  "Ġinstruct": 5758,
  "oir": 5890,
  "angu": 2307,
  "ĠLil": 15649,
  "Ġcourts": 6857,
  "Ġcomplet": 3055,
  "adium": 3456,
  "Ġ2002": 2663,
  "Ġwants": 8814,
  "Ġeffect": 1456,
  "ĠWashington": 2431,
  "ĠRick": 7418,
  "Ġundergraduate": 15652,
  "ĠCorporation": 7443,
  "Ġbreeds": 11757,
  "Ġverte": 11197,
  "ĠFlorida": 3371,
  "porary": 3022,
  "ĠHendrix": 14421,
  "ĠHon": 5554,
  "Ġmeth": 3337,
  "ĠVe": 9419,
  "keys": 14983,
  "ction": 565,
  "Ġknown": 988,
  "read": 1593,
  "Ġfar": 2424,
  "Ġoutside": 2754,
  "ense": 1546,
  "Ġradiation": 9985,
  "ĠJordan": 6742,
  "Ġentertainment": 8563,
  "Ġviol": 2850,
  "Ġconservative": 8842,
  "Ġpressed": 14158,
  "Ġparody": 9665,
  "ĠCart": 6559,
  "ĠMicrosoft": 10321,
  "ĠCharts": 9662,
  "Ġagrees": 12202,
  "Ġgenu": 11307,
  "Ġdiscussed": 7449,
  "Ġaircraft": 1849,
  "ving": 2404,
  "Ġdistinguish": 12569,
  "rup": 2646,
  "Ġwanted": 2387,
  "Ġrenew": 7245,
  "Ġent": 832,
  "Ġ130": 6316,
  "ĠConserv": 12637,
  "alties": 12438,
  "Ġunp": 5343,
  "Ġwhite": 2195,
  "ĠDarwin": 10302,
  "ence": 535,
  "ĠLomb": 15678,
  "ĠUK": 2864,
  "ocese": 14514,
  "flow": 11866,
  "ĠPedro": 11656,
  "Ġbuff": 12633,
  "versely": 14404,
  "ape": 1798,
  "Ġ1949": 6958,
  "ĠMississipp": 8363,
  "ĠCaroline": 13909,
  "ested": 1619,
  "Ġwing": 3963,
  "ĠResearch": 6545,
  "ĠRav": 14125,
  "ivil": 2148,
  "Ġly": 2592,
  "ĠWestern": 2883,
  "Ġyet": 3519,
  "Ġaggregate": 13632,
  "ĠGun": 6636,
  "Ġdebris": 11535,
  "echn": 1796,
  "Ġhot": 3745,
  "Ġmemor": 9353,
  "Ġalbeit": 14605,
  "Ġscientific": 6094,
  "elta": 9596,
  "ĠHun": 5506,
  "Ġknee": 10833,
  "agger": 9590,
  "Ġice": 4391,
  "ĠBoeing": 11034,
  "Ġsporting": 13419,
  "ĠLS": 11732,
  "Ġarmies": 9153,
  "ĠAcademy": 4320,
  "Ġanticipated": 11286,
  "Ġunw": 10118,
  "ĠSpart": 9366,
  "Ġongoing": 9451,
  "Ġexecutive": 4572,
  "Ġboards": 15930,
  "ĠBennett": 10162,
  "Ġshown": 3533,
  "ĠCarl": 4490,
  "ĠMass": 3774,
  "Ġbackground": 4364,
  "ĠnÃ©e": 15208,
  "here": 2138,
  "Ġfeathers": 11693,
  "Ġsailing": 10754,
  "ĠGibraltar": 11807,
  "ĠWis": 12510,
  "Ġemployment": 9714,
  "Ġgovern": 1103,
  "icking": 11306,
  "Ġevacuated": 9430,
  "ĠAbd": 9633,
  "tz": 14201,
  "Ġoverwhel": 9763,
  "aders": 9830,
  "ored": 1226,
  "Ġtubes": 9534,
  "Ġmetal": 3900,
  "Ġ2": 308,
  "Ġfacing": 7636,
  "Ġactually": 4162,
  "Ġ2013": 1856,
  "Ġpred": 2289,
  "Ġceiling": 12626,
  "rush": 14642,
  "Ġder": 3059,
  "Ġactivities": 4659,
  "Ġrational": 12590,
  "Ġneed": 1811,
  "Ġexample": 2363,
  "Ġconditions": 3538,
  "Ġshops": 13646,
  "bus": 13117,
  "Ġjazz": 8570,
  "Ġrepaired": 13228,
  "ĠDesc": 7816,
  "aza": 6842,
  "ĠLor": 14035,
  "ĠUSD": 8036,
  "Ġoccupy": 14686,
  "mingham": 9055,
  "âĢ": 7407,
  "emies": 6189,
  "OS": 9277,
  "resent": 1685,
  "ĠH": 301,
  "ecticut": 9257,
  "ĠFall": 5722,
  "Ġballad": 9747,
  "obi": 7564,
  "ĠPolice": 7432,
  "Ġdrinking": 9772,
  "Ġnephew": 11529,
  "Ġconsidered": 1624,
  "appy": 5256,
  "ĠRup": 14387,
  "Ġpalace": 8909,
  "ĠRuss": 1984,
  "ĠTony": 6509,
  "Ġwidow": 13106,
  "ĠGovern": 2756,
  "Ġmatched": 14786,
  "Ġclassic": 6840,
  "Ġrevised": 10194,
  "Ġreferendum": 14816,
  "Ġrevel": 14010,
  "overe": 8587,
  "Ġaccepted": 3894,
  "ĠFound": 6465,
  "Ġscholars": 5660,
  "Ġtends": 15655,
  "Ġrespected": 14372,
  "Ġmonitor": 9490,
  "Ġincreasing": 3220,
  "Ġthere": 806,
  "Ġmilitary": 1855,
  "Ġdoubles": 14040,
  "ribution": 11857,
  "AT": 6143,
  "ĠAnth": 6405,
  "Ġpatrols": 13069,
  "Ġoccas": 5987,
  "ĠOr": 1398,
  "Ġ04": 8240,
  "Ġseek": 4467,
  "ĠMam": 13543,
  "Ġped": 7872,
  "Ġcabin": 13687,
  "ĠMartha": 14178,
  "Ġcollapsed": 9592,
  "Ġconcer": 5668,
  "ĠTak": 10128,
  "Ġstarred": 7213,
  "ĠSpanish": 3113,
  "aw": 651,
  "Ġchoose": 8953,
  "ĠRosen": 12527,
  "ire": 506,
  "Ġwithdraw": 5352,
  "ĠArab": 4371,
  "ĠConstant": 6348,
  "ius": 2127,
  "Ġtoured": 10136,
  "ĠCapcom": 15575,
  "empt": 1310,
  "Will": 12729,
  "rah": 14782,
  "ĠPand": 14657,
  "Throughout": 13901,
  "Ġcollections": 11066,
  "view": 1000,
  "ĠAxis": 14829,
  "range": 5778,
  "amber": 4730,
  "ĠSqu": 14003,
  "abet": 13559,
  "Ġdiv": 2058,
  "ership": 2669,
  "ĠTrain": 15206,
  "Ġbeaut": 5316,
  "Ġstab": 15700,
  "Ġpap": 10286,
  "ĠShah": 11574,
  "ĠRio": 10593,
  "atically": 7696,
  "ĠCareer": 11690,
  "inite": 14216,
  "Ġversus": 12553,
  "Ġwhale": 12835,
  "Ġbeneath": 10480,
  "Ġcentimet": 12291,
  "Ġshipped": 12716,
  "ĠWhile": 2055,
  "anan": 13856,
  "Ġsketch": 13764,
  "ĠTaxonomy": 14671,
  "Ġje": 14796,
  "Ġun": 450,
  "ack": 413,
  "Ġfusion": 14154,
  "Ġbad": 3602,
  "ĠEis": 10535,
  "ĠTer": 3199,
  "Ġheavily": 4548,
  "Ġpay": 3099,
  "Ġutter": 15949,
  "Ġideal": 8765,
  "ĠSau": 14716,
  "ĠChristmas": 4876,
  "Ġresources": 7100,
  "ĠCrit": 4038,
  "igs": 7917,
  "ĠHalf": 10554,
  "Ġmanor": 15599,
  "ĠCob": 8564,
  "Ġdecay": 11251,
  "ĠBrig": 8244,
  "ĠBh": 8414,
  "Ġtransferred": 4114,
  "ĠDistrict": 4769,
  "ĠLeban": 13346,
  "Ġtropical": 2080,
  "Ġpreced": 6288,
  "ĠLis": 5547,
  "orp": 15416,
  "Ġwars": 6250,
  "ĠFin": 4235,
  "ĠGroup": 3612,
  "ĠOsc": 10507,
  "Ġcredits": 8067,
  "inger": 5606,
  "Ġblues": 10270,
  "ĠChampions": 9613,
  "Ġspur": 11185,
  "Ġelse": 7162,
  "ĠEs": 6848,
  "Ġappointment": 8126,
  "Ġoccasions": 8188,
  "Ġinstructions": 12354,
  "Ġaggreg": 9749,
  "up": 369,
  "enant": 3642,
  "ĠMovie": 11050,
  "ĠBuddh": 9252,
  "Ġ1922": 7565,
  "ologies": 9758,
  "Ġencom": 11744,
  "borough": 7817,
  "Ġconsiderable": 6413,
  "ade": 585,
  "Ġparticip": 2474,
  "Ġthick": 3949,
  "ensed": 9867,
  "Ġabrupt": 15340,
  "vae": 14528,
  "mond": 4327,
  "Ġchemistry": 11130,
  "Ġenthus": 7752,
  "ĠRonald": 12451,
  "Ã¸": 5604,
  "ĠDespite": 2905,
  "ern": 1022,
  "Ġdecline": 6594,
  "ĠTh": 536,
  "ĠIce": 8406,
  "Ġrebuilding": 15697,
  "ĠDud": 11925,
  "Ġthousand": 7647,
  "Ġdebt": 9413,
  "ghan": 9124,
  "Ġattacked": 3557,
  "pp": 448,
  "Ġmagic": 9468,
  "Ġorgans": 13964,
  "50": 13017,
  "ĠClinton": 7692,
  "Ġenergy": 3792,
  "With": 5544,
  "Ġrecip": 8740,
  "ĠReal": 7798,
  "Ġdoctors": 12964,
  "itions": 1418,
  "Ġbott": 5307,
  "ĠAddition": 5759,
  "ĠRams": 13695,
  "Ġ1919": 6188,
  "Ġgalaxy": 15451,
  "Ġfourteen": 10022,
  "Ġcrisis": 7851,
  "Ġexist": 2585,
  "Ġtradition": 2394,
  "Ġcome": 2784,
  "Ġdet": 1267,
  "Ġdevices": 9926,
  "Ġreorgan": 10137,
  "ĠMun": 7657,
  "ĠTen": 5853,
  "Ġcomponent": 9900,
  "eth": 1882,
  "ĠGen": 6755,
  "ĠTodd": 9571,
  "Ġbreakdown": 14730,
  "Ġwine": 10735,
  "rehens": 9935,
  "Ġspeak": 6528,
  "Ġ1985": 5163,
  "Ġempty": 10863,
  "Ġdeg": 3092,
  "Ġinsufficient": 12951,
  "Ġfeeding": 9602,
  "Ġpale": 9315,
  "Ġearn": 10293,
  "ospital": 3333,
  "ĠBon": 6301,
  "Ġservice": 1841,
  "ĠDouble": 15854,
  "ĠThat": 2930,
  "rap": 2302,
  "Ġsexually": 14119,
  "ĠGrant": 5679,
  "Ġplay": 577,
  "ĠRic": 10081,
  "irate": 14341,
  "oph": 2170,
  "Ġrivers": 8326,
  "Ġassume": 14030,
  "ĠPowers": 14448,
  "Ġreducing": 9878,
  "Ġmissed": 6776,
  "ĠJen": 13489,
  "ture": 7458,
  "ĠStory": 7420,
  "Ġeyes": 5628,
  "Ġcompetitions": 11099,
  "iders": 8946,
  "Ġlies": 7303,
  "Ġox": 4649,
  "Ġdialogue": 7690,
  "Ġbrought": 2370,
  "ĠOthers": 11669,
  "Ġshapes": 15425,
  "ĠPin": 10658,
  "Ġcontin": 972,
  "Ġdiscip": 8277,
  "Ġzero": 11643,
  "Ġhung": 13183,
  "lud": 555,
  "gett": 11916,
  "ĠAle": 2399,
  "Ġref": 1245,
  "Ġalive": 9066,
  "ĠKong": 6343,
  "Ġdelays": 13551,
  "Ġfront": 2110,
  "Ġenrolled": 13083,
  "ogen": 6847,
  "regon": 6580,
  "ĠDock": 15586,
  "ellect": 8575,
  "Ġprepar": 4601,
  "Ġsafely": 14535,
  "ii": 5280,
  "Ġsupports": 11301,
  "Ġtrip": 5983,
  "ative": 965,
  "Ġhect": 13224,
  "Ġembarr": 14052,
  "ĠSerb": 5656,
  "Ġtransl": 4306,
  "ĠDiamond": 12692,
  "ĠGonz": 13555,
  "Ġadults": 7186,
  "ĠIndustry": 8314,
  "ĠStew": 6147,
  "ĠStrait": 14955,
  "Ġresearchers": 10630,
  "Ġstrate": 7040,
  "<|user|>": 6,
  "ata": 2211,
  "Ġepid": 15639,
  "Ġ189": 1902,
  "In": 753,
  "Ġid": 10342,
  "ĠDougl": 6468,
  "rus": 8518,
  "ĠRico": 8987,
  "ploy": 1839,
  "Ġcolon": 3414,
  "Ġdynasty": 8052,
  "Ġmount": 3400,
  "Ġcollection": 4172,
  "lex": 10606,
  "Ġpilots": 8275,
  "Ġsac": 5362,
  "Ġconversation": 11583,
  "ĠChen": 10452,
  "st": 265,
  "ĠAdela": 12859,
  "Ġtrust": 6089,
  "Ġcompeting": 9919,
  "Ġfill": 9720,
  "ĠiP": 15508,
  "ĠSydney": 6074,
  "Ġvolumes": 9542,
  "ridor": 11218,
  "ĠState": 1910,
  "Ġtournaments": 15518,
  "Ġnose": 11360,
  "Ġfeud": 7783,
  "Ġ$": 1095,
  "atory": 2906,
  "Ġtexts": 10024,
  "Ġcooper": 8225,
  "Ġlights": 10324,
  "Ġclosed": 3691,
  "irect": 958,
  "licted": 13022,
  "oline": 13176,
  "O": 54,
  "storm": 8712,
  "Ġdrink": 9244,
  "Ġdoc": 3034,
  "Ġrays": 13915,
  "annon": 9272,
  "IV": 9927,
  "ĠVolt": 13445,
  "ulous": 9330,
  "Ġpublished": 1783,
  "Ġauth": 5975,
  "anas": 15783,
  "olid": 5610,
  "Ġvegetation": 12452,
  "ĠWestminster": 12121,
  "ĠCommission": 4222,
  "ĠBeng": 9716,
  "ĠCy": 5259,
  "Ġsuppress": 15766,
  "ĠDes": 3664,
  "Ġimpress": 13747,
  "ĠGross": 15275,
  "ĠIndependent": 8639,
  "ĠÎ¼": 14870,
  "Ġ1886": 11852,
  "berger": 14581,
  "embly": 4762,
  "ila": 7714,
  "Ġdistributed": 7333,
  "ĠCardinals": 12322,
  "Ġcore": 5796,
  "Ġdiam": 5129,
  "ĠLangu": 15811,
  "ĠNept": 13395,
  "Ġorbits": 15132,
  "Ġtrap": 14250,
  "ĠAltern": 11993,
  "Ġartists": 4405,
  "ĠSega": 10576,
  "entieth": 11620,
  "Ġclass": 1172,
  "Ġtrout": 15693,
  "Ġnothing": 4881,
  "Ġextraordinary": 14516,
  "Ġunderstand": 7599,
  "Ġ1973": 5671,
  "ability": 2844,
  "Ġbatting": 7071,
  "Ġob": 995,
  "ĠRepublican": 5171,
  "Ġminor": 2998,
  "ĠTy": 5376,
  "Ġtransition": 6654,
  "ĠHeaven": 13164,
  "Ġretreated": 11963,
  "Ġste": 1912,
  "ĠTax": 10120,
  "ĠChrist": 1473,
  "Ġpredominantly": 11698,
  "ĠTraff": 11826,
  "ble": 1251,
  "ĠRoman": 2552,
  "senal": 6331,
  "Ġborough": 12370,
  "ulates": 11810,
  "iron": 2155,
  "Ġresident": 5631,
  "Ġav": 1587,
  "Ġeld": 11381,
  "Ġdraft": 4886,
  "Ġsax": 15714,
  "rict": 2065,
  "Ġexploration": 12634,
  "Ġcolleague": 14960,
  "Ġhydro": 5716,
  "bai": 15859,
  "ĠStation": 5905,
  "ogy": 6999,
  "Ġobvious": 8793,
  "ĠIsle": 12017,
  "Ġauthentic": 12772,
  "ĠF": 328,
  "ĠSinger": 15794,
  "Ġcollaborated": 11696,
  "ĠAnnie": 14789,
  "reek": 2212,
  "Ġservices": 3383,
  "Ġoperates": 10806,
  "imer": 12946,
  "Ġdress": 6558,
  "ĠWar": 1010,
  "Ġsociety": 4302,
  "ĠAbout": 6381,
  "ĠArm": 3755,
  "ĠPhilippines": 7670,
  "ĠTower": 7664,
  "ĠStaff": 6274,
  "Ġvot": 2178,
  "Ġspect": 5047,
  "Ġwanting": 14476,
  "ã": 163,
  "Ġfew": 1557,
  "ĠAllmusic": 13648,
  "Ġduring": 690,
  "ĠWoods": 13130,
  "Ġfishing": 8219,
  "Ġforb": 10960,
  "Ġgained": 4396,
  "ĠDeep": 10074,
  "Ġdiscrimination": 15785,
  "imet": 5069,
  "Ġstarring": 9176,
  "ĠJustin": 11140,
  "oted": 5270,
  "Ġtoo": 2007,
  "Ġseeds": 12837,
  "Ġtrophy": 13685,
  "Ġcelebrate": 11877,
  "Ġtours": 10653,
  "ĠOctober": 1179,
  "ÅĤ": 6175,
  "Ġrises": 15254,
  "ĠBorn": 10948,
  "ES": 7496,
  "Ġwatch": 3896,
  "ĠStadium": 6186,
  "ĠPers": 4969,
  "Ġoverh": 13517,
  "ĠBall": 6003,
  "Ġathletic": 13174,
  "Ġ1950": 3585,
  "Ġinvolve": 13038,
  "Ġengineer": 7262,
  "Ġthroat": 14688,
  "Ġpassage": 6922,
  "Ġplayer": 1673,
  "ĠFirst": 2536,
  "Ġmain": 920,
  "Ġso": 745,
  "Ġcer": 3588,
  "ĠSimilarly": 10282,
  "Ġresponded": 5948,
  "Ġhim": 613,
  "Ġmoments": 8092,
  "ĠNation": 11975,
  "ĠTransportation": 10040,
  "ĠPal": 2703,
  "Ġgusts": 12211,
  "Ġdub": 7263,
  "Ġshow": 865,
  "omew": 5701,
  "Ġdies": 8282,
  "ĠAz": 6781,
  "Ġbird": 3205,
  "Ġsignature": 10196,
  "Ġimmune": 15167,
  "ewise": 12079,
  "ĠBulgarian": 12279,
  "Ġprojects": 5782,
  "ĠSmith": 2745,
  "ĠCas": 6948,
  "Ġcourses": 10475,
  "Ì": 142,
  "ĠPres": 1938,
  "ial": 430,
  "Ġsuccesses": 14067,
  "rose": 8978,
  "eness": 11682,
  "Ġfans": 3237,
  "ĠWatson": 13033,
  "ĠLow": 6839,
  "ster": 2153,
  "ese": 1608,
  "Ġtraditions": 10352,
  "ĠMercedes": 12432,
  "ris": 855,
  "Ġinvolvement": 7134,
  "Ġworlds": 14935,
  "uous": 4878,
  "ĠBrowns": 11917,
  "Ġtranslation": 9644,
  "Ġstep": 4574,
  "Ġpel": 9983,
  "ashion": 5475,
  "Ġoffered": 3419,
  "Ġphases": 14948,
  "Ġparking": 11958,
  "oman": 1391,
  "Ġpregnant": 10807,
  "Ġportrait": 11170,
  "Ġpun": 4508,
  "avalry": 5174,
  "Ġweather": 4454,
  "Ġspecified": 14521,
  "ower": 912,
  "Ġcongregation": 14509,
  "Ġresemble": 12783,
  "ĠRare": 14680,
  "Ġdeaths": 6247,
  "Ġuntil": 1043,
  "Ġthough": 1141,
  "Ġlarge": 1294,
  "Ġ1934": 7340,
  "Ïģ": 14999,
  "ipl": 5319,
  "Ġcompos": 3880,
  "Ġdefend": 4064,
  "Ġdisease": 5112,
  "Ġreinforce": 6913,
  "ĠMcG": 6148,
  "ifies": 9133,
  "ĠMichaels": 12323,
  "Ġcolonial": 7174,
  "ailed": 1775,
  "ĠConstantine": 10941,
  "use": 3678,
  "Ġpromise": 11177,
  "ĠInterior": 15736,
  "ĠEnter": 3270,
  "Ġsends": 15725,
  "amed": 1131,
  "ĠSenate": 4820,
  "Ġshooting": 5591,
  "Ġturning": 5940,
  "olo": 12787,
  "ĠMark": 2879,
  "ĠDream": 5961,
  "ĠIb": 12775,
  "uscript": 7950,
  "lon": 10843,
  "apped": 9179,
  "wyn": 12879,
  "ĠThunder": 10279,
  "Ġdriven": 6830,
  "Ġcandidates": 8258,
  "Ġtor": 3436,
  "ĠNations": 6937,
  "ections": 3380,
  "Ġrode": 14907,
  "Ġcal": 2909,
  "ĠOl": 3556,
  "FL": 5640,
  "Ġaverage": 2385,
  "Ġ1929": 7517,
  "ĠOnce": 6196,
  "Ġoffice": 2415,
  "Ġprompting": 12153,
  "rett": 5907,
  "ĠHit": 5358,
  "Ġow": 9988,
  "ye": 9647,
  "jan": 9111,
  "osity": 13310,
  "oration": 4267,
  "Ġblocked": 10379,
  "Ġinfrastructure": 10836,
  "oirs": 11725,
  "Ġcircles": 13172,
  "ĠXbox": 7604,
  "ĠGardner": 15227,
  "so": 467,
  "ĠPenns": 4828,
  "gery": 7911,
  "ĠMemorial": 6324,
  "hemat": 7352,
  "ĠCarol": 3540,
  "Ġconfrontation": 15582,
  "ĠNab": 14203,
  "Ġcontracted": 13435,
  "Ġloaded": 12761,
  "ĠKe": 2478,
  "art": 378,
  "ĠFranklin": 8336,
  "ĠNorth": 1230,
  "ford": 1679,
  "Ã§": 8138,
  "Ġproducer": 3256,
  "US": 12706,
  "Ġstars": 3214,
  "ĠLee": 4464,
  "Ġdrawing": 8027,
  "Ġstatus": 3394,
  "ĠUnion": 2728,
  "Ġfell": 3431,
  "ĠRegion": 12611,
  "Ġfled": 7110,
  "riage": 3327,
  "Ġportray": 3922,
  "Ġlot": 4260,
  "Ġmiddle": 3733,
  "Ġatmosp": 5401,
  "ĠCarolina": 4699,
  "Ġconstantly": 11597,
  "Ġmedical": 4720,
  "Ġacad": 4920,
  "Ġconj": 11111,
  "ever": 758,
  "osing": 2792,
  "ĠHus": 12000,
  "ĠCape": 6062,
  "Ġday": 772,
  "Ġdeclaration": 12038,
  "inent": 3003,
  "Ġpine": 13721,
  "Ġbox": 3594,
  "Ġawareness": 12396,
  "Ġineff": 12833,
  "ĠCont": 3209,
  "ateur": 8585,
  "ampionship": 1863,
  "eding": 10109,
  "Ġprevious": 1389,
  "ĠMicha": 11687,
  "Ġregular": 2548,
  "Ġ1927": 7317,
  "quarters": 4406,
  "Ġspar": 11032,
  "reme": 3607,
  "ĠPo": 6451,
  "otype": 7465,
  "Ġattitude": 9739,
  "ĠâĻ": 12414,
  "Ġdisappoint": 12933,
  "ĠRAF": 7548,
  "ĠJournal": 6995,
  "Ġ4": 511,
  "ĠChronicle": 9785,
  "oan": 14689,
  "ube": 4411,
  "Ġhead": 1183,
  "ĠMetall": 15182,
  "Ġsteps": 9378,
  "ĠCommons": 12691,
  "ulu": 13043,
  "Ġamazing": 14847,
  "ĠMexican": 6800,
  "Ġleather": 14327,
  "istical": 12061,
  "ĠNag": 8681,
  "opp": 9298,
  "ĠHiro": 15115,
  "Ġliving": 3248,
  "ĠCos": 13885,
  "haw": 10210,
  "ĠBristol": 6827,
  "eps": 11346,
  "Ġclub": 1708,
  "apping": 8666,
  "ĠHoff": 13904,
  "Ġpark": 2614,
  "Ġwild": 4578,
  "isd": 7989,
  "Ġshell": 4642,
  "Ġrooms": 6949,
  "Ġcasual": 4931,
  "uxili": 13876,
  "ĠNu": 15158,
  "irection": 3668,
  "azines": 9182,
  "Ġnotion": 13916,
  "Ġdollars": 8120,
  "ĠViet": 3705,
  "Ġrebell": 7716,
  "Ġcreate": 3198,
  "ĠTexas": 3428,
  "Ġpersonality": 7887,
  "ķ": 200,
  "ees": 4651,
  "Ġacre": 11487,
  "ĠBasin": 14210,
  "Ġoverall": 3137,
  "Ġspaces": 9852,
  "Ġsuperhero": 15225,
  "Ġblank": 14618,
  "ĠCamb": 4213,
  "ĠCath": 3742,
  "Ġpreview": 14617,
  "Ġphosph": 12671,
  "ĠMaine": 11800,
  "Ġsched": 3681,
  "Ġsex": 2445,
  "Ġbreak": 2525,
  "Ġtrend": 8051,
  "Ġshowed": 3962,
  "Ġprice": 6400,
  "Ġcru": 2803,
  "Ġmor": 2339,
  "ĠBran": 12976,
  "Ġsufficiently": 13753,
  "Ġtechniques": 7166,
  "Ġevents": 2470,
  "Ġversion": 1672,
  "ĠBlu": 10122,
  "Ġmatter": 4630,
  "Ġtransformed": 12284,
  "Ġdespite": 2825,
  "Ġprop": 1553,
  "berry": 10446,
  "Ġspe": 1467,
  "Ġdys": 15000,
  "ĠProfessor": 10179,
  "orts": 2221,
  "Ġathlete": 14769,
  "ĠField": 4823,
  "Ġultimate": 12893,
  "Ġassign": 12931,
  "anth": 7081,
  "Ġconsumed": 14265,
  "ello": 9247,
  "Ġmock": 15768,
  "urban": 4586,
  "Ġdwarf": 10756,
  "Y": 64,
  "ĠVarious": 15883,
  "ĠMr": 3476,
  "ĠHallow": 15295,
  "Ġfederal": 4171,
  "Ġpersisted": 15036,
  "Ġsuggesting": 8623,
  "Ġflow": 2820,
  "rob": 14176,
  "Ġfood": 2957,
  "Ġlisting": 8057,
  "ĠBri": 13886,
  "Ġrod": 14667,
  "orn": 843,
  "ĠJacob": 7152,
  "Sp": 6709,
  "iously": 10796,
  "Ġchosen": 4779,
  "uki": 8930,
  "Ġoak": 13585,
  "dd": 6082,
  "ĠToo": 14039,
  "ot": 296,
  "ĠOwen": 10589,
  "ĠLouise": 13892,
  "lo": 3077,
  "Ġsurv": 2258,
  "Ġfinancially": 15394,
  "Ġanything": 5762,
  "Ġefforts": 3951,
  "Ġstyle": 2059,
  "Ġslow": 2759,
  "ĠShep": 11927,
  "ĠMission": 9664,
  "Ġnight": 1976,
  "Ġcannot": 4855,
  "Ġbefore": 803,
  "ropical": 1526,
  "ĠLeague": 1945,
  "Ġappropriate": 9177,
  "idian": 15848,
  "ad": 276,
  "Ġimposed": 11409,
  "Ġdisturb": 6635,
  "Ġconsequently": 14144,
  "Ġrequirements": 10027,
  "ategory": 4493,
  "aps": 2348,
  "anna": 4252,
  "Ġshark": 5583,
  "Ġriver": 3097,
  "Ġexpedition": 5427,
  "Ġagents": 7765,
  "Ġtraits": 14218,
  "anger": 10222,
  "eld": 4935,
  "Ġsongwriting": 13016,
  "ĠConstruction": 7615,
  "ĠBowie": 13900,
  "Ġanticip": 7926,
  "ĠRomania": 13406,
  "Ġlimitations": 14238,
  "enh": 8025,
  "Ġoverw": 8616,
  "Ġslowed": 14195,
  "Ġlicense": 11465,
  "assador": 9828,
  "Ü": 158,
  "cycl": 14068,
  "ĠAssistant": 15595,
  "Ġdiamond": 11664,
  "ete": 14703,
  "Ġsign": 1012,
  "Ġsmooth": 8160,
  "ĠSound": 4995,
  "Ġorganizations": 7843,
  "Ġpresc": 14455,
  "Ġdrew": 5881,
  "Ġextending": 10273,
  "ĠPow": 7103,
  "Ġaverages": 15654,
  "Ġactor": 4234,
  "ÃŃn": 10911,
  "Ġstood": 6935,
  "ĠMonica": 15197,
  "eg": 5442,
  "Ġstudied": 6205,
  "Ġbatted": 11024,
  "Ġdiscuss": 3006,
  "ander": 2595,
  "Ġvon": 5720,
  "Ġoutdoor": 13554,
  "era": 8584,
  "Ġaffecting": 14221,
  "Ġsam": 6901,
  "ĠRepresent": 8198,
  "inth": 5633,
  "Ġlanguages": 7574,
  "Ġels": 8142,
  "itis": 9193,
  "aping": 10709,
  "ir": 294,
  "immer": 12734,
  "Ġactive": 3624,
  "ĠAttorney": 11241,
  "Ġgust": 9027,
  "Ġalthough": 1494,
  "ĠPierre": 11248,
  "ĠK": 402,
  "Ġsovereign": 10228,
  "face": 8571,
  "Following": 5235,
  "Ġfounding": 9429,
  "scape": 7358,
  "Ġextreme": 7974,
  "Ġencoun": 4143,
  "Ġappoint": 6073,
  "ĠFriday": 9424,
  "ription": 3526,
  "Ġmiss": 2292,
  "Ġblend": 11269,
  "Ġabund": 8929,
  "Ġ71": 6599,
  "Ġmedley": 15525,
  "Ġdreadn": 11474,
  "umberland": 11860,
  "ĠRear": 11992,
  "avor": 10144,
  "Ġtopic": 13524,
  "omes": 13644,
  "umin": 6837,
  "ĠDiego": 8085,
  "Ġcolour": 6522,
  "Ġsettled": 6565,
  "pent": 9441,
  "Ġelsewhere": 8146,
  "ones": 1682,
  "Ġant": 1638,
  "zen": 5705,
  "ĠNic": 6434,
  "ĠStrat": 14442,
  "Ġestablish": 3182,
  "Ġdancers": 10679,
  "ĠJane": 6456,
  "Ġcapital": 3352,
  "Ġdefined": 5448,
  "fore": 714,
  "ĠFlanders": 12938,
  "ĠKen": 5828,
  "ĠPet": 3471,
  "Ġobtained": 6547,
  "Ï": 145,
  "ĠEqu": 13645,
  "ĠInstitute": 5090,
  "Ġcomic": 5573,
  "Ġinsisted": 9070,
  "Ġheav": 3321,
  "Ġnot": 431,
  "eping": 7774,
  "Ġbec": 543,
  "Ġeccentric": 15026,
  "fact": 15476,
  "Ġabsorbed": 11714,
  "ivid": 2184,
  "Ġpr": 698,
  "Ġbetween": 726,
  "Ġ24": 1560,
  "ĠStafford": 15909,
  "Ġfailing": 9914,
  "wards": 1126,
  "ick": 664,
  "riers": 6838,
  "Ġ230": 12149,
  "itime": 11580,
  "ĠChampion": 9514,
  "hyd": 15152,
  "Ġpairs": 10213,
  "Ġextremely": 6193,
  "Ġterrible": 15706,
  "ĠDomin": 7173,
  "ĠConnecticut": 9363,
  "Ġlevels": 3851,
  "Ġkeen": 13641,
  "c": 74,
  "ĠGor": 9947,
  "Ġbrings": 12032,
  "osc": 12475,
  "It": 6255,
  "Ġprivate": 3349,
  "ĠScully": 6608,
  "aked": 6419,
  "Ġmirror": 14262,
  "ĠTunnel": 13846,
  "Ġwindow": 7832,
  "ĠBern": 5960,
  "Ġconst": 1139,
  "Ġmi": 2359,
  "Ġfam": 1085,
  "ĠMarge": 9981,
  "ĠFantasy": 4765,
  "Ġtournament": 4703,
  "quar": 3798,
  "Ġmanagers": 15495,
  "Ġoffices": 7550,
  "At": 3425,
  "Ġgoes": 5740,
  "ĠScot": 3340,
  "oci": 1466,
  "urse": 13388,
  "ĠRub": 9283,
  "Ġdrift": 15124,
  "Ġpromising": 14147,
  "ĠArnold": 9274,
  "Ġskeleton": 14478,
  "ican": 7700,
  "wig": 13333,
  "ĠNL": 13191,
  "St": 3013,
  "ĠRobin": 11971,
  "Ġneighbouring": 13454,
  "ĠBaby": 9017,
  "illed": 3974,
  "arma": 12539,
  "ĠBill": 2109,
  "All": 7956,
  "legraph": 10000,
  "Ġcott": 15647,
  "Ġassass": 7527,
  "Ġengineers": 11515,
  "Ġterms": 3411,
  "Ġcriticism": 5029,
  "rys": 15055,
  "Ġsoil": 8213,
  "ĠRÃ©": 14944,
  "ĠSalisbury": 14774,
  "ĠProduct": 10854,
  "mons": 14964,
  "wright": 10586,
  "Ġdesign": 1011,
  "ĠÅ": 7504,
  "Ġsingles": 4714,
  "Ġperfectly": 13762,
  "oad": 1372,
  "Ġfarms": 13384,
  "Ġsuppl": 4105,
  "Ġprohib": 7870,
  "Ġtwelfth": 14446,
  "Ġcross": 1895,
  "Ġescape": 4850,
  "nam": 13902,
  "Ġsame": 1118,
  "Ġtactics": 10129,
  "Ġcam": 11137,
  "Ġattained": 8932,
  "Ġ1881": 12387,
  "Ġexecuted": 7492,
  "ĠWilson": 4991,
  "ud": 389,
  "Ġeas": 4529,
  "ĠFar": 4701,
  "ĠBob": 4012,
  "ĠDavid": 2192,
  "Ġ...": 1371,
  "Ġmultip": 3181,
  "Ġwithin": 1478,
  "agement": 5806,
  "ĠEdge": 8826,
  "ĠSurvey": 14457,
  "Ġawards": 5407,
  "Ġaqu": 11974,
  "xic": 2504,
  "Ġ2014": 2036,
  "Ġseemingly": 13453,
  "ivity": 4670,
  "Ġadvertising": 9730,
  "oviet": 2863,
  "Ġemployed": 5821,
  "enced": 2113,
  "Ġrepresentative": 7976,
  "BO": 12648,
  "merc": 2523,
  "Ġrespons": 2613,
  "ĠMad": 2038,
  "Ġrelax": 14723,
  "ÉĻ": 11089,
  "Ġhelicopters": 14722,
  "Ġhonours": 13678,
  "Ġvin": 15784,
  "Ġhouses": 4007,
  "Ġmim": 13270,
  "Ġremove": 7945,
  "ĠThor": 7896,
  "ĠBelgian": 9968,
  "Ġthey": 582,
  "ĠConservative": 11922,
  "Ġhave": 520,
  "Ġposts": 11650,
  "Ġfore": 1695,
  "Ġvenue": 9411,
  "Ġlocation": 3398,
  "iques": 6187,
  "Ġtra": 804,
  "Ġoffers": 6327,
  "Ġsem": 3639,
  "Ġreign": 4704,
  "Ġbypass": 7936,
  "Ġheld": 1489,
  "ĠPick": 12365,
  "Ġdominant": 8874,
  "Ġsitting": 9333,
  "Ġfluor": 13297,
  "aco": 11092,
  "achel": 6715,
  "Ġ179": 3924,
  "ian": 429,
  "Ġattributed": 6799,
  "anc": 1030,
  "atre": 5887,
  "Ġchallenged": 9594,
  "urer": 8917,
  "Ġaudition": 9127,
  "Ġstore": 5458,
  "ilies": 4946,
  "Ġpraised": 2648,
  "incial": 8228,
  "Ġhaul": 13945,
  "Ġroads": 5148,
  "Ġexha": 9617,
  "Ġwonderful": 15500,
  "Ġtape": 10973,
  "ĠFlight": 8429,
  "Ġ169": 9877,
  "Ġ56": 4915,
  "Ġimagery": 9808,
  "Ġsupplement": 13894,
  "othing": 6820,
  "Ġmuscle": 14015,
  "Ġfresh": 5472,
  "ĠLithuania": 14527,
  "Ġfake": 14709,
  "ĠFifth": 12146,
  "Ġsmall": 1215,
  "Ġediting": 13376,
  "ĠBan": 8193,
  "ĠTell": 15303,
  "icate": 8952,
  "ĠFrom": 3085,
  "ĠRoberts": 7572,
  "Ġuniversal": 10879,
  "Ġ;": 478,
  "ĠFranc": 3381,
  "ĠArtillery": 14293,
  "Ġweigh": 10087,
  "es": 235,
  "Ġp": 243,
  "Ġreserves": 12915,
  "Ġruins": 13785,
  "ĠRecord": 9046,
  "ain": 354,
  "ĠAsh": 5287,
  "hor": 1479,
  "icks": 6888,
  "ien": 3236,
  "ester": 7200,
  "ĠManuel": 12720,
  "Ġmartial": 12329,
  "ĠCharlotte": 11484,
  "Ġneighboring": 14311,
  "ĠFrank": 2960,
  "ĠCastle": 4956,
  "Ġcompan": 3390,
  "Ġensure": 7097,
  "Ġinterviewed": 13229,
  "Ġsearching": 12462,
  "Ġwall": 2629,
  "Ġcartoon": 10251,
  "ĠCreat": 15398,
  "Ġorange": 10902,
  "alysis": 13151,
  "Ġcliff": 11015,
  "Ġtemperatures": 7302,
  "ĠGl": 1957,
  "ishop": 3825,
  "Ġarchaeological": 12556,
  "Ġsystem": 1165,
  "Cl": 9973,
  "ĠSpace": 6686,
  "Ġdifficulty": 6976,
  "ĠLP": 11476,
  "ater": 495,
  "ĠTurks": 13467,
  "Ġintensified": 8296,
  "Ġconspiracy": 11887,
  "isf": 4899,
  "Ġlearned": 5959,
  "Ġboundaries": 10900,
  "ĠCA": 12993,
  "wall": 5420,
  "Ġtold": 2765,
  "PS": 12667,
  "aker": 2725,
  "ĠHave": 15337,
  "stit": 2269,
  "Ġquest": 2729,
  "Ġren": 2272,
  "Ġdemanding": 13326,
  "Ġsafe": 7955,
  "Ġmechanical": 9885,
  "less": 2123,
  "Ġimpossible": 8263,
  "Ġcou": 2675,
  "Ġ84": 6409,
  "Ġcattle": 11213,
  "Ġlock": 10116,
  "ĠStalin": 14897,
  "Ġpurchased": 5409,
  "roft": 14882,
  "Ġcontinues": 4032,
  "Ġperforms": 15023,
  "keley": 13036,
  "Ġlearn": 5156,
  "ific": 831,
  "ĠHass": 12985,
  "ĠTyler": 10942,
  "Ġteammates": 13639,
  "Ġinher": 7780,
  "Ġrectang": 14384,
  "ĠMand": 9879,
  "ĠCann": 13808,
  "ĠHindu": 8432,
  "Ġwritten": 1710,
  "Ġaddressed": 10685,
  "Ġnomine": 13233,
  "Ġhope": 6714,
  "ĠAugust": 1115,
  "ĠChet": 11836,
  "Ġsided": 15894,
  "ph": 594,
  "ĠKennedy": 6563,
  "ĠSpy": 13728,
  "ĠMot": 5586,
  "ĠCast": 2880,
  "Ġrain": 4686,
  "ams": 3405,
  "acking": 12714,
  "Ġconfronted": 14733,
  "ĠSte": 1980,
  "Ġ88": 6218,
  "Ġcontributions": 8723,
  "Ġincludes": 3339,
  "ĠSeptember": 1112,
  "er": 218,
  "ĠEc": 10466,
  "Ġaccuracy": 14083,
  "ĠESPN": 15089,
  "Ġmainstream": 7939,
  "fold": 15860,
  "Ġchampionship": 4014,
  "Ġtoward": 4676,
  "ĠGlas": 11415,
  "hers": 10628,
  "ĠAlexander": 5037,
  "Ġvaries": 12297,
  "ĠUp": 3274,
  "Ġuncom": 9733,
  "ĠFriend": 8557,
  "Ġgall": 6415,
  "Ġdesigned": 2493,
  "Ġ1975": 5605,
  "Ġlengths": 12530,
  "Ġqualities": 12872,
  "vo": 11229,
  "ĠDenmark": 9044,
  "Ġn": 274,
  "ao": 10898,
  "inct": 3044,
  "uese": 9393,
  "racks": 11279,
  "ĠGuy": 7784,
  "olly": 9178,
  "Ġperc": 11868,
  "ĠRange": 13059,
  "Ġpaid": 4216,
  "itzerland": 8812,
  "oria": 10299,
  "ĠDou": 4081,
  "Ġencourage": 12532,
  "Ġoffer": 4516,
  "elly": 5645,
  "rows": 8412,
  "men": 2169,
  "Ġlists": 8291,
  "ĠNorthern": 4693,
  "ĠIm": 3114,
  "ĠArmen": 7149,
  "Upon": 10482,
  "ĠSergeant": 15808,
  "Ġbeginning": 2842,
  "yc": 11680,
  "Ġsplit": 4776,
  "lers": 4562,
  "atra": 9579,
  "Ġremoving": 11689,
  "put": 5614,
  "ĠLaura": 14531,
  "ĠKaiser": 10711,
  "Ġits": 486,
  "ĠAc": 2815,
  "Ġhur": 13614,
  "ĠWall": 3936,
  "Ġcontinu": 9115,
  "chool": 1014,
  "Ġpulled": 8662,
  "Ġalways": 3364,
  "achus": 5766,
  "uper": 14794,
  "Ġ13": 1086,
  "Ġproducts": 6342,
  "Ġmission": 3637,
  "irs": 13570,
  "ĠNature": 10744,
  "coming": 7373,
  "Ġresist": 4441,
  "rov": 8892,
  "Ġ10": 812,
  "Ġantib": 11748,
  "Ġtaught": 7725,
  "izz": 11206,
  "Ġrivalry": 10344,
  "astical": 15277,
  "Ġgrid": 11855,
  "ĠPack": 12303,
  "imir": 13249,
  "Ġsteady": 13568,
  "ĠHom": 11666,
  "Ġcust": 3985,
  "Ġaveraging": 15034,
  "Ġadapted": 6219,
  "co": 2323,
  "ĠWa": 10943,
  "Ġmultiple": 4097,
  "Ġsoft": 5241,
  "Ġchange": 2632,
  "ĠKate": 10288,
  "Ġfru": 12393,
  "Ġfired": 4595,
  "Ġpattern": 4544,
  "ĠCamp": 3447,
  "ject": 867,
  "ĠNintendo": 5404,
  "ĠNeg": 15946,
  "ieval": 6265,
  "Ġworthy": 15527,
  "LA": 11325,
  "ĠMachine": 12483,
  "ĠMonster": 12971,
  "rand": 1395,
  "Ġonwards": 12375,
  "Ġfundamental": 11840,
  "Ġconscious": 8479,
  "Ġpopular": 1842,
  "Ġgoalkeeper": 14959,
  "Ġorb": 7915,
  "cies": 15287,
  "ĭ": 190,
  "ĠEconom": 8893,
  "ucky": 4926,
  "ĠCanada": 2681,
  "je": 9215,
  "abeth": 4558,
  "ĠKaz": 11838,
  "Ġinsp": 2247,
  "ervation": 3781,
  "Ġchampion": 6667,
  "oro": 14708,
  "Ġgoddess": 11327,
  "Ġrendered": 11201,
  "ium": 1074,
  "Ġcoastline": 12871,
  "Ġservants": 14748,
  "ĠObama": 9343,
  "Ġram": 14838,
  "ilers": 7037,
  "imately": 1998,
  "Ġwomen": 2144,
  "Ġlatest": 12488,
  "Ġtrapped": 11246,
  "Ġpunk": 9184,
  "ĠCer": 11097,
  "irl": 2100,
  "Ġtook": 1153,
  "Ġtheories": 10548,
  "Ġsummit": 10624,
  "rete": 6396,
  "ĠStein": 11394,
  "Ġdimensional": 12666,
  "ggy": 15129,
  "Ġdesire": 6944,
  "urs": 1616,
  "Ġconvoys": 15447,
  "ĠSteam": 12082,
  "ported": 9671,
  "ĠOrder": 5627,
  "icial": 5397,
  "aland": 15170,
  "Ġfunction": 4023,
  "ĠHay": 5515,
  "Ġphilos": 5433,
  "¦": 107,
  "Ġexpectations": 12574,
  "ĠMulder": 6269,
  "Ġ109": 9158,
  "Ġevent": 1329,
  "Ġbasketball": 7015,
  "Ġsucceed": 9202,
  "Ġplum": 12607,
  "Ġdoubt": 9204,
  "asury": 11785,
  "Ġguid": 14849,
  "Ġwelcom": 14696,
  "ĠBalk": 14518,
  "Ġarray": 12821,
  "Ġconquest": 11556,
  "izing": 3568,
  "Ġ18": 528,
  "Ġthose": 1449,
[...]
