{
  "Ġconvey": 6670,
  "Ġlow": 843,
  "Ġhere": 1182,
  "Ġtime": 680,
  "Ġlimit": 2026,
  ");": 265,
  "ifies": 4142,
  "lf": 4000,
  "Ġmore": 531,
  "rchr": 5463,
  "SILON": 6031,
  "ĠPositioning": 6691,
  "Ġdir": 1805,
  "xx": 4626,
  "ĠInternal": 5922,
  "Ġredeclared": 4087,
  "endif": 2747,
  "Ġzero": 609,
  "Ġassigned": 1634,
  "Ġtogether": 1607,
  "Ġrestrictions": 2301,
  "fcnt": 3606,
  "Ġexternally": 4878,
  "FILE": 1169,
  "Ġpaste": 5157,
  "<eos>": 3,
  "());": 3764,
  "plementation": 3760,
  "oci": 1100,
  "Ġconstruct": 3381,
  "Ġlanguage": 1086,
  "Ġarguments": 550,
  "Ġenumerations": 3199,
  "ĠInformation": 5923,
  "Ġattem": 2358,
  "dividual": 5128,
  "Ġterms": 3172,
  "Ġfetches": 4437,
  "limin": 6292,
  "Ġattr": 3421,
  "Ġstructures": 1070,
  "Ġthink": 5632,
  "ĠDiagnostics": 6698,
  "Ġalgorithm": 2670,
  "Ġsec": 4647,
  "Ġprogression": 4504,
  "cor": 3987,
  "fillbuf": 2530,
  "ĠDirent": 3151,
  "Ġbroad": 6486,
  "Ġsup": 1589,
  "Ġdescribed": 1306,
  "clud": 835,
  "Ġdescript": 1378,
  "ign": 249,
  "Ġdp": 4691,
  "Ġbas": 1546,
  "IOFBF": 6631,
  "ipul": 1829,
  "Ġrecogn": 3544,
  "ĠTr": 3137,
  "es": 130,
  "vity": 5483,
  "name": 750,
  "everthe": 4954,
  "Ġexplo": 6127,
  "Ġ*": 169,
  "Ġradians": 4177,
  "Ġthese": 910,
  "ĠY": 2048,
  "Ġrudimentary": 3911,
  "Ġenumerator": 2801,
  "Ġcryptic": 6652,
  ">)": 3951,
  "mitted": 5437,
  "Ġediting": 6552,
  "Ġcases": 2131,
  "Ġass": 435,
  "used": 3386,
  "dfd": 3308,
  "Ġmach": 939,
  "carriage": 6634,
  "Ġsimplest": 3530,
  "ĠDecrement": 6699,
  "Ġfiles": 757,
  "Ġcertain": 1757,
  "Ġcaution": 5865,
  "Ġhelpful": 4378,
  "Ġsearches": 5189,
  "MANT": 6562,
  "Ġ231": 5898,
  "vert": 3404,
  "velo": 4125,
  "Ġsimulate": 6066,
  "Ġconversions": 1412,
  "ches": 1694,
  "IFDIR": 4415,
  "ased": 4769,
  "Pointer": 5168,
  "Brian": 6561,
  "cat": 1115,
  "Ġgroup": 1384,
  ":%-": 5140,
  "amp": 5631,
  "gram": 271,
  "Ġformalizing": 6368,
  "rea": 4644,
  "OKE": 3584,
  "Ġloop": 700,
  "ail": 716,
  "#": 8,
  "Ġis": 137,
  "AND": 1962,
  "Ġdrawback": 6522,
  "UN": 3595,
  "pen": 802,
  "Ġcounter": 6459,
  "spl": 5468,
  "Ġ176": 5037,
  "cpy": 3306,
  "op": 420,
  "Ġdimension": 6660,
  "Ġconsiderable": 5044,
  "arenthes": 3794,
  "Ġdistinction": 4384,
  "WOR": 2422,
  "ys": 3338,
  "Ġtokentype": 3359,
  "separ": 5636,
  "Ġmessages": 5239,
  "Ġlarger": 2283,
  "fopen": 3994,
  "Ġconstituting": 6498,
  "scanf": 1751,
  "Ġsupplied": 5196,
  "Ġcorresponding": 1186,
  "Ġmanipulated": 5066,
  "Ġprefix": 2248,
  "Ġsubaggregate": 4232,
  "ĠN": 445,
  "Ġunderstood": 5093,
  "ĠJan": 5023,
  "Ġheavi": 5899,
  "Ġdone": 1294,
  "local": 2608,
  "Ġiss": 2570,
  "Ġitself": 988,
  "expr": 2150,
  "Ġproblem": 1788,
  "Ġleft": 601,
  "Ġgeneralize": 6151,
  "message": 3322,
  "Ġx": 561,
  "Ġcollection": 5053,
  "Ġrespect": 3745,
  "relational": 3533,
  "Ġselect": 5797,
  "Ġbrief": 3786,
  "ĠJim": 6191,
  "izing": 3692,
  "Ġ82": 6153,
  "ure": 290,
  "Ġindication": 6096,
  "tolower": 6077,
  "Ġscaled": 6520,
  "ately": 4129,
  "Ġide": 2443,
  "Ġtrying": 6369,
  "Ġval": 1163,
  "Ġinterpretation": 3028,
  "con": 762,
  "Ġcontinues": 5032,
  "gral": 942,
  "pected": 4334,
  "ertain": 1643,
  "Ġpartly": 4209,
  "Ġbyte": 3393,
  "amb": 3374,
  "ursive": 5007,
  "RE": 2847,
  "Ġwas": 1080,
  "Ġmagn": 4078,
  "Ġarea": 4111,
  "??": 4533,
  "DR": 2542,
  "ĠOperations": 4484,
  "Ġme": 841,
  "ĠOpening": 6537,
  "ĠParentheses": 5875,
  "Ġscope": 1159,
  "Ġlat": 1619,
  "These": 2902,
  "Ġoperands": 999,
  "Ġsurpr": 3857,
  "derr": 5402,
  "D": 39,
  "Ġma": 397,
  "g": 74,
  "Ġstrongly": 4465,
  "ĠExplain": 6053,
  "Ġcomput": 1147,
  "tmp": 2867,
  "Ġcomputers": 6120,
  "ample": 3112,
  "Ġorganize": 6348,
  "Ġstanding": 6525,
  "Ġmodifying": 5149,
  "ingdom": 5610,
  "ser": 1985,
  "enum": 2445,
  "Ġ40": 4955,
  "ĠPrinted": 5877,
  "Ġactiv": 6280,
  "Ġirrelevant": 4500,
  "ĠSubstitution": 6620,
  "Ġreduce": 6491,
  "tem": 1514,
  "DOM": 5333,
  "ĠStr": 1200,
  "increments": 5263,
  "Ġconsequence": 5650,
  "Ġhandler": 4297,
  "ĠLONG": 5972,
  "etc": 5654,
  "fr": 5407,
  "nw": 5442,
  "it": 133,
  "bre": 3599,
  "ĠUse": 3769,
  "ĠComments": 4352,
  "dd": 1074,
  "Ġdescr": 734,
  "Ġta": 948,
  "fp": 1059,
  "day": 1331,
  "Ġno": 449,
  "ustr": 1240,
  "newline": 3899,
  "Ġtermin": 869,
  "Ġefficient": 2500,
  "Ġadjacent": 2395,
  "ĠReturning": 6709,
  "Ġfound": 1083,
  "Ġspaces": 3405,
  "acing": 2906,
  "enced": 3648,
  "okup": 3778,
  "Ġthemselves": 3040,
  "because": 5387,
  "Ġobser": 2934,
  "ftime": 3744,
  "Ġname": 443,
  "Ã": 99,
  "Ġdeclaration": 333,
  "Ġinclude": 1269,
  "Ġsu": 321,
  "roughout": 6133,
  "Initialization": 4914,
  "Ġwin": 5576,
  "Ġconcaten": 1624,
  "Ġwritten": 787,
  "Ġpreprocess": 1234,
  "Ġfputs": 2884,
  "node": 1389,
  "Ġdirectory": 1151,
  "Ġmodul": 3501,
  "Ġchanges": 1832,
  "Ġfeatured": 3549,
  "ired": 2360,
  "poss": 4223,
  "Ġallocated": 2622,
  "Ġinvisible": 4319,
  "Ġconstants": 811,
  "Ġ174": 3830,
  "Ġignore": 1741,
  "entr": 2571,
  "Ġwhen": 654,
  "ĠRoman": 4262,
  "ASHSIZE": 5260,
  "ĠTAB": 5818,
  "ĠTak": 4808,
  "Ġhelps": 6255,
  "Ġperms": 3479,
  "Ġeffect": 881,
  "Ġexp": 1178,
  "Another": 4336,
  "Ġcontent": 5826,
  "ĠReference": 6228,
  "Ġsig": 4044,
  "Ġ}": 886,
  "Ġ1": 258,
  "adic": 4759,
  "Ġunspec": 3123,
  "ĠOther": 1631,
  "ĠCont": 2979,
  "^": 65,
  "Ġolder": 4047,
  "gories": 5095,
  "iers": 4582,
  "Ġentries": 3793,
  "Ġtrim": 4873,
  "Ġunderstanding": 6358,
  "Ġscal": 4046,
  "named": 2293,
  "changes": 5088,
  "ĠSTATIC": 3555,
  "hip": 4580,
  "bject": 3064,
  "Ġgetc": 1942,
  "diff": 4472,
  "Ġ(,": 4725,
  "Ġdef": 1025,
  "Ġcurrent": 1422,
  "read": 1064,
  "Ġunderst": 2193,
  "ferences": 5849,
  "Ġrefers": 1807,
  "realloc": 5513,
  "argc": 1947,
  "ĠNALLOC": 4430,
  "ĠLimits": 5976,
  "ĠUpper": 6003,
  "igraph": 3117,
  "Ġflow": 3651,
  "Ġguarantee": 3835,
  "ost": 1060,
  "mentary": 3114,
  "found": 2548,
  "Ġ52": 4933,
  "ĠIncrement": 4212,
  "month": 2863,
  "ĠFirst": 2749,
  "isdigit": 2909,
  "Ġtask": 4436,
  "Ġregion": 4972,
  "ution": 1932,
  "ied": 819,
  "Ġonto": 2730,
  "Ġsole": 5846,
  "Ġconstit": 3727,
  "Ġgiv": 858,
  "LINE": 1309,
  "ĠBasic": 4450,
  ".": 18,
  "Ġmalloc": 1245,
  "Ġcoercion": 6530,
  "Ġunsuffixed": 6432,
  "ps": 2118,
  "Ġoperation": 1675,
  "ĠExcept": 4272,
  "echo": 6262,
  "ĠLe": 3758,
  "now": 1208,
  "ries": 3073,
  "Ġnor": 3103,
  "Ġperiod": 4956,
  "poses": 6250,
  "rodu": 1431,
  "orage": 610,
  "udo": 3837,
  "Ġinvolved": 3519,
  "ĠHar": 6023,
  "Ġpragma": 4979,
  "Ġunary": 1466,
  "OM": 3970,
  "exical": 4136,
  "Ġarrays": 1124,
  "free": 1791,
  "Ġstyles": 4704,
  "und": 551,
  "Ġuses": 1404,
  "Ġsure": 2703,
  "Ġdirection": 3363,
  "Ġbinary": 1665,
  "Ġconfus": 5070,
  "ĠCalls": 4153,
  "Ġindirectly": 4958,
  "yles": 4628,
  "auto": 3919,
  "Ġgrammar": 2402,
  "ĠFah": 3135,
  "Ġcontrols": 3477,
  "ĠWide": 5856,
  "Ġvfprintf": 4717,
  "hh": 3313,
  "putc": 3403,
  "ĠSte": 5785,
  "Ġgrammatic": 6265,
  "Ġperm": 983,
  "ĠNor": 4833,
  "Ġhigh": 1669,
  "pr": 814,
  "Ġcry": 5532,
  "Ġgetline": 1057,
  "Ġchang": 769,
  "Ġcreates": 2793,
  "Ġoffic": 5024,
  "ĠSince": 1770,
  "priate": 1893,
  "Ġbeha": 1811,
  "Ġrecursively": 2520,
  "ated": 363,
  "ĠLibrary": 5978,
  "Ġ')')": 6592,
  "ĠSt": 1012,
  "Ġwider": 5579,
  "Ġmoder": 5919,
  "Ġpermits": 3480,
  "ĠArrays": 1912,
  "Ġ'-": 2603,
  "ite": 805,
  "Ġsupp": 2159,
  "file": 1697,
  "mp": 706,
  "Mar": 5347,
  "otion": 5677,
  "Ġmatch": 1498,
  "deed": 5680,
  "Ġunlink": 5712,
  "Ġfamily": 5204,
  "Ġrefin": 5620,
  "Ġall": 374,
  "pendix": 1410,
  "ĠSEEK": 3893,
  "ĠValu": 4999,
  "Ġhas": 460,
  "Ġaffects": 6507,
  "65535": 6559,
  "12": 906,
  "Ġdereferencing": 6623,
  "B": 37,
  "Ġptrdiff": 5145,
  "Ġusing": 1300,
  "Ġlogical": 2759,
  "imes": 1526,
  "ĠBlocks": 6385,
  "ĠEquivalence": 6688,
  "stered": 4068,
  "Ġreflect": 3907,
  "Ġunderlying": 6166,
  "ĠNA": 2610,
  "amental": 4711,
  "Ġsurrounding": 5151,
  "Ġdetails": 1835,
  "ĠExit": 6050,
  "ully": 2384,
  "Ġ.": 2698,
  "Ġannoun": 3029,
  "Ġ=": 199,
  "het": 4640,
  "Ġcreated": 3478,
  "'s": 685,
  "Ġexamine": 4849,
  "ĠBill": 4850,
  "parameter": 1892,
  "Ġplace": 1235,
  "valu": 1266,
  "45": 3575,
  "rit": 313,
  "ĠMeaning": 4237,
  "So": 3589,
  "Ġnormally": 1907,
  "ĠUkra": 6004,
  "Ġcorrectly": 3254,
  "Ġnode": 1681,
  "Ġfour": 2368,
  ",": 16,
  "ay": 174,
  "Ġtokens": 1951,
  "Ġexcluding": 5646,
  "Ġsyntact": 2512,
  "ĠZ": 4629,
  "r": 85,
  "Ġarchitecture": 5275,
  "Ġdistance": 6156,
  "types": 4367,
  "Ġdisallowed": 6704,
  "ĠInterface": 6539,
  "While": 5152,
  "ypv": 6104,
  "ion": 122,
  "literal": 5430,
  "Ġinnermost": 4476,
  "setpos": 4315,
  "Ġmove": 4854,
  "Ġloops": 2170,
  "ĠRenaissance": 6708,
  "Ġbrack": 2971,
  "Ġappro": 1493,
  "be": 4567,
  "uplic": 4621,
  "ĠDec": 4867,
  "Ġpartic": 965,
  "Ġreturning": 1403,
  "ear": 945,
  "Ġvect": 5642,
  "Ġknow": 1499,
  "Ġunrelated": 3567,
  "ĠWeinberger": 6711,
  "erial": 3634,
  "ĠLOW": 4897,
  "wer": 712,
  "gument": 2155,
  "precision": 3689,
  "just": 3068,
  "Ġdirdcl": 4381,
  "Ġshould": 1111,
  "wo": 2868,
  "Ġrand": 2246,
  "pop": 3326,
  "Ġitem": 2458,
  "Ġpushing": 6155,
  "Ġlim": 1365,
  "Ġdiscuss": 1134,
  "ric": 5458,
  "Ġdependencies": 6157,
  "Ġprocessing": 2985,
  "Ġpermitted": 1954,
  "ned": 2555,
  "Ġderived": 5594,
  "Ġmajor": 3728,
  "Ġmachines": 2276,
  "os": 4598,
  "ĠFLO": 4806,
  "Ġperfect": 6069,
  "Ġobey": 4815,
  "Ġapplic": 4827,
  "Ġ...);": 4938,
  "Ġlittle": 4084,
  "able": 336,
  "Header": 3051,
  "Ġcont": 342,
  "Ġsummarized": 6419,
  "Ġprogramming": 2646,
  "Ġoperates": 4775,
  "Ġopens": 4295,
  "Ġimmediate": 2255,
  "ulate": 4745,
  "ym": 3337,
  "hematic": 2438,
  "Ġtmpnam": 5230,
  "Ġbegin": 751,
  "Ġof": 134,
  "Although": 2299,
  "Ġstar": 2229,
  "Ġavoid": 3082,
  "ĠError": 3431,
  "ĠConditional": 3038,
  "Ġback": 1095,
  "UT": 3059,
  "Ġarr": 2235,
  "Ġisalnum": 5582,
  "ess": 286,
  "bits": 2545,
  "pens": 2787,
  "know": 3318,
  "\"))": 4511,
  "))": 813,
  "Ġcontents": 1630,
  "last": 4004,
  "am": 154,
  "ĠText": 5817,
  "Ġexten": 2342,
  "compiled": 6319,
  "\")": 3935,
  "utomatic": 3376,
  "ĠShould": 4466,
  "LLOC": 2490,
  "Ġvariant": 4170,
  "{": 94,
  "Ġcanonical": 6533,
  "Ġinner": 2568,
  "Ġdifference": 2088,
  "les": 346,
  "Ġaff": 3341,
  "aste": 4879,
  "Ġentire": 1955,
  "ĠG": 1336,
  "Ġread": 472,
  "world": 5201,
  "ĠProsser": 6690,
  "sy": 1478,
  ">;": 4532,
  "abbreviated": 5693,
  "Ġdescribing": 4299,
  "ext": 391,
  "Ġple": 4667,
  "Ġconveniently": 3833,
  "fre": 4577,
  "Ġcompared": 1904,
  "UF": 1916,
  "Several": 4560,
  "Ġor": 189,
  "direct": 1745,
  "Ġdisag": 4908,
  "Ġcommitte": 5991,
  "Ġpresented": 2810,
  "ĠERANGE": 3930,
  "itted": 1242,
  "Ġprev": 2751,
  "Ġsince": 991,
  "ĠFor": 614,
  "getenv": 5941,
  "lin": 5429,
  "22": 4524,
  "Ġindicates": 2380,
  "Ġgettoken": 3432,
  "Ġsalary": 6647,
  "Ġfscanf": 3652,
  "ifiable": 5738,
  "ĠNAME": 3546,
  "ĠHeader": 3170,
  "ĠMS": 4234,
  "yc": 4627,
  "Ġanalogous": 2302,
  "eno": 4654,
  "ĠPredefined": 6326,
  "als": 4677,
  "printf": 638,
  "declaratoropt": 2789,
  "ĠQual": 4037,
  "ĠSizes": 5786,
  "though": 1149,
  "def": 514,
  "Ġdistinguished": 5124,
  "Ġtrack": 4227,
  "Ġcontro": 867,
  "unt": 646,
  "ĠPromotion": 5878,
  "Ġexceed": 3379,
  "[--": 5370,
  "Ġvert": 2899,
  "Ġstarted": 3017,
  "bell": 5388,
  "Ġun": 225,
  "Ġaround": 2126,
  "Ġkeytab": 1638,
  "ury": 4102,
  "Ġsides": 5519,
  "labeled": 4009,
  "Ġwith": 226,
  "ĠâĢĵ": 2305,
  "Ġadopted": 6593,
  "ptr": 784,
  "Ġcast": 1058,
  "ĠCast": 4152,
  "Ġcomponent": 5862,
  "ent": 143,
  "768": 5316,
  "Ġnear": 3718,
  "Ġpasses": 2630,
  "so": 526,
  "Ġobjects": 714,
  "ĠApplying": 6678,
  "dif": 3603,
  "Ġinvented": 6122,
  "RADIX": 3916,
  "ends": 2927,
  "Ġ60": 3802,
  "Ġpolic": 5670,
  "ens": 1460,
  "kra": 5428,
  "iter": 1194,
  "Ġlasts": 6093,
  "Ġlangu": 923,
  "oman": 4106,
  "state": 911,
  "Ġspecialized": 2994,
  "Ġhead": 788,
  "Ġalter": 3415,
  "Ġassoci": 1150,
  "Ġsatisf": 1988,
  "void": 566,
  "Ġunprocessed": 6674,
  "quality": 4898,
  "Re": 5359,
  "Ġalternative": 2650,
  "Ġprogrammer": 5052,
  "Ġmost": 753,
  "iop": 3316,
  "fill": 2112,
  "Ġbal": 5565,
  "Ġfails": 2708,
  "Ġunre": 4746,
  "flag": 2039,
  "If": 1221,
  "Ġhands": 6084,
  "Ġanotherprog": 6089,
  "DIR": 2101,
  "yp": 1062,
  "error": 520,
  "Ġdelim": 4777,
  "Ġrequirements": 4329,
  "Ġthough": 1998,
  "Ġcarefully": 3848,
  "Ġdiscard": 2016,
  "©": 98,
  "me": 3615,
  "Ġtheir": 919,
  "Ġob": 370,
  "led": 2690,
  "meric": 5228,
  "Ġinfinite": 4061,
  "ĠUkraine": 6706,
  "30": 3947,
  "Ġrun": 1819,
  "Ġposition": 966,
  "Ġpain": 4668,
  "Ġhalf": 4118,
  "bage": 3984,
  "Ġexecution": 1599,
  "Ġinto": 534,
  "Ġfahr": 1427,
  "Ġkind": 1733,
  "Ġperformed": 1849,
  "MOS": 5349,
  "Ġpicture": 5176,
  "Ġdecreasing": 5083,
  "ĠListing": 5977,
  "gth": 937,
  "quival": 5732,
  "Ġpreceded": 2187,
  "etting": 4100,
  "Ġnature": 4688,
  "Ġabstract": 2954,
  "pt": 222,
  "Ġsub": 569,
  "Ġrealloc": 5623,
  "Ġmaxline": 4965,
  "Ġzeros": 3164,
  "ĠThey": 2239,
  "Ġsomething": 2642,
  "Ġtasks": 3885,
  "ich": 304,
  "Ġgenerality": 4335,
  "ĠInput": 1825,
  "Ġrich": 5815,
  "agic": 4148,
  "vent": 4622,
  "Ġsection": 1940,
  "Ġextr": 2456,
  "Ġ2": 454,
  "Ġexpected": 2824,
  "Ġrecent": 6082,
  "Ġencountered": 3026,
  "Ġfseek": 3091,
  "Ġsimplify": 6303,
  "off": 4603,
  "Ġspecifies": 1441,
  "Ġunprocess": 5710,
  "T": 55,
  "Ġreduced": 5209,
  "Ġ...''": 4939,
  "Ġunchanged": 2734,
  "Ġhdr": 4117,
  "Ġnatural": 2406,
  "pos": 1725,
  "ncmp": 5056,
  "ways": 1392,
  "igate": 5665,
  "Ġrandom": 5097,
  "Ġextension": 3259,
  "Ġintellig": 5830,
  "Ġthe": 114,
  "declare": 1695,
  "Names": 5351,
  "Ġcomputationally": 6356,
  "Ġsubsequ": 1563,
  "ink": 1157,
  "Ġxcat": 4880,
  "Ġmodified": 3819,
  "gan": 2215,
  "ath": 3644,
  "preprocessor": 4738,
  "Ġdest": 5589,
  "SIZ": 1346,
  "Ġtem": 1075,
  "plicit": 824,
  "Ġterminator": 6070,
  "ĠPascal": 2479,
  "ĠKE": 5489,
  "ĠSimilarly": 3708,
  "11": 1088,
  "Ġallocbuf": 2269,
  "Ġlinkage": 1689,
  "ace": 388,
  "Ġadjust": 2394,
  "ules": 1198,
  "*)": 3940,
  "Ġplacing": 4919,
  "Ġpreprocessor": 1351,
  "ĠIndeed": 5925,
  "ursion": 4331,
  "Ġcanonrect": 6534,
  "Ġillustrates": 4333,
  "ist": 252,
  "Ġpip": 4670,
  "rand": 2045,
  "Ġsignals": 3507,
  "ĠExample": 3469,
  "Ġeasily": 6136,
  "ational": 1197,
  "dir": 1453,
  "cending": 5398,
  "ĠManagement": 6544,
  "Ġgraph": 6264,
  "â": 100,
  "clu": 418,
  "Ġblan": 1394,
  "ces": 729,
  "Ġbraces": 1447,
  "det": 4573,
  "Ġreading": 1682,
  "Ġbig": 1361,
  "icograph": 4091,
  "Ġholding": 6240,
  "ger": 1792,
  "Ġdepending": 2809,
  "IX": 1170,
  "Ġcannot": 1719,
  "leading": 3565,
  "Block": 4540,
  "Ġpus": 2135,
  "Ġrepresenting": 4935,
  "Ġ220": 4840,
  "signed": 536,
  "Ġliter": 5615,
  "Ġsim": 863,
  "flushbuf": 4435,
  "Ġtoo": 1396,
  "does": 6396,
  "RT": 3586,
  "Ġarena": 5688,
  "10": 954,
  "Ġsteps": 3820,
  "Ġpositive": 1729,
  "Ġalphabetic": 5221,
  "Ġsomewhat": 3761,
  "ime": 513,
  "Ġpop": 1368,
  "ĠAll": 2152,
  "ĠRAND": 6016,
  "Ġmathematical": 4279,
  "see": 3681,
  "Ġcompatible": 5213,
  "Ġredirected": 5241,
  "RADIXn": 6510,
  "Ġpro": 200,
  "ut": 157,
  "Ġaccesses": 6061,
  "isspace": 5051,
  "Ġfile": 338,
  "andard": 448,
  "rammar": 5462,
  "gn": 1388,
  "Ġencycloped": 6718,
  "Ġgetting": 5844,
  "ields": 4337,
  "Ġwork": 2176,
  "declarator": 818,
  "Ġshift": 1722,
  "Ġindicated": 2794,
  "Ġamong": 2521,
  "mediate": 2206,
  "ners": 5443,
  "Ġsolution": 3895,
  "ĠKingdom": 6260,
  "Ġatan": 5812,
  "Ġ<<": 2599,
  "Ġcre": 982,
  "plic": 543,
  "har": 164,
  "Ġbegins": 1565,
  "ĠMin": 5955,
  "Since": 1789,
  "Ġfit": 2882,
  "Ġdescribes": 2976,
  "ition": 287,
  "Ġinter": 791,
  "\\": 63,
  "Ġatt": 3717,
  "produces": 6703,
  "Ġfall": 4658,
  "ason": 2005,
  "Ġcons": 833,
  "J": 45,
  "Ġ79": 6114,
  "qual": 593,
  "lower": 2064,
  "ĠFLT": 4174,
  "ĠOperators": 1473,
  "Ġserious": 5079,
  "iob": 2778,
  "Ġne": 329,
  "Pre": 3585,
  "ĠGiven": 4338,
  "Ġalloc": 768,
  "ĠRe": 1598,
  "lse": 4002,
  "ĠInitialization": 2948,
  "Ġoperations": 2070,
  "Ġcorresponds": 4986,
  "Ġpromotion": 2516,
  "Ġif": 240,
  "Ġy": 417,
  "ult": 390,
  "alk": 2224,
  "Feb": 6514,
  "erify": 5510,
  "pec": 2321,
  "CI": 2107,
  "DI": 1539,
  "ĠAng": 6087,
  "aced": 1164,
  "defines": 2783,
  "bufp": 3463,
  "Ġ76": 6113,
  "Ġfix": 2732,
  "Ġimplicitly": 3898,
  "Ġino": 4673,
  "ished": 2727,
  "Ġref": 3372,
  "Ġemphasize": 6477,
  "Qual": 3974,
  "ĠFort": 2357,
  "Ġwould": 889,
  "separated": 6667,
  "agmas": 5768,
  "cing": 5391,
  "volatile": 4623,
  "Ġmeaningless": 6277,
  "AP": 5323,
  "Ġalong": 2356,
  "Ġap": 440,
  "Ġabsolute": 3861,
  "field": 2040,
  "Ġsubsequently": 3218,
  ")++": 4518,
  "Ġlineno": 5208,
  "ĠUn": 1468,
  "urce": 1067,
  "son": 3620,
  ":%.": 6392,
  "ĠNe": 4832,
  "Ġinvoked": 3806,
  "Ġitsel": 984,
  "Ġalways": 1407,
  "pre": 198,
  "Ġtin": 5490,
  "over": 4018,
  "Ġlineptr": 2767,
  "Ġany": 413,
  "Ġclock": 3646,
  "Ġsize": 466,
  "Ġsitu": 2328,
  "-]": 3282,
  "Ġagainst": 3528,
  "ĠJohn": 4491,
  "Un": 3596,
  "ĠBitwise": 3027,
  "Ġconstructions": 2641,
  "Ġerrno": 3261,
  "Ġmanag": 6048,
  "Ġnw": 4071,
  "Ġmat": 856,
  "Ġformalizes": 6367,
  "OPEN": 4556,
  "Ġaccordingly": 4403,
  "Ġtextual": 6047,
  "Ġsupplying": 6313,
  "Ġdescribe": 3481,
  "Ġrange": 2247,
  "Ġlocal": 1325,
  "Ġconne": 3382,
  "Ġ20": 1374,
  "Ġmechanics": 6323,
  "Ġsubscripted": 6225,
  "ĠLink": 3759,
  "Ġmodify": 2996,
  "Ġfind": 1093,
  "uth": 4088,
  "Ġrelationship": 5217,
  "Ġsqrt": 2875,
  "Ġrunning": 3840,
  "lines": 1138,
  "Ġcontained": 3158,
  "Ġexem": 5643,
  "put": 255,
  "Ġterminating": 2377,
  "Ġl": 150,
  "entionally": 3505,
  "Ġ'.')": 4814,
  "This": 1030,
  "Ġinv": 1160,
  "ĠBy": 2771,
  "Ġcells": 4054,
  "Recently": 6393,
  "Ġadapt": 5883,
  "((": 2413,
  "ĠSome": 2597,
  "utput": 1763,
  "atatype": 4501,
  "usual": 4113,
  "Ġassemb": 5726,
  "Ġhomog": 5689,
  "dig": 1207,
  "Ġpassed": 1784,
  "Ġ16": 1715,
  "stem": 588,
  "ining": 4633,
  "See": 4444,
  "Ġisupper": 4685,
  "ĠWe": 816,
  "getch": 3454,
  "Ġexpr": 1521,
  "init": 2701,
  "Ġcontrol": 979,
  "Ass": 5325,
  "Ġincremented": 2808,
  "[])()": 4346,
  "ĠRes": 6012,
  "Ġarithmetic": 792,
  "Ġlinefeed": 5895,
  "ĠExternal": 2272,
  "Ġneat": 5814,
  "Ġgreatly": 6275,
  "ip": 717,
  "filecopy": 6243,
  "Declarations": 4545,
  ">.)": 5320,
  "Ġclear": 2300,
  "aley": 5563,
  "How": 5340,
  "age": 360,
  "Ġpreviously": 2511,
  "oF": 5448,
  "ĠGerman": 6162,
  "Ġbad": 2889,
  "else": 800,
  "Ġroom": 3168,
  "Ġequ": 855,
  "ro": 151,
  "Ġdiscarded": 2825,
  "ĠIN": 2919,
  "Ġparticularly": 3195,
  "Ġgetbits": 4181,
  "orary": 3096,
  "Ġvarious": 2074,
  "Ġinternally": 5043,
  "Ġcompletely": 4357,
  "Ġreasoning": 6296,
  "Ġbufsize": 6032,
  "clock": 5395,
  "'';": 5902,
  "ĠAnother": 4968,
  "swap": 3233,
  "Ġstream": 932,
  "Ġtre": 2123,
  "Ġsuppressed": 6440,
  "M": 48,
  "Ġcompil": 752,
  "Ġequality": 2803,
  "Ġfval": 5544,
  "Ġ*,": 1247,
  "ley": 4689,
  "Ġtricky": 5947,
  "Ġinterpre": 1952,
  "ĠBit": 2613,
  "Ġcontiguous": 3721,
  "Ġpermanently": 6551,
  "Ġpresence": 6590,
  "Ġpmessage": 4671,
  "atively": 2782,
  "Ġmid": 1482,
  "ĠTaktsang": 5284,
  "ĠNull": 5885,
  "urs": 1270,
  "efin": 3605,
  "ause": 745,
  "Ġinher": 5554,
  "Ġbp": 2569,
  "Rec": 2848,
  "dirname": 5022,
  "Ġdouble": 683,
  "Ġspecifically": 4276,
  "Ġdiffer": 705,
  "Ġstep": 1429,
  "0": 20,
  "Ġ02": 4771,
  "Ġnaturally": 6308,
  "ind": 764,
  "brevi": 3920,
  "Ġdetect": 6057,
  "ell": 2426,
  "ĠHe": 4923,
  "Ġconfused": 5071,
  "Ġclarity": 6467,
  "*.": 4519,
  "de": 185,
  "olution": 4863,
  "er": 112,
  "Ġkey": 723,
  "lus": 3613,
  "Ġnearer": 6496,
  "Ġsufficient": 6221,
  "Ġconsidered": 4366,
  "IT": 3962,
  "Ġconcatenation": 3515,
  "plement": 599,
  "time": 1457,
  "umes": 3400,
  "Ġpreced": 1014,
  "Ġprinting": 1943,
  "handler": 5173,
  "Ġnothing": 2151,
  "Ġmant": 5603,
  "Ġcomplementing": 6380,
  "nt": 469,
  "ecre": 3375,
  "ĠWar": 5854,
  "elational": 3427,
  "tree": 1659,
  "-'": 3945,
  "ĠDefinition": 4219,
  "av": 3982,
  "ĠIntroduction": 4402,
  "Ġ^=": 5129,
  "bitwise": 5019,
  "use": 361,
  "Ġcall": 315,
  "ulary": 5702,
  "keyword": 5136,
  "sizeof": 2502,
  "Ġnamely": 4831,
  "Ġ(%": 4724,
  "atat": 4049,
  "Ġexecuting": 4950,
  "EOF": 3287,
  "arithmetic": 5542,
  "Ġcar": 2130,
  "Ġiq": 5520,
  "Ġmoves": 4855,
  "ĠArea": 4767,
  "lose": 1672,
  "[]);": 4246,
  "Ġunconverted": 5711,
  "ever": 860,
  "Ġexpanded": 3249,
  "Ġreally": 5621,
  "Ġseparates": 6100,
  "declaration": 1136,
  "plex": 5782,
  "Ġdirectives": 4252,
  "Ġ##": 2168,
  "ĠTyp": 3720,
  "Ġconnection": 5181,
  "Ġdelete": 4417,
  "Ġformatted": 3197,
  "ĠRuss": 6018,
  "processing": 4303,
  "ances": 2718,
  "Ġone": 364,
  "Ġsc": 3085,
  "Ġam": 1662,
  "Ġargv": 1567,
  "GE": 2846,
  "Ġresolved": 5917,
  "Ġ~(": 6293,
  "ore": 281,
  "Ġlook": 1436,
  "numerations": 2833,
  "Ġlisted": 4222,
  "ĠThus": 1603,
  "Ġbackwards": 4510,
  "omog": 5679,
  "Ġ101": 4983,
  "Ġidentifieropt": 4233,
  "17": 1976,
  "Ġ-,": 4185,
  "ingu": 2573,
  "Ġprivate": 3196,
  "=": 33,
  "edit": 5560,
  "Ġmix": 3366,
  "ould": 584,
  "idual": 3694,
  "ount": 1920,
  "Ġeach": 459,
  "Ġoccurred": 2621,
  "Ġregardless": 2975,
  "When": 1693,
  "Ġwhe": 389,
  "ch": 280,
  "ĠDecre": 5938,
  "Ġremoved": 3535,
  "flush": 2688,
  "ĠD": 527,
  "Ġvery": 2341,
  "...\".": 5929,
  "Ġdere": 4073,
  "Ġopening": 3475,
  "Ġcommon": 1202,
  "Ġsubtle": 4886,
  "Ġwon": 5577,
  "Ġinfix": 5557,
  "ember": 4150,
  "Ġarticle": 3914,
  "Ġmathematically": 6712,
  "Ġwhile": 950,
  "Ġsynt": 1278,
  "Ġmagnitudes": 6724,
  "Ġ7": 1092,
  "Ġcomp": 403,
  "Ġsignificant": 2303,
  "Ġenable": 4844,
  "Ġnot": 234,
  "Ġapply": 2364,
  "Ġindebted": 6485,
  "Ġinitializers": 1439,
  "Ġexecutable": 4951,
  "erscore": 2903,
  "itional": 1586,
  "Ġ185": 6235,
  "ĠStructure": 2818,
  "ĠData": 4218,
  "Ġadapted": 6692,
  "ware": 3335,
  "ĠSecond": 3706,
  "Ġa": 108,
  "Ġseparator": 6099,
  "Ġgenerate": 2966,
  "Ġnu": 4686,
  "Illegal": 4549,
  "u": 88,
  "Ġ##,": 6315,
  "Ġdeals": 5082,
  "Ġcle": 1927,
  "Ġdig": 874,
  "Ġcho": 2489,
  "storage": 3666,
  "Ġreaching": 6579,
  "ising": 4109,
  "Ġmod": 1409,
  "Ġmastered": 4187,
  "Ġdo": 442,
  "Ġaligned": 3416,
  "Ġfeel": 6101,
  "ceed": 2347,
  "gh": 529,
  "ject": 394,
  "ab": 202,
  "Ġcommunic": 2958,
  "Ġdro": 4692,
  "Ġevaluated": 1133,
  "ĠAl": 1713,
  "ercise": 662,
  "rint": 278,
  "Ġchild": 2372,
  "ĠRewrite": 3000,
  "Ġ(*": 1053,
  "Ġsem": 2128,
  "Ġjoin": 5994,
  "Ġunderstand": 2534,
  "Ġnum": 349,
  "Ġsimplified": 4399,
  "izes": 1250,
  "Ġscrambled": 6572,
  "ĠStructures": 1909,
  "Ġcomponents": 2362,
  "apped": 5960,
  "getword": 3752,
  "Ġcapabilities": 6384,
  "Ġprintf": 711,
  "Ġen": 470,
  "Ġ?:": 6124,
  "Ġbitcount": 4312,
  "ĠChapter": 943,
  "Ġcoun": 3412,
  "Some": 3590,
  "days": 5403,
  "Ġbeen": 898,
  "Ġsuccess": 2160,
  "Ġ\\\"": 4995,
  "Ġday": 1143,
  "base": 2110,
  "ĠFlow": 5807,
  "expected": 4756,
  "ther": 312,
  "18": 2414,
  "Ġext": 2582,
  "ME": 2675,
  "Ġcrit": 4053,
  "Ġ\"..": 5965,
  "necess": 4016,
  "ionally": 2705,
  "Ġsort": 930,
  "BER": 3955,
  "ERN": 3500,
  "ine": 215,
  "]...": 2681,
  "ere": 896,
  "Ġanalog": 1972,
  "Ġstrcat": 2504,
  "Ġocc": 4651,
  "Ġfurther": 2134,
  "Ġinsert": 3552,
  "Ġtherefore": 4230,
  "Ġmand": 4075,
  "CHAR": 2835,
  "Ġappears": 1381,
  "col": 3602,
  "Ġprimary": 3484,
  "Ġtent": 2869,
  "Ġpub": 5553,
  "IR": 3053,
  "rogram": 3371,
  "Ġcopies": 2397,
  "emed": 5772,
  "(\"%.": 6111,
  "Ġres": 485,
  "elif": 2079,
  "Ġdid": 2140,
  "TERN": 3593,
  "stant": 2136,
  "Ġinteg": 424,
  "Ġsparingly": 5766,
  "ari": 284,
  "Ġ%=": 4894,
  "ighest": 5666,
  "RDONLY": 3902,
  "++,": 3730,
  "Ġow": 2222,
  "Ġade": 4637,
  "Ġpt": 1929,
  "Ġdepends": 2024,
  "Ġpre": 345,
  "Ġadded": 1826,
  "closedir": 6636,
  "Ġrectangle": 3270,
  "ĠW": 400,
  "68": 5314,
  "Ġsearched": 5190,
  "Ġmm": 5602,
  "inte": 2897,
  "Ġhistogram": 5185,
  "Ġaggregate": 3494,
  "Ġlimits": 3817,
  "Ġon": 201,
  "isdst": 5686,
  "Ġconceptionally": 5210,
  "Ġattempt": 2412,
  "Ġfrequently": 2829,
  "Ġmechan": 2228,
  "ĠSymbolic": 5089,
  "andling": 5717,
  "ially": 2077,
  "hapter": 665,
  "Ġformer": 4200,
  "imits": 5729,
  "Ġcarry": 3855,
  "Ġwal": 5578,
  "ive": 347,
  "pmessage": 4607,
  "Ġespecially": 3041,
  "Ġfloats": 4900,
  "Ġdescriptor": 1738,
  "Ġ(--(": 6364,
  "t": 87,
  "Ġcontrolled": 3471,
  "ra": 1390,
  "ĠAcc": 3697,
  "Ġlists": 2614,
  "rinted": 5773,
  "Ġchecking": 2647,
  "uting": 5633,
  "St": 3297,
  "oing": 4600,
  "Ġ*)(": 6208,
  "bo": 2683,
  "ĠPad": 5872,
  "Ġcarriage": 3856,
  "hapters": 2491,
  "Ġproductions": 6138,
  "Ġaugmented": 6625,
  "Ġthan": 509,
  "ecut": 797,
  "Ġtext": 820,
  "Ġpeo": 3272,
  "Ġoutside": 1408,
  "Ġmechanism": 3016,
  "Ġ177": 5038,
  "ross": 2453,
  "Ġpseudo": 3925,
  "ĠIntegral": 4432,
  "Ġresult": 582,
  "Ġcop": 1554,
  "ĠCopy": 4781,
  ":": 30,
  "Ġc": 119,
  "all": 267,
  "Ġ%;": 5961,
  "Ġclosed": 2878,
  "ndef": 3324,
  "process": 1043,
  "ĠAddress": 3849,
  "ATIC": 3537,
  "Ġchecks": 5534,
  "Ġmuch": 1483,
  "ĠRead": 6014,
  "Ġwill": 378,
  "UFSIZ": 2651,
  "Ġisol": 4069,
  "Ġproduction": 4326,
  "action": 3983,
  "rintf": 2920,
  "Ġotherwise": 1275,
  "Ġbasic": 2197,
  "Ġattached": 5211,
  "Ġeither": 922,
  "Ġattempts": 6339,
  "Ġconnections": 5182,
  "'": 11,
  "oug": 4789,
  "Ġlex": 3133,
  "Ġ\"": 589,
  "ĠUPPER": 4911,
  "tokentype": 4473,
  "iteral": 1287,
  "Ġdet": 854,
  "Ġrecord": 2185,
  "Ġexperi": 2901,
  "ĠPre": 2252,
  "ĠModify": 2671,
  "Ġlose": 5859,
  "Ġinvolve": 4371,
  "ipher": 3770,
  "Ġmethods": 6508,
  "negative": 2181,
  "ĠLists": 4239,
  "cess": 675,
  "Ġwhether": 1218,
  "function": 2427,
  "fahr": 1746,
  "Ġconnect": 2000,
  "Ġvary": 2722,
  "Ġinstances": 4917,
  "Q": 52,
  "Ġover": 1224,
  "Ġslot": 3876,
  "Ġsystems": 1949,
  "č": 102,
  "zero": 504,
  "Ġremain": 1472,
  "Ġportability": 5073,
  "under": 5611,
  "ress": 981,
  "Ġworrying": 6502,
  "ĠComplicated": 6211,
  "Ġtypesetting": 5996,
  "ĠSection": 1419,
  "Ġget": 365,
  "here": 1459,
  "Ġinad": 5555,
  "Ġsemicol": 2659,
  "ĠWrite": 963,
  "Ġsuggests": 6407,
  "ĠSplicing": 5280,
  "A": 36,
  "Ġredundant": 3268,
  "Ġpairs": 5067,
  "00": 636,
  "Ġgreat": 1883,
  "Ġimplemented": 2960,
  "Ġhap": 3120,
  "Ġother": 396,
  "ĠCreat": 5777,
  "ctime": 3354,
  "ort": 406,
  "asty": 5949,
  "ĠObject": 3439,
  "Ġinterpreted": 3526,
  "Ġ169": 5047,
  "bu": 5383,
  "Ġ&&": 926,
  "Ġrepresented": 2270,
  "strtol": 6588,
  "Ġleaves": 4425,
  "searching": 5026,
  "rees": 5512,
  "Ġplus": 4264,
  "ve": 208,
  "Ġ0666": 5279,
  "Ġgets": 2933,
  "ansion": 2268,
  "655": 4529,
  "Ġrewind": 5629,
  "Ġaltern": 1885,
  "Ġplays": 6021,
  "ober": 4602,
  "Ġrecom": 4296,
  "Ġitob": 5668,
  "us": 195,
  "Ġpreferable": 5115,
  "Ġcustom": 6650,
  "Ġoccur": 704,
  "Ġstated": 4701,
  "isible": 1881,
  "Ġrelational": 1732,
  "ĠConversions": 2403,
  "ĠNO": 5884,
  "Ġappearance": 4277,
  "Ġdays": 2892,
  "ĠMA": 5954,
  "Ġexactly": 2538,
  "ĠTrigraph": 5160,
  "ĠTokens": 6301,
  "Ġ017": 5763,
  "Ġ'-')": 3025,
  "Ġtypewriter": 6677,
  "Ġincluded": 1838,
  "VAL": 2680,
  "Ġ};": 2626,
  "ct": 131,
  "Ġdcl": 1996,
  "digits": 5003,
  "Ġbelow": 2339,
  "Ġseparate": 1349,
  "Ġoutput": 637,
  "ule": 2120,
  "ĠUnions": 4348,
  "Ġ3": 595,
  "Usage": 5224,
  "new": 3183,
  "sprintf": 3331,
  "ĠFEB": 5811,
  "Ġreader": 4847,
  "eted": 5655,
  "ĠThat": 2098,
  "Ġunless": 2149,
  "ĠEXIT": 6460,
  "Ab": 4534,
  "Ġdeterm": 1444,
  "59": 4528,
  "header": 5142,
  "inter": 4708,
  "portable": 6230,
  "ĠQualifiers": 4498,
  "Ġreserve": 3860,
  "Ġextensive": 6338,
  "U": 56,
  "ĠTo": 2078,
  "handling": 5172,
  "Ġfet": 2706,
  "||": 3625,
  "Ġ(&_": 4728,
  "DIG": 4353,
  "Ġtypical": 3146,
  "mon": 4588,
  "Ġpassing": 3192,
  "ments": 305,
  "splits": 6641,
  "Ġfra": 1993,
  "Ġexplicit": 899,
  "heit": 3084,
  "ĠVariable": 3525,
  "Certain": 4544,
  "Ġ\"%": 2485,
  "Ġachieved": 5154,
  "le": 140,
  "Ġprecisely": 3005,
  "efinition": 3921,
  "Ġsizeof": 1375,
  "continue": 5192,
  "chr": 3705,
  "ĠSYSTEM": 4480,
  "Ġword": 651,
  "Le": 5345,
  "cu": 3305,
  "defined": 825,
  "eclare": 491,
  "Ġ*'": 4097,
  "Ġfe": 1050,
  "Ġaccording": 2171,
  "ry": 1238,
  "Ġlea": 2468,
  "Ġmember": 1016,
  "400": 5311,
  "ĠKristol": 6715,
  "ery": 2051,
  "Ġterm": 772,
  "Ġcreat": 2628,
  "ho": 3067,
  ".''": 1652,
  "falls": 5411,
  "Ġparalle": 4803,
  "Ġprevents": 6382,
  "Ġasked": 6493,
  "Ġpick": 4060,
  "Ġeasier": 2286,
  "Ġheaders": 2375,
  "Ġequivalent": 904,
  "ĠAss": 3126,
  "fgets": 3311,
  "arithm": 5541,
  "gitim": 4579,
  "Ġnatur": 2139,
  "Ġdeletes": 5106,
  "Ġchunks": 6603,
  "Ġassociation": 4316,
  "raw": 3210,
  "Ġhidden": 4116,
  "br": 2035,
  "rep": 5511,
  "Ġ135": 6433,
  "Ġcor": 920,
  "Ġmeaning": 1895,
  "Ġillustrative": 6148,
  "SET": 5170,
  "ĠConstants": 2667,
  "mot": 1354,
  "Ġequal": 1162,
  "Ġfunctions": 427,
  "')": 905,
  ")*(": 5304,
  "nu": 5441,
  "ncat": 4596,
  "Ġnone": 2267,
  "Ġcate": 4052,
  "gmtime": 5418,
  "Ġprototype": 2202,
  "Ġfsetpos": 4665,
  "Ġthis": 344,
  "Ġco": 297,
  "ugustus": 3562,
  "ĠNULL": 719,
  "Ġleaving": 3265,
  "etic": 713,
  ";;)": 5318,
  "ĠAND": 2633,
  "Ġguarante": 1691,
  "ubscript": 6332,
  "Ġsqueeze": 4494,
  "Ġrest": 2060,
  "PFI": 5358,
  "Ġrelies": 4963,
  "Ġtests": 2183,
  "cnt": 2211,
  "ĠWi": 3437,
  "ĠTests": 5819,
  "actically": 4123,
  "Ġblocks": 1726,
  "Ġsubarray": 4885,
  "eader": 2174,
  "ĠCOMMON": 6680,
  "ĠConventions": 6713,
  "Ġsave": 3087,
  "F": 41,
  "losed": 1537,
  "ĠEOF": 822,
  "Ġbro": 3664,
  "Ġspe": 3086,
  "Ġdiagnostics": 6489,
  "Ġquant": 2017,
  "Ġimport": 1887,
  "a": 68,
  "ĠCommunication": 6471,
  "Section": 6394,
  "New": 5352,
  "ested": 1530,
  "Ġinput": 399,
  "Ġpreser": 5828,
  "olute": 3452,
  "lp": 1748,
  "xad": 1480,
  "ire": 385,
  "Ġem": 1547,
  "Ġamb": 3083,
  "ĠComplex": 6214,
  "iagn": 2858,
  "Ġ*++": 3384,
  "Ġstbuf": 3678,
  "23": 4525,
  "Ġunder": 1340,
  "Ġproceed": 3690,
  "Ġdiffers": 4907,
  "Ġassociate": 4317,
  "Ġreasons": 6295,
  "imum": 1035,
  "ĠPostfix": 5246,
  "Ġcompleted": 3269,
  "ĠALLOCSIZE": 3401,
  "Ġdefinition": 563,
  "Ġentry": 1901,
  "Ġomitted": 1969,
  "Ġmakes": 1421,
  "dirwalk": 6190,
  "ĠMc": 4890,
  "Ġconsists": 2022,
  "Ġsorting": 1900,
  "contin": 6466,
  "uses": 1339,
  "ĠMAXVAL": 6167,
  "Ġremo": 2379,
  "Ġex": 165,
  "ained": 5770,
  "Ġip": 2330,
  "wor": 3623,
  "qualifier": 1257,
  "ArchiveBy": 6557,
  "Ġcase": 608,
  "ection": 5405,
  "Ġidea": 3540,
  "plication": 2952,
  "uffixed": 5918,
  "ĠSe": 1037,
  "YWORD": 5368,
  "Strictly": 6375,
  "Ġgetword": 2081,
  "Ġwithin": 1123,
  "ame": 246,
  "bruary": 5077,
  "Ġinvasion": 6123,
  "Ġargument": 487,
  "Ġ30": 2371,
  "Ġprog": 2729,
  "ĠGreenspan": 5294,
  "ian": 2313,
  "Ġcompiled": 2015,
  "ity": 697,
  "Ġshowing": 4976,
  "Ġsignific": 2014,
  "ĠEvalu": 5835,
  "Ġsin": 3637,
  "spn": 5952,
  "Ġconst": 369,
  "Ġavailable": 1867,
  "Ġformatting": 6117,
  "Ġ171": 4358,
  "Ġclos": 3088,
  "ĠEs": 5832,
  "Ġfacilities": 2527,
  "ature": 1617,
  "ĠConversion": 1841,
  "dev": 4107,
  "possible": 5248,
  "endp": 3710,
  "Ġkeeping": 5102,
  "Ġnodes": 5894,
  "ĠUNIX": 1282,
  "**)": 3942,
  "Ġalmost": 5803,
  "array": 1873,
  "Ġallocator": 2499,
  "Ġpipeline": 6555,
  "Ġundef": 4747,
  "Ġbody": 1853,
  "ĠDEC": 5940,
  "Ģ": 104,
  "Ġendp": 5979,
  "outh": 5905,
  "Ġappendix": 4828,
  "Ġideal": 6343,
  "Ġtopics": 5036,
  "Ġoperand": 505,
  "Ġ!=": 649,
  "Ġunrel": 3394,
  "Ġlengths": 3487,
  "formation": 4903,
  "Ġfalse": 2566,
  "Ġusual": 2157,
  "NAME": 5353,
  "Ġprocessor": 4313,
  "Ġmonth": 1213,
  "Ġfreeing": 6042,
  "revity": 5514,
  "NULL": 3055,
  "Ġ13": 3128,
  "ĠVersion": 6129,
  "ĠPol": 3735,
  "ĠNormally": 2944,
  "ĵ": 105,
  "Ġlike": 533,
  "Ġexha": 3682,
  "Ġgenerating": 6044,
  "Ġenumeration": 1501,
  "ĠAN": 1108,
  ")''": 5303,
  "insearch": 1866,
  "Ġdescriptions": 5015,
  "Ġwrong": 3904,
  "Ġexponent": 2509,
  "lush": 2429,
  "Ġconvention": 3154,
  "un": 147,
  "ĠH": 763,
  "Ġalphabet": 6509,
  "Ġvariation": 5800,
  "main": 2315,
  "Ġmoved": 4210,
  "Ġparticip": 4966,
  "step": 4683,
  "Ġoutermost": 4826,
  "ment": 163,
  "ĠReferences": 6229,
  "fe": 2212,
  "ĠAppendix": 1768,
  "expressionopt": 2935,
  "Ġboth": 994,
  "Ġlaws": 5617,
  "alloc": 773,
  "Ġlogarithm": 6435,
  "ĠInt": 2153,
  "Ġindicating": 4302,
  "Ġcompar": 1437,
  "undef": 4080,
  "FI": 4548,
  "Width": 5367,
  "ĠProgramming": 6462,
  "uch": 1334,
  "Ġexpens": 4719,
  "ecess": 1010,
  "gor": 2214,
  "32": 1859,
  "Ġdist": 1313,
  "ogram": 4601,
  "gener": 3997,
  "res": 4646,
  "Ġupdate": 4934,
  "ĠFurther": 3136,
  "Ġinstead": 1072,
  "iform": 5662,
  "Ġespec": 2995,
  "CH": 2419,
  "Ġpol": 5669,
  "ĠMathematical": 4238,
  "Ġexistence": 3496,
  "Ġchars": 2589,
  "DIC": 6216,
  "got": 5416,
  "ithm": 668,
  "gin": 742,
  "Recall": 4443,
  "Ġvariadic": 5801,
  "IN": 1002,
  "Ġwhy": 3696,
  "eness": 5536,
  "Ġrounded": 6605,
  "Ġadjusted": 3867,
  "c": 70,
  "ĠKrist": 6259,
  "ke": 277,
  "Ġmktime": 5606,
  "aise": 3301,
  "Ġke": 623,
  "Ġ/=": 3815,
  "Ġwhere": 749,
  "ĠSaving": 5788,
  "ugu": 3076,
  "Ġparse": 3134,
  "Ġasking": 6494,
  "Expressions": 5993,
  "Ġbrackets": 3276,
  "ouble": 518,
  "celsius": 4130,
  "integers": 6402,
  "'ll": 4514,
  "enclosed": 3846,
  "attern": 1268,
  "Ġbackward": 4311,
  "Ġself": 4800,
  "ABRT": 6359,
  "ĠClose": 5778,
  "se": 159,
  "Ġpossibly": 4412,
  "Ġbo": 1193,
  "lled": 2586,
  "ides": 2241,
  "Ġnaming": 4888,
  "Ġspecification": 2099,
  "oin": 4599,
  "Ġprints": 1678,
  "Ġ(...)": 5652,
  "yle": 1141,
  "More": 2676,
  "with": 2434,
  "Ġ<": 319,
  "Ġ>>=": 4409,
  "Ġnecessary": 1154,
  "Ġclarify": 6468,
  "itud": 5572,
  "Ġannounce": 6422,
  "&": 10,
  "EXP": 4462,
  "Ġrepetition": 6666,
  "sign": 2119,
  "ivers": 4180,
  "Ġcross": 5533,
  "vbuf": 4034,
  "sum": 4029,
  "Ġold": 1615,
  "Ġreverses": 3558,
  "ured": 2744,
  "Ġsaved": 3520,
  "Ġseven": 4799,
  "Ġconstru": 1604,
  "lag": 1137,
  "N": 49,
  "Ġextends": 6363,
  "Ġp": 124,
  "Ġrequested": 3184,
  "Ġdeclarator": 1022,
  "Ġentab": 4971,
  "Ġten": 5491,
  "Ġnon": 689,
  "agn": 2352,
  "Ġscan": 3346,
  "heck": 1704,
  "ĠWeinber": 6046,
  "Ġwide": 1878,
  "Ġcare": 1990,
  "Ġonce": 1401,
  "vious": 1106,
  "less": 1091,
  "External": 4905,
  "Ġknowledge": 6714,
  "ĠNon": 2943,
  "ume": 4140,
  "ld": 908,
  "xadecimal": 1507,
  "Ġatoi": 2162,
  "stdin": 3459,
  "esides": 3098,
  "comers": 6143,
  "Ġtesting": 3473,
  "Ġ...)": 2018,
  "issa": 6251,
  "row": 3369,
  "Ġ\".": 5964,
  "ĠStarted": 6611,
  "Ġdoes": 664,
  "++": 404,
  "ists": 2594,
  "Ġ:": 989,
  "One": 2677,
  "Ġperipheral": 4487,
  "alpha": 2666,
  "way": 2696,
  "Ġ127": 6288,
  "ient": 1090,
  "hetical": 6570,
  "\");": 1220,
  "Ġinterchange": 3175,
  "Ġreplacement": 1506,
  "Ġask": 3693,
  "No": 3967,
  "bufsize": 6022,
  "+": 15,
  "Ġconverter": 5927,
  "lic": 4001,
  "Ġminimum": 2389,
  "LY": 3054,
  "Ġvaluable": 5764,
  "Ġcontinue": 2029,
  "udd": 5478,
  "itch": 1195,
  "';": 1328,
  "Ġth": 156,
  "riage": 3274,
  "Ġrestrictive": 4420,
  "erc": 2440,
  "Ġorganization": 3264,
  "selection": 5637,
  "Ġquot": 1284,
  "Ġdistinctions": 6269,
  "dependent": 985,
  "ne": 885,
  ";)": 4530,
  "valid": 2631,
  "aylight": 5663,
  "isce": 5684,
  "ata": 969,
  "ani": 5598,
  "urn": 223,
  "strcmp": 4166,
  "Ġsource": 1098,
  "ild": 1939,
  "asionally": 5757,
  "Ġtreats": 4424,
  "Ġdivisor": 5017,
  "Ġmodifications": 5253,
  "bp": 3063,
  "Ġ1988": 4470,
  "Ġindexing": 5061,
  "Ġdealt": 6299,
  "ify": 1465,
  "Ġrelations": 3788,
  "haracter": 1623,
  "Ġbet": 783,
  "eter": 4099,
  "mium": 5439,
  "Ġ'\\": 562,
  "Ġunnecess": 4133,
  "Ġnc": 2334,
  "implementation": 4762,
  "Ġlatitude": 6232,
  "Ġsuitably": 6366,
  "Ġbecome": 2373,
  "67": 2540,
  "usr": 4112,
  "Ġredirection": 5119,
  "Ġdocument": 4467,
  "get": 530,
  "ĠStorage": 2977,
  "1828": 6340,
  "Ġknowled": 6207,
  "ĠCompilation": 6621,
  "Ġwords": 1442,
  "Ġirre": 4048,
  "conditional": 2645,
  "format": 1948,
  "Ġwho": 2243,
  "Ġdon": 2451,
  "Ġlead": 1406,
  "Ġnamed": 1280,
  "*": 14,
  "enging": 5539,
  "Ġfrag": 3868,
  "Ġpow": 4103,
  "finite": 3709,
  "Ġcomputes": 2987,
  "register": 3636,
  "Ġcondition": 1105,
  "pn": 3072,
  "ibrary": 5816,
  "Ġpopping": 5184,
  "Ġmult": 3676,
  "Ġmiss": 2720,
  "Ġ=,": 4739,
  "Ġterminates": 1953,
  "Ġproduces": 2989,
  "ĠKEYWORD": 6644,
  "mm": 2861,
  "''),": 4199,
  "Ġlif": 5614,
  "Ġ(``": 2584,
  "iron": 1944,
  "Ġnearly": 6497,
  "SCHAR": 5362,
  "per": 213,
  "Ġarise": 4110,
  "ur": 176,
  "declarations": 6118,
  "Ġred": 2576,
  "iced": 5635,
  "Ġarray": 306,
  "Ġconnecting": 6286,
  "Ġgeneric": 4269,
  "Ġcontains": 927,
  "ince": 676,
  "Ġsoldiers": 6689,
  "Ġcode": 1148,
  "com": 1264,
  "Ġtw": 521,
  "ormally": 2797,
  "Ġfsize": 1992,
  "Ġinvolves": 4372,
  "ĠNonetheless": 4449,
  "Ġrectang": 2648,
  "push": 3327,
  "Ġkeyboard": 3281,
  "?:": 5321,
  "iagram": 5068,
  "Ġsmaller": 2990,
  "Ġindiv": 3785,
  "Ġimplies": 2831,
  "Ġnegative": 1556,
  "Ġstructure": 395,
  "ipt": 894,
  "abels": 6139,
  "About": 6560,
  "Ġplain": 4265,
  "ek": 1454,
  "ood": 4020,
  "Ġalternate": 3524,
  "getpos": 4221,
  "ormal": 4308,
  "Ġaddtree": 3156,
  "Ġvaries": 4169,
  "Ġreco": 2578,
  "Ġdec": 782,
  "ight": 425,
  "].": 1655,
  "Ġtoken": 789,
  "Ġsscanf": 3639,
  "rin": 5457,
  "Ġbuffering": 3200,
  "Ġdiscussion": 1899,
  "values": 4330,
  "Ġconsiderations": 6238,
  "Ġundergoes": 5194,
  "press": 2002,
  "'-": 5300,
  "Ġsuffixes": 5074,
  "[];": 2959,
  "Ġends": 2486,
  "Ġassociated": 1686,
  "Ġspecif": 847,
  "rec": 4645,
  "Ġgetop": 2473,
  "any": 3108,
  "Ġproperly": 2179,
  "avi": 5379,
  "Ġsuggested": 6406,
  "ammatic": 4710,
  "Ġinitialization": 1637,
  "Ġleading": 1648,
  "Ġshor": 2480,
  "Ġinside": 1875,
  "Ġmagnitude": 6523,
  "Ġprep": 4178,
  "PAT": 5356,
  "Ġbell": 5638,
  "pended": 5933,
  "Ġit": 177,
  "longest": 6252,
  "ests": 2937,
  "s": 86,
  "Ġnoted": 4757,
  "loating": 3149,
  "Ġextern": 552,
  "Ġperform": 1445,
  "SE": 3295,
  "Ġfor": 181,
  "Ġ31": 1440,
  "unately": 5612,
  "For": 2109,
  "Ġconve": 5648,
  "amet": 523,
  "Given": 3961,
  "Ġty": 210,
  "by": 2423,
  "Ġrec": 972,
  "ĠMultiplicative": 5958,
  "Ġinternal": 1851,
  "Ġdesign": 2265,
  "ĠT": 332,
  "ĠSignals": 5791,
  "ents": 1196,
  "(&": 4515,
  "Ġunexpected": 5714,
  "irectly": 4881,
  "aph": 1889,
  "ems": 5771,
  "Ġhost": 4115,
  "Ġgotos": 6324,
  "Ġshorter": 3870,
  "Here": 3289,
  "Ġoperators": 727,
  "tle": 2558,
  "Ġbesides": 5568,
  "Ġemphasized": 6478,
  "more": 2862,
  "plicated": 1595,
  "FF": 3959,
  "123": 4291,
  "Ġ%": 585,
  "Ġreason": 2061,
  "Ġlargely": 6257,
  "Ġwro": 2714,
  "untered": 2896,
  ";''": 4531,
  "Ġsubtraction": 6328,
  "Ġambigu": 3559,
  "Ġmanipulation": 4383,
  "Ġfgets": 3092,
  "ick": 2144,
  "ikewise": 4856,
  "Ġtemperatures": 5084,
  "forth": 5869,
  "Ġdoesn": 2493,
  "\",": 570,
  "Ġsum": 1577,
  "arent": 1013,
  "ĠWithin": 3850,
  "etails": 5659,
  "Ġaccom": 4256,
  "uring": 1812,
  "Ġvariants": 6532,
  "break": 3302,
  "guments": 3407,
  "ncpy": 3838,
  "Going": 5339,
  "like": 2859,
  "ines": 426,
  "Ġallocation": 3776,
  "ix": 555,
  "Ġexception": 3790,
  "daytab": 3206,
  "ached": 3687,
  "ler": 3069,
  "llow": 657,
  "check": 5397,
  "Besides": 5330,
  "ĠTrailing": 6434,
  "Ġsuggest": 4447,
  "&_": 4513,
  "Ġweekday": 6536,
  "Ġanal": 1876,
  "stat": 3101,
  "Ġreceives": 6452,
  "Ġinitializer": 1256,
  "ĠAddresses": 6504,
  "Ġdeal": 2071,
  "Ġtreat": 2436,
  "ĠStar": 4974,
  "Ġchain": 4902,
  "Ġchallenging": 5986,
  "Ġstrcmp": 1601,
  "v": 89,
  "ĠAn": 976,
  "Ġ>=": 1183,
  "tok": 3621,
  "Ġaway": 5503,
  "ĠChapters": 5779,
  "Ġunknown": 3568,
  "AN": 1423,
  "Ġ&": 501,
  "ecl": 211,
  "Ġvs": 5640,
  "cho": 3130,
  "ĠEthiopian": 6685,
  "Ġpse": 3656,
  "Ġelim": 3772,
  "ĠBRAC": 4206,
  "Ġconstruction": 2198,
  "L": 47,
  "Ġneeds": 2784,
  "ĠStandard": 1902,
  "Ġdata": 1033,
  "Ġentirely": 6282,
  "setjmp": 3803,
  "Ġmaterial": 4280,
  "ctober": 5570,
  "Ġtolower": 3668,
  "fers": 1387,
  "Ġmaintained": 3257,
  "ĠPeter": 4190,
  "has": 2855,
  "Ġfriends": 6345,
  "ĠBlockno": 4442,
  "Ġ114": 5760,
  "Ġexpressions": 878,
  "Ġfrequency": 6321,
  "};": 1796,
  "dddddd": 5148,
  "Ġtruncate": 6387,
  "Ġinterleaved": 6607,
  "Ġ\"\");": 5966,
  "ternal": 1560,
  "Ġ%,": 4892,
  "upper": 3449,
  "OP": 5354,
  "oo": 2319,
  "sequ": 1214,
  "Ar": 3046,
  "ĠSYS": 3707,
  "ĠNevertheless": 5888,
  "3": 23,
  "tern": 379,
  "eropt": 4208,
  "Ġgetint": 2164,
  "Ġfold": 5908,
  "Ġign": 1616,
  "pointeropt": 4270,
  "back": 2036,
  "Ġessentially": 6481,
  "Ġforever": 4502,
  "gal": 1187,
  "gain": 4578,
  "Ġwritelines": 2758,
  "ingly": 3677,
  "strcpy": 4168,
  "produ": 5998,
  "214748": 6628,
  "losing": 4327,
  "existent": 5719,
  "Ġpersonal": 5132,
  "Ġival": 3643,
  "Ġrepeatedly": 5167,
  "Ġdeleted": 6334,
  "prog": 2492,
  "Ġproduced": 3491,
  "Conversion": 5197,
  "*(": 3573,
  "ĠDo": 4866,
  "Ġrelation": 4962,
  "Unsigned": 5199,
  "Ġwor": 840,
  "define": 659,
  "ndigit": 5446,
  "Ġfailure": 6450,
  "Ġthere": 547,
  "Ġat": 326,
  "Ġecho": 3675,
  "Ġnull": 1931,
  "Ġlibraries": 3767,
  "Ġworth": 3178,
  "Ġprovide": 1730,
  "Ġanno": 2713,
  "mem": 2430,
  "Ġelection": 6006,
  "Ġtried": 4874,
  "Ġabcdef": 6602,
  "qu": 239,
  "Ġstrftime": 4742,
  "Ġoffer": 5574,
  "ves": 1355,
  "');": 2838,
  "ound": 1700,
  "gister": 3066,
  "ivate": 3139,
  "ĠTime": 3719,
  "if": 173,
  "ced": 701,
  "Ġtar": 4038,
  "Be": 5328,
  "eard": 3992,
  "eous": 2853,
  "Ġcust": 5527,
  "Ġtwice": 3751,
  "efore": 3065,
  "omes": 1813,
  "ĠObjects": 3913,
  "hether": 4041,
  "imary": 2348,
  "ĠDescriptors": 6465,
  "Ġfore": 4057,
  "Ġtransform": 4342,
  "Ġcollecting": 4404,
  "ilities": 1884,
  "upt": 5475,
  "sequence": 2510,
  "k": 78,
  "echn": 5063,
  "et": 172,
  "MAXLINES": 4411,
  "Al": 1915,
  "Fe": 3960,
  "Ġdisk": 5999,
  "Ġ123": 3240,
  "Ġldiv": 4706,
  "Sy": 4558,
  "Ġclass": 1536,
  "-": 17,
  "Treeptr": 4561,
  "ĠShift": 6457,
  "Ġdirwalk": 3232,
  "eneration": 6029,
  "KEYS": 2292,
  "Ġcontext": 2080,
  "Ġefficiently": 6355,
  "Ġpointers": 613,
  "Ġtakes": 1739,
  "Ġroutines": 1471,
  "Ġmacro": 806,
  "Ġsuffix": 1967,
  "tt": 5471,
  "Ġits": 407,
  "ull": 1140,
  "next": 2556,
  "makes": 5438,
  "Ġcircumstances": 6651,
  "alf": 4063,
  "ĠA": 248,
  "ignment": 620,
  "den": 2684,
  "Ġobserv": 3894,
  "Ġsecond": 1007,
  "Ġgeneral": 1305,
  "Ġchapters": 3089,
  "Ġfeature": 2795,
  "Ġdate": 2717,
  "Ġ[]": 2561,
  "Ġaddpoint": 5945,
  "thing": 2008,
  "Ġints": 2724,
  "Ġthem": 707,
  "Ġworst": 4947,
  "ĠOR": 2251,
  "Ġ183": 5041,
  "Ġpres": 4809,
  "Ġaccept": 2400,
  "onent": 2127,
  "KE": 1572,
  "Ġopposite": 5104,
  "->": 604,
  "pl": 303,
  "Ġvac": 4716,
  "evertheless": 5293,
  "Ġtutorial": 5497,
  "orld": 5564,
  "peror": 5701,
  "Ġpopular": 6171,
  "\\?": 5373,
  "Ġunget": 1199,
  "sval": 2693,
  "hexadecimal": 4042,
  "ene": 5535,
  "ll": 186,
  "Ġ==.": 5932,
  "Ġobtained": 2662,
  "angu": 890,
  "pping": 4998,
  "rough": 1205,
  "ilt": 4160,
  "ĠSteve": 6683,
  "Ġknowing": 6206,
  "Ġagain": 2023,
  "ional": 887,
  "walk": 2697,
  "Ġthir": 1997,
  "Ġnp": 2715,
  "depend": 5681,
  "Ġin": 125,
  "teration": 4770,
  "ged": 5413,
  "++]": 2607,
  "Ġlikely": 2951,
  "7": 27,
  "Ġhandles": 3792,
  "Ġent": 990,
  "Ġshowed": 4975,
  "Ġfail": 3351,
  "written": 3875,
  "':": 1650,
  "unc": 2335,
  "Ġcope": 2926,
  "peri": 2346,
  "Ġident": 444,
  "dj": 4572,
  "round": 1620,
  "rre": 4027,
  "Ġtword": 5930,
  "Ġworry": 3783,
  "rast": 3328,
  "Ġbecomes": 1828,
  "Ġemphasizes": 6479,
  "Ġunusual": 4751,
  "pend": 525,
  "Ġvar": 5641,
  "/": 19,
  "Ġint": 180,
  "temp": 2196,
  "Ġgrow": 5006,
  "cript": 1411,
  "cl": 324,
  "ave": 340,
  "Ġbytes": 1711,
  "ĠIndividual": 5924,
  "Ġ17": 1585,
  "ĠVoid": 4321,
  "Ġcomputing": 4989,
  "Ġimplicit": 3144,
  "Ġdesk": 5987,
  "id": 241,
  "Ġdevelo": 4779,
  "Ġsuspended": 6648,
  "0000": 4248,
  "Ġsubstit": 3160,
  "Ġtas": 2700,
  "ĠEmpire": 5285,
  "ises": 2908,
  "]);": 2544,
  "Ġmodulus": 6470,
  "stdout": 4247,
  "MBER": 3966,
  "Ġ'*": 4813,
  "Ġsubstituted": 5257,
  "ren": 1117,
  "Ġlongjmp": 3741,
  "normal": 4597,
  "Ġclearer": 6331,
  "Ġlower": 1019,
  "ctal": 1618,
  "alph": 6333,
  "Ġedition": 1168,
  "lo": 228,
  "ĠAnd": 2973,
  "hecks": 5506,
  "ĠJump": 6192,
  "DIFF": 5029,
  "fields": 4396,
  "Ġdivides": 6179,
  "Ġfull": 3090,
  "ade": 4564,
  "MAXTOKEN": 4293,
  "Ġglobal": 5223,
  "Ġexchanged": 5645,
  "Ġform": 464,
  "Ġamessage": 6239,
  "ivial": 3725,
  "Ġhappens": 3560,
  "Ġhistor": 6454,
  "fixed": 4961,
  "Ġaugment": 5265,
  "tom": 4617,
  "ĠRev": 3831,
  "June": 3963,
  "fect": 5408,
  "onal": 4641,
  "ĠOutput": 1820,
  "alse": 2448,
  "infile": 4635,
  "Ġorganized": 6349,
  "Ġappropriate": 1964,
  "Ġlearn": 4481,
  "fcn": 3995,
  "Ġemphas": 3553,
  "Ġcompile": 2474,
  "Ġassumes": 4386,
  "'.": 2306,
  "Ġallows": 5098,
  "for": 416,
  "ad": 237,
  "ĠSplic": 4785,
  "onastery": 5266,
  "por": 4604,
  "gr": 251,
  "Ġdeeply": 4479,
  "01": 4522,
  "anges": 3450,
  "Ġrudi": 3422,
  "Ġelse": 868,
  "atever": 2003,
  "structured": 5984,
  "iod": 4876,
  "Ġ149": 6298,
  "oper": 5449,
  "Ġslightly": 3877,
  "\"),": 5298,
  "Ġissue": 5118,
  "Ah": 5324,
  "thand": 3433,
  "FLT": 2674,
  "Ġ[-]": 3527,
  "ond": 481,
  "Ġ]": 3627,
  "uld": 475,
  "Ġenforce": 6597,
  "Ġst": 149,
  "Ġoverlap": 4325,
  "Ġsuppose": 5039,
  "Ġfreely": 6043,
  "eld": 670,
  "in": 107,
  "Ġstrncmp": 5698,
  "X": 59,
  "ream": 720,
  "ed": 126,
  "Ġmeet": 4274,
  "Ġglobally": 6511,
  "Ġstarting": 3859,
  "Ġstrstr": 5696,
  "lier": 1981,
  "appear": 3457,
  "Ġar": 191,
  "amewor": 5739,
  "2147483647": 6726,
  "ILE": 801,
  "floating": 5035,
  "duct": 4574,
  "Wh": 3060,
  "arch": 921,
  "Ġemb": 4698,
  "Ġworld": 1642,
  "Ġusually": 2007,
  "Ġgrep": 5705,
  "Ġphr": 5143,
  "Ġrestricted": 3019,
  "Ġnecess": 1066,
  "type": 955,
  "Ġreference": 2981,
  "fmt": 3607,
  "Ġmust": 446,
  "alling": 3702,
  "Ġlastarg": 6094,
  "Ġ232": 5897,
  "Ġmar": 2452,
  "Ġprovided": 2281,
  "abs": 3388,
  "Ġunequal": 2915,
  "Ġfixed": 3031,
  "ec": 155,
  "Ġcommunicate": 4452,
  "Ġlocations": 6079,
  "wind": 4625,
  "Ġ36": 5980,
  "Ġtypedefs": 3202,
  "echnically": 6615,
  "ĠEBC": 5838,
  "Ġw": 136,
  "Ġsbrk": 3642,
  "hematical": 3020,
  "Ġparallel": 5282,
  "<bos>": 2,
  "Ġsays": 2327,
  "Ġphrase": 6618,
  "Ġcalcul": 1973,
  "Ġundefined": 1272,
  "Ġconcatenated": 3223,
  "irst": 2363,
  "strncat": 5795,
  "ifndef": 4101,
  "mod": 2316,
  "Ġpointed": 2238,
  "38": 5309,
  "up": 495,
  "Ġlexical": 4458,
  "Ġdescrib": 1001,
  "man": 4011,
  "Ġcharacters": 422,
  "ynam": 5488,
  "(\",": 5302,
  "at": 118,
  "ĠExp": 4271,
  "Ġspl": 2466,
  "Ġpushed": 2532,
  "pose": 1683,
  "ault": 1135,
  "Ġcomparisons": 3512,
  "ĠâĢ": 2219,
  "Ġind": 872,
  "Ġremainder": 2997,
  "Ġoperate": 4774,
  "gu": 274,
  "ew": 3309,
  "Ġinitializes": 3747,
  "Ġlongest": 1635,
  "oto": 1710,
  "Ġextra": 3022,
  "Ġsold": 5847,
  "Ġ\\": 1174,
  "Ġfront": 6344,
  "Ġcalled": 586,
  "Ġtranslation": 1906,
  "Ġfully": 4662,
  "ĠST": 2924,
  "Ġsubsection": 6599,
  "acy": 5675,
  "evalu": 5406,
  "Ġsets": 2482,
  "Ġrequest": 1898,
  "Ġ5000": 6040,
  "ĠExtend": 6608,
  "st": 135,
  "Ġch": 602,
  "Ġskipped": 3845,
  "loc": 408,
  "sw": 1862,
  ")+": 3938,
  "ug": 3622,
  "om": 184,
  "ative": 678,
  "36": 2841,
  "ĠComm": 3509,
  "ieve": 3219,
  "Ġ+,": 4249,
  "Ġpermit": 2974,
  "sler": 6322,
  "Ġtail": 4631,
  "Ġindentation": 4438,
  "Ġexpressionopt": 2925,
  "gregate": 2654,
  "ĠS": 291,
  "Ġnewline": 1255,
  "lead": 3361,
  "cum": 5392,
  "ĠAt": 2738,
  "Ġsemicolon": 3271,
  "coer": 5997,
  "Ġinitializing": 5926,
  "Ġgarbage": 4128,
  "bted": 5385,
  "string": 1588,
  "ate": 219,
  "Ġele": 699,
  "to": 947,
  "Ġdynam": 5597,
  "Ġgives": 2376,
  "Ġgone": 5704,
  "Ġconsistently": 4324,
  "Ġplayed": 4920,
  ")[": 3939,
  "AD": 2417,
  "Ġpci": 4672,
  "illegal": 5793,
  "tsang": 5229,
  "ĠPrimary": 6410,
  "Ġstrtol": 4439,
  "Ġsimply": 4284,
  "ies": 594,
  "Ġvice": 2898,
  "aces": 973,
  "Ġliterally": 6665,
  "dimens": 1696,
  "Ġbeing": 1487,
  "cast": 5394,
  "Ġbran": 4288,
  "strt": 4796,
  "arbage": 4056,
  "Character": 3284,
  "Ġtalloc": 3079,
  "Ġletter": 1785,
  "Ġ;": 3078,
  "Ġ196": 6266,
  "Ġequals": 4994,
  "Ġbasis": 6217,
  "Ġseparately": 2993,
  "Ġstrings": 1302,
  "Ġdenom": 6431,
  "Input": 3771,
  "Ġfputc": 5550,
  "aved": 5377,
  "Ġelabor": 4260,
  "Ġexamples": 1823,
  "Ġmis": 4699,
  "Ġcentr": 3647,
  "toul": 6076,
  "getc": 2949,
  "[-": 4563,
  "Ġnobj": 3142,
  "reen": 3343,
  "Ġotherprog": 5852,
  "Ġquestions": 3529,
  "Ġmaintain": 2361,
  "ĠMod": 2618,
  "Ġspec": 366,
  "flags": 3242,
  "partopt": 6353,
  "Ġag": 1292,
  "Ġca": 409,
  "Ġfew": 2282,
  "Ġdraw": 4074,
  "Ġtr": 546,
  "atisf": 1974,
  "isting": 5753,
  "ĠLiterals": 6701,
  "and": 227,
  "Ġess": 3628,
  "sp": 572,
  "Ġwrite": 758,
  "ri": 2866,
  "ĠEDOM": 5840,
  "Ġkept": 2957,
  "Vari": 3980,
  "signal": 3245,
  "Ġminus": 5005,
  "Ġinstalled": 5147,
  "Ġdetermines": 2519,
  "Ġnumeric": 1649,
  "Ġdraft": 6659,
  "Ġ201": 6172,
  "ence": 455,
  "Ġtransformations": 5252,
  "Ġtimes": 2437,
  "ĠBob": 5912,
  "Ġsupport": 2661,
  "ius": 1511,
  "reeptr": 3733,
  "old": 1494,
  "Ġab": 597,
  "ĠRenaiss": 6019,
  "iest": 5424,
  "instead": 5203,
  "CIA": 6305,
  "Ġfilenames": 4385,
  "Ġparticular": 1029,
  "C": 38,
  "Ġspacing": 5765,
  "Ġlast": 1023,
  "ITE": 3583,
  "Ġexpressed": 5146,
  "Ġframework": 6719,
  "Ġterminated": 2178,
  "DBL": 3049,
  "ĠPreprocessor": 6327,
  "Ġuninitial": 4748,
  "ĠLiteral": 5970,
  "Ġ80": 6152,
  "ĠCharacter": 1936,
  "Ġus": 289,
  "Ġincreasing": 2501,
  "Ġintrodu": 1583,
  "Ġadditive": 2775,
  "ol": 507,
  "ict": 1265,
  ").": 621,
  "plete": 1217,
  "aving": 4566,
  "Ġresponsibility": 6624,
  "iven": 2753,
  "ĠThere": 1248,
  "fere": 5848,
  "Ġgener": 808,
  "Ġduplic": 4694,
  "ĠFrench": 6684,
  "ĠFurthermore": 3280,
  "ailing": 1950,
  "dde": 5401,
  "LONG": 4553,
  "ĠAr": 1096,
  "Ġhelp": 1777,
  "Ġcult": 5528,
  "ERM": 3209,
  "Ġskips": 6272,
  "ise": 383,
  "ima": 4760,
  "Ġund": 2733,
  "orial": 4064,
  "ory": 873,
  "Ġfilen": 1882,
  "Ġdates": 5590,
  "point": 812,
  "Ġrepeat": 3865,
  "ĠEmp": 4810,
  "Ġlseek": 3110,
  "Cons": 3956,
  "Ġformat": 1112,
  "nis": 4015,
  "Ġcc": 5524,
  "Ġidiom": 3023,
  "Ġreceived": 5178,
  "Ġway": 666,
  "Ġspecific": 1324,
  "ĠJama": 6193,
  "blank": 5226,
  "omet": 1523,
  "sine": 5466,
  "KETS": 4354,
  "Ġid": 2564,
  "Ġtiny": 6645,
  "crib": 4889,
  "Ġpushes": 6307,
  "co": 650,
  "econd": 857,
  "40": 3948,
  "qsort": 4026,
  "UR": 5365,
  "Ġlines": 737,
  "Ġ``.": 4861,
  "Ġconsecut": 4273,
  "Ġscale": 6519,
  "ter": 260,
  "Ġspace": 627,
  "Ġcolumn": 2657,
  "ĠSwitch": 6587,
  "Ġconstrained": 6196,
  "Ġdiagnost": 3673,
  "ĠGetc": 6164,
  "ĠLevel": 6501,
  "io": 549,
  "Ġro": 687,
  "+\"": 3943,
  "assignment": 2261,
  "max": 1699,
  "Ġsuff": 1555,
  "Ġstrc": 934,
  "ue": 851,
  "Ġarms": 5687,
  "Ġcoordinates": 3889,
  "ctions": 1227,
  "Ġoccurrence": 2100,
  "Ġmnem": 5608,
  "Ġerr": 2435,
  "Ġcomparison": 1570,
  "cre": 644,
  "Ġtypedef": 1279,
  "getline": 2950,
  "Ġreign": 5619,
  "Ġls": 4705,
  "Ġleads": 4343,
  "Ġrestrict": 2392,
  "eration": 2442,
  "Ġrelatively": 3789,
  "Ġcompiler": 1323,
  "ameter": 1888,
  "Our": 3971,
  "Ġfr": 2446,
  "Ġhandling": 3476,
  "eline": 5824,
  "Ġcomm": 626,
  "Ġutype": 4036,
  "Ġtable": 1223,
  "stit": 2450,
  ".)": 967,
  "Ġabc": 4899,
  "atof": 5522,
  "Ġrightmost": 3165,
  "As": 1451,
  "Ġvers": 2454,
  "Ġlexicograph": 5159,
  "ĠEvaluation": 6686,
  "pointer": 1566,
  "ĠCompil": 5195,
  "Ġconversion": 673,
  "To": 2679,
  "Ġintroduction": 4356,
  ")\\": 4517,
  "ular": 941,
  "Before": 4542,
  "causes": 2814,
  "Z": 61,
  "Ġqsort": 1688,
  "Ġ%.": 4893,
  "35": 4526,
  "oint": 1155,
  "except": 4137,
  ")-(": 6423,
  "Ġinit": 3094,
  "ow": 253,
  "Se": 2849,
  "present": 799,
  "Ġmanipul": 1834,
  "Ġloaded": 3882,
  "ce": 220,
  "lying": 2588,
  "Ġ184": 3834,
  "Ġstops": 2656,
  "Ġport": 1930,
  "Ġallowed": 5099,
  "Ġ32767": 6352,
  "pression": 214,
  "Ġ225": 6336,
  "system": 4351,
  "Ġerrors": 2263,
  "Ġacceptable": 3536,
  "Ġputs": 3191,
  "ĠThe": 216,
  "Ġadd": 544,
  "Ġfractional": 3010,
  "errno": 4830,
  "ey": 2686,
  "Ġencounters": 5287,
  "Ġcontrolling": 4285,
  "yy": 3624,
  "Ġ(*++": 4980,
  "Ġput": 992,
  "pmonth": 5452,
  "ig": 175,
  "p": 83,
  "Ġprecision": 1318,
  "Ġhide": 3688,
  "Ġconsist": 1219,
  "ccur": 663,
  "Ġstand": 4081,
  "Now": 3968,
  "ating": 970,
  "ungetch": 4700,
  "ĠEach": 1590,
  "Ġstoring": 4083,
  "ĠPreprocessing": 5100,
  "ĠContinue": 6417,
  "Ġturns": 6270,
  "backslash": 6291,
  "Ġparentheses": 1420,
  "slash": 2663,
  "Ġspecified": 944,
  "Ġkeywords": 2289,
  "SIGABRT": 6437,
  "ĠOctal": 5868,
  "std": 634,
  "Ġbroken": 5206,
  "ĠSuch": 4157,
  "Ġsubtracting": 3874,
  "Ġsay": 2563,
  "Ġanother": 995,
  "Ġrow": 4254,
  "Ġsymmet": 5892,
  "ized": 1107,
  "Ġrem": 1009,
  "ĠBe": 5909,
  "Ġinformation": 1087,
  "Ġpiece": 5085,
  "ability": 2912,
  "minimum": 3011,
  "Ġ168": 3518,
  "ĠMore": 3161,
  "Ġho": 4114,
  "YS": 1860,
  "statement": 953,
  "Ġexpects": 3239,
  "Ġside": 1612,
  "ĠKore": 6258,
  "Ġeffective": 4959,
  "igu": 2147,
  "MT": 3964,
  "iv": 362,
  "Ġspecifier": 1180,
  "brk": 3009,
  "ud": 1753,
  "byte": 6341,
  "Ġpermanent": 6550,
  "Ġcalloc": 2877,
  "posed": 5048,
  "Ġaut": 1048,
  "ie": 1575,
  "dcl": 1452,
  "Ġfrequent": 6320,
  "Grand": 5338,
  "art": 1519,
  "Ġparameters": 1071,
  "Ġlooks": 2517,
  "Ġdesired": 3163,
  "Ġperhaps": 2969,
  "Ġcolumns": 5125,
  "Else": 5337,
  "ove": 1209,
  "ĠMar": 4891,
  "--": 1571,
  "Ġtrivial": 4228,
  "Ġ')": 4812,
  "Ġexit": 1708,
  "Ġcaller": 2355,
  "want": 5485,
  "Ġspecifi": 641,
  "*/": 3941,
  "Ġboundary": 3250,
  "al": 127,
  "ather": 1358,
  "Ġpermissible": 6088,
  "Ġapplied": 1474,
  "ĠChanges": 6529,
  "Ġdeleting": 5105,
  "Ġharder": 3839,
  "ping": 3618,
  "pfa": 3897,
  "Ġresp": 4207,
  "mb": 1139,
  "close": 2424,
  "Ġdifferent": 837,
  "Ġ51": 4932,
  "Ġmsg": 5609,
  "Ġbounds": 5091,
  "defin": 732,
  "Ġmakepoint": 3185,
  "SCI": 2310,
  "Ġpass": 993,
  "Ġsequence": 849,
  ">,": 2208,
  "Ġpointing": 4744,
  "mt": 2552,
  "Ġzone": 6284,
  "Ġmorecore": 3753,
  "Ġpp": 3655,
  "number": 3539,
  "Ġtypically": 2769,
  "Ġassume": 3236,
  "primary": 4937,
  "Ġelements": 1131,
  "Ġach": 3081,
  "Ġopened": 3787,
  "LEN": 4929,
  "lished": 4008,
  "pace": 4024,
  "opendir": 4824,
  "Ġbless": 4681,
  "tr": 645,
  "Ġifdef": 5735,
  "Ġrecognized": 6475,
  "ventionally": 5484,
  "Ġart": 2910,
  "OC": 2421,
  "uss": 4619,
  "ĠAho": 5744,
  "Ġapproved": 6205,
  "Ġop": 2329,
  "Ġalphab": 3909,
  "Ġblock": 655,
  "Ġcapability": 5138,
  "Ġ205": 6174,
  "ĠNelson": 5891,
  "Ġmaximum": 2094,
  "Ġadj": 1533,
  "ĠMike": 5956,
  "\"": 7,
  "Ġbreaking": 4997,
  "ĠABS": 5745,
  "qr": 2322,
  "Ġoriginally": 3812,
  "Ġformal": 2611,
  "ablished": 4122,
  "ary": 317,
  "umber": 5723,
  "Ġconsp": 4721,
  "chang": 2156,
  "Ġlinked": 3824,
  "Ġ11": 5759,
  "Ġconven": 1495,
  "ission": 2551,
  "orm": 1078,
  "ĠRob": 6017,
  "pbrk": 5453,
  "Ġunwritten": 5713,
  "eclar": 245,
  "Ġspecifiers": 2012,
  "Ġcou": 5526,
  "ĠOnly": 3514,
  "Ġconverted": 759,
  "ifp": 5660,
  "8": 28,
  "ree": 415,
  "Ġstud": 4703,
  "Ġcorrespond": 1103,
  "Ġalgor": 2598,
  "ĠCasts": 5244,
  "Each": 2108,
  "Ġwh": 243,
  "Ġsix": 2704,
  "Com": 4543,
  "Ġstarts": 3880,
  "ĠGoto": 6160,
  "ĠKernighan": 5296,
  "Ġload": 2606,
  "Ġvia": 4095,
  "ten": 556,
  "LLOCSIZE": 3267,
  "ĠSpecifiers": 4506,
  "Ġunnecessary": 4505,
  "member": 3260,
  "Ġndigit": 2226,
  "Ġadopt": 4825,
  "âĢ": 2218,
  "Ġlie": 5616,
  "(\"": 660,
  "Ġstrdup": 3390,
  "ĠSystem": 3246,
  "ĠGrammar": 6163,
  "ĠSelection": 6097,
  "Ġabout": 1042,
  "EX": 3286,
  "Ġtransferred": 5251,
  "Ġaspect": 2916,
  "<<": 3950,
  "You": 3597,
  "puts": 2465,
  "ump": 2592,
  "ous": 1020,
  "Ġtopic": 3829,
  "Ġstart": 2575,
  "Ġconvenient": 1605,
  "Consider": 4496,
  "Ġcoerc": 4163,
  "out": 474,
  "Ġsimpl": 2092,
  "Ġtendency": 6567,
  "Ġallow": 2249,
  "Ġby": 221,
  "strrchr": 5796,
  "Ġstatus": 2195,
  "ĠFormally": 5988,
  "'-');": 6627,
  "Ġsuppresses": 4461,
  "acters": 4741,
  "Ġpossibilities": 3862,
  "find": 4790,
  "du": 785,
  "Ġencount": 4846,
  "Ġ*);": 2001,
  "Ġusers": 4783,
  "ĠDave": 4216,
  "Ġcloses": 4455,
  "output": 3446,
  "Ġdifferences": 6008,
  "Ġsemantics": 4401,
  "Ġstrindex": 2345,
  "Ġeff": 775,
  "onth": 1076,
  "Ġdaytab": 2385,
  "ĠNotice": 3444,
  "Ġsuccessive": 3247,
  "Ġvacated": 5273,
  "sequent": 6134,
  "short": 3002,
  "Ġputchar": 1735,
  "Ġexpect": 1999,
  "Ġ>": 538,
  "Ġpermitting": 6416,
  "ĠAlthough": 3227,
  "long": 1749,
  "Ġmeans": 1415,
  "Ġsummar": 2999,
  "Ġfalseho": 6360,
  "Ġhello": 4198,
  "Ġfragment": 4489,
  "Ġinte": 352,
  "Ġfeof": 3797,
  "ved": 1061,
  "Jan": 4551,
  "Ġalgorithms": 6373,
  "Ġansw": 3355,
  "Ġconstitute": 5212,
  "ĠEXTERNAL": 5191,
  "ord": 351,
  "ops": 3734,
  "ĠLove": 5968,
  "Ġrather": 1529,
  "Ġenhance": 6596,
  "stdarg": 2619,
  "ĠUnlike": 4349,
  "Ġ#": 510,
  "ute": 2143,
  "Ġundergone": 5193,
  "ardless": 2755,
  "dup": 2547,
  "Ġoutline": 4191,
  "Ġunits": 2914,
  "der": 515,
  "Ġfar": 1874,
  "Ġexam": 477,
  "ts": 4032,
  "Ġyearday": 4823,
  "ieved": 3828,
  "ĠDes": 3453,
  "Ġconstant": 430,
  "\\\"": 5371,
  "aws": 5381,
  "ĠNatur": 5886,
  "nlines": 3325,
  "Ġsetting": 4214,
  "AIL": 6629,
  "Ġprevent": 6381,
  "31": 2307,
  "Ġframewor": 6346,
  "Ġfalsehood": 6720,
  "Ġalignment": 2076,
  "gers": 3996,
  "Ġexternal": 691,
  "20": 1858,
  "itude": 4393,
  "BUFSIZ": 4541,
  "Ġblank": 2288,
  "ĠPrintf": 5874,
  "Ġbound": 2191,
  "PR": 5355,
  "Enumerations": 3958,
  "Ġrepresent": 807,
  "ĠLine": 2780,
  "Ġ``,": 4860,
  "ativ": 2876,
  "Ġfpos": 4661,
  "AL": 2033,
  "Ġbinding": 6487,
  "Ġchange": 1236,
  "clusive": 1503,
  "ĠProgram": 3441,
  "invalid": 5501,
  "ĠB": 484,
  "BL": 2844,
  "Ġbfree": 5567,
  "ĠRegister": 6227,
  "Ġclearerr": 5103,
  "+=": 5305,
  "Ġcomments": 2349,
  "Ġchosen": 3871,
  "ended": 2073,
  "car": 5390,
  "Ġserve": 3853,
  "ĠOrder": 6500,
  "sius": 1542,
  "math": 3001,
  "pect": 1299,
  "cond": 1744,
  "Ġapplies": 2386,
  "Ġaffect": 3903,
  "Ġintroduces": 2820,
  "Ġtreated": 2405,
  "expanded": 6455,
  "Ġunbuffered": 4132,
  "Ġsus": 5517,
  "allenging": 5767,
  "ĠOUT": 3438,
  "letter": 3905,
  "Ġ28": 4839,
  "tures": 5473,
  "Ġcomparing": 6184,
  "Ġassignment": 794,
  "ues": 2694,
  "Ġrules": 1233,
  "rel": 2326,
  "ĠLOWER": 5290,
  "ĠJoe": 6439,
  "Within": 5153,
  "ss": 161,
  "Ġtermination": 3182,
  "aringly": 5543,
  "Ġboundaries": 5092,
  "ang": 496,
  "lication": 6517,
  "Ġsystem": 629,
  "inst": 3631,
  "ctype": 1666,
  "Ġchar": 194,
  "Ġloose": 5861,
  "ĠEven": 4179,
  "Ġ(": 171,
  "~": 97,
  "Ġ": 103,
  "Ġprodu": 1228,
  "ĠBetween": 5915,
  "eneous": 5537,
  "Ġdivided": 4460,
  "script": 1479,
  "ĠType": 2471,
  "Ġ181": 6233,
  "Ġseems": 6495,
  "Ġpers": 2711,
  "ending": 4794,
  "Ġparticipate": 6610,
  "ĠExpression": 6051,
  "}": 96,
  "Ġsrand": 3640,
  "high": 2689,
  "Ġrepeats": 6505,
  "unic": 2574,
  "Ġ+=": 1890,
  "refer": 3635,
  "Ġscans": 5155,
  "flow": 1919,
  "islower": 5685,
  "PEN": 3293,
  "Ġgenerally": 2271,
  "INT": 4300,
  "true": 3766,
  "ĠCommand": 4469,
  "MAXLINE": 2273,
  "recursive": 6571,
  "Ġexecutes": 6056,
  "rect": 3344,
  "Ġarbit": 2236,
  "calloc": 4571,
  "iled": 4161,
  "Ġalternatives": 6276,
  "])": 1508,
  "ĠBasics": 4451,
  "Ġmade": 1276,
  "Ġprobably": 5243,
  "Ġinn": 3658,
  "Ġoctal": 1923,
  "Ġ15": 2595,
  "quences": 5733,
  "Ġtruly": 5946,
  "Ġwhatever": 2067,
  "Ġmapping": 5853,
  "ĠSE": 2923,
  "Ġshared": 2609,
  "itim": 4066,
  "Ġrelated": 2378,
  "postfix": 2370,
  "rom": 355,
  "irect": 564,
  "AX": 693,
  "Ġsizes": 1801,
  "perator": 913,
  "igns": 5749,
  "Ġremove": 3482,
  "ograph": 3617,
  "ĠFortunately": 6335,
  "ety": 2904,
  "Ġh": 197,
  "ecution": 6041,
  "atter": 5521,
  "Str": 2678,
  "reak": 1049,
  "Ġcomputed": 2635,
  "29": 5307,
  "Ġes": 1393,
  "Celsius": 3580,
  "ĠAllocator": 6309,
  "AC": 3045,
  "Ġmiddle": 2816,
  "reat": 1293,
  "endir": 4795,
  "Ġcoordinate": 4440,
  "Ġdesigned": 4245,
  "Ġdecade": 6034,
  "Ġdecision": 2623,
  "declared": 3226,
  "Ġpur": 5552,
  "ints": 4707,
  "Ġdecre": 2090,
  "atile": 2129,
  "ĠDirect": 4217,
  "ic": 158,
  "Ġfopen": 1664,
  "ived": 2932,
  "Ġmodifiable": 6180,
  "Ġgrows": 6141,
  "ush": 1011,
  "change": 2244,
  "ught": 6643,
  "e": 72,
  "Ġletters": 1957,
  "Ġthroughout": 4328,
  "Ġscanned": 5175,
  "Ġobject": 419,
  "semb": 4713,
  "expression": 371,
  "Ġens": 2367,
  "igned": 392,
  "tab": 827,
  "Ġreferences": 3799,
  "Ġelem": 6005,
  "Ġ182": 6234,
  "Ġerror": 596,
  "Ġcovered": 4793,
  "Ġpoints": 865,
  "ical": 647,
  "Ġcreate": 1734,
  "Ġ04": 4772,
  "imilarly": 2669,
  "ahr": 1046,
  "Ġhashtab": 3522,
  "Ġwere": 1462,
  "Ġpict": 3352,
  "Ġcolleag": 6254,
  "ĠInteger": 4433,
  "match": 6244,
  "ĠHDR": 2786,
  "Ġfills": 5186,
  "scalls": 5469,
  "ĠWRONG": 2605,
  "ently": 1363,
  "Ġbehave": 4093,
  "matches": 6245,
  "Ġprovides": 1326,
  "hes": 765,
  "case": 1540,
  "Ġgive": 3392,
  "converted": 3465,
  "ĠJumps": 6194,
  "describ": 6447,
  "Ġpos": 747,
  "Ġimpossible": 5903,
  "ar": 121,
  "Ġfast": 2707,
  "length": 3470,
  "Ġ...": 815,
  "ap": 583,
  "ĠEither": 5834,
  "ĠMAXLINE": 1847,
  "static": 1877,
  "Ġsuffer": 6589,
  "dirbuf": 4345,
  "Ġinode": 2054,
  "aditional": 5728,
  "tc": 1752,
  "Ġintends": 5672,
  "Ġreferred": 2798,
  "Ġproblems": 4379,
  "Ġre": 153,
  "our": 1750,
  "Ġassignments": 2523,
  "lseek": 4007,
  "ention": 1463,
  "dinary": 2038,
  "ez": 3310,
  "Ġenum": 2253,
  "fd": 1573,
  "Ġdimens": 5593,
  "Ġtrou": 4632,
  "++);": 4820,
  "Ġdetab": 4278,
  "Ġdirectly": 2495,
  "Ġsignal": 1496,
  "additive": 3517,
  "ota": 5676,
  "Ġrestr": 1432,
  "OR": 1263,
  "ĠTh": 1126,
  "Ġreaddir": 2946,
  "el": 337,
  "ward": 3077,
  "OW": 4555,
  "ĠMisce": 5959,
  "Ġexited": 4370,
  "Ġadvant": 2822,
  "Ġle": 314,
  "ĠDon": 4215,
  "raries": 3619,
  "ĠSyntax": 6310,
  "Ġgenerated": 3779,
  "eds": 5559,
  "Ġpermissions": 3883,
  "plified": 5799,
  "Ġsubject": 3159,
  "ing": 146,
  "Ġdynamically": 6661,
  "Ġmatters": 6059,
  "modifier": 2832,
  "also": 5561,
  "<": 32,
  "Ġobvious": 2754,
  "Ġever": 5601,
  "ĠFahrenheit": 3279,
  "Ġseen": 2467,
  "ĠVTAB": 5000,
  "ĠUnited": 6201,
  "are": 307,
  "Ġ<<=": 5122,
  "ge": 3608,
  "Ġnunits": 3671,
  "ĠExecution": 6054,
  "Ġabsence": 3253,
  "Ġsensible": 5267,
  "Ġwhole": 2664,
  "eral": 5509,
  "ks": 946,
  "Ġconsider": 1641,
  "TS": 3976,
  "Ġprecise": 1773,
  "ĠAdd": 2004,
  "Im": 5342,
  "encies": 5069,
  "Ġpast": 3093,
  "hest": 5505,
  "Ġbufp": 3173,
  "Ġcap": 2760,
  "after": 2851,
  "Ġsymmetry": 6694,
  "ecimal": 1367,
  "19": 2415,
  "struct": 600,
  "cn": 3303,
  "Ġconv": 537,
  "legal": 5587,
  "Ġamount": 3224,
  "Ġwithout": 1034,
  "ĠBas": 2947,
  "ĠCounting": 3569,
  "med": 2115,
  "Ġresults": 2953,
  "ĠTypes": 2601,
  "ĠSubsequent": 6458,
  "Ġindividual": 6503,
  "ined": 2220,
  "SIZE": 1960,
  "Ġgrouping": 5016,
  "ells": 3538,
  "Ġformats": 3800,
  "Ġlater": 2399,
  "Ġsymbols": 6215,
  "abstract": 2590,
  "very": 1717,
  "ibut": 3424,
  "eclarator": 548,
  "Ġcompound": 2475,
  "an": 142,
  "Ġorigin": 1271,
  "Ġemp": 2893,
  "Ġexpression": 292,
  "Ġprimitive": 6103,
  "Ġdirbuf": 5062,
  "Ġsupported": 5127,
  "ĠEquival": 5841,
  "Ġexchanges": 5647,
  "Ġtruncated": 5139,
  "exp": 3396,
  "Ġcontaining": 1561,
  "Ġinitialize": 2365,
  "Ġnotion": 4138,
  "Ġclose": 2879,
  "Ġisolated": 5237,
  "enc": 1872,
  "Ġel": 731,
  "Ġcolon": 4398,
  "include": 677,
  "(-": 4516,
  "Ġdirect": 667,
  "Argument": 6424,
  "equality": 3238,
  "Ġchoose": 4426,
  "bidden": 4569,
  "Ġfloating": 880,
  "Ġdeep": 3704,
  "Ġoccurs": 1413,
  "Ġlear": 3715,
  "Ġfflush": 3654,
  "I": 44,
  "Ġ066": 4773,
  "Ġstderr": 2382,
  "ĠNotation": 5889,
  "Ġunspecified": 3278,
  "Ġproble": 1764,
  "kim": 5427,
  "Ġmight": 1295,
  "Ġbuf": 774,
  "ice": 844,
  "Ġcontexts": 3244,
  "Ġinvalid": 4674,
  "ided": 5737,
  "Ġexemplified": 6669,
  "smallest": 6642,
  "ĠGeneration": 6165,
  "inclusive": 3339,
  "MIN": 2420,
  "47": 5310,
  "Ġquantity": 2826,
  "Ġbring": 6073,
  "ĠJanuary": 6613,
  "LT": 2209,
  "Ġsear": 3414,
  "ival": 823,
  "Ġaspects": 3892,
  "Ġglo": 3691,
  "ĠERAN": 3723,
  "hashval": 4464,
  "Ġhave": 359,
  "Ġso": 373,
  "ĠClass": 3033,
  "Ġshellsort": 6483,
  "Ġmembers": 1017,
  "Ġremains": 3215,
  "Ġinterpret": 2653,
  "quest": 5731,
  "37": 2673,
  "UGE": 4562,
  "Ġlocution": 6080,
  "capes": 5261,
  "Ġembed": 5272,
  "Ġmismatch": 6577,
  "RAD": 3588,
  "ran": 2432,
  "Ġcompare": 1128,
  "mmm": 6397,
  "ib": 331,
  "Ġsucc": 5805,
  "inary": 1210,
  "part": 2496,
  "llaneous": 5683,
  "Ġsubtree": 2779,
  "ordin": 2602,
  "Ġdeclares": 2615,
  "Ġmultiplicative": 2812,
  "Ġheavily": 6695,
  "][": 1509,
  "Ġoptimization": 4982,
  "index": 2125,
  "ĠWhile": 6409,
  "iger": 5664,
  "Ġpossibility": 4413,
  "itial": 410,
  "Ġfilename": 2298,
  "termin": 5762,
  "gative": 1188,
  "Ġallocp": 2498,
  "Ġfrequ": 2194,
  "ittle": 4067,
  "ĠAlign": 6248,
  "Ġfollows": 2013,
  "Ġresumes": 3746,
  "x": 91,
  "prevp": 5690,
  "Ġidentify": 4192,
  "cluding": 2968,
  "Ġopendir": 3563,
  "Ġincludes": 2184,
  "Ġincomplete": 2205,
  "criptors": 6181,
  "Ġexpands": 6317,
  "OF": 754,
  "count": 1779,
  "Ġsupply": 6312,
  "ans": 698,
  "80": 5317,
  "Ġ24": 4838,
  "Ġfinal": 2531,
  "ĠArgument": 3485,
  "ĠLvalues": 5974,
  "Ġt": 106,
  "ĠFopen": 5809,
  "Ġdivisible": 6178,
  "ĠSTE": 4787,
  "Ġitoa": 2905,
  "Ġsa": 1800,
  "Ġtab": 956,
  "==": 2416,
  "Ġbuffered": 3801,
  "Ġmathematic": 6060,
  "SHRT": 5171,
  "Ġtalk": 5494,
  "Ġlexicographically": 5297,
  "Ġmodel": 4361,
  "Ġpo": 179,
  "Ġungetc": 3807,
  "Ġhope": 5242,
  "MAXVAL": 4292,
  "Ġunique": 2668,
  "ĠWorld": 5858,
  "Ġfund": 4659,
  "ĠMan": 4235,
  "Other": 3972,
  "Ġconform": 5649,
  "Ġflag": 1520,
  "ĠValue": 6612,
  "Ġqualifier": 3630,
  "par": 735,
  "ert": 1006,
  "Ġsearching": 3216,
  "Ġenclosed": 2524,
  "identifier": 1606,
  "fore": 702,
  "Ġbreaks": 6126,
  "Ġ(#": 5651,
  "sh": 1701,
  "ĠBlan": 4851,
  "oriz": 3662,
  "union": 1761,
  "cision": 1206,
  "ĠSw": 4784,
  "stances": 5575,
  "Ġattribut": 3910,
  "ried": 4608,
  "Ġ'+'": 4483,
  "vered": 3701,
  "Ġleave": 4171,
  "Ġversa": 3021,
  "Ġstrict": 4124,
  "Ġcouple": 6649,
  "other": 875,
  "ĠSel": 5784,
  "ĠOtherwise": 1742,
  "Ġpremium": 5829,
  "Ġtag": 1291,
  "2": 22,
  "Ġrecursion": 5028,
  "veral": 1036,
  "lling": 2907,
  "Ġopt": 1065,
  "Ġoverlapping": 6553,
  "getchar": 2483,
  "ĠRW": 6010,
  "Ġfread": 5545,
  "ĠHUGE": 4926,
  "ĠArguments": 3486,
  "gre": 1980,
  "Ġsubscripts": 4362,
  "ouse": 5792,
  "py": 661,
  "Ġpreprocessing": 3808,
  "her": 231,
  "EPSILON": 6630,
  "Ġcommittee": 6702,
  "));": 1857,
  "14": 2207,
  "Ġyears": 2638,
  "Ġcounting": 2972,
  "Ġclasses": 3511,
  "Ġdecide": 3777,
  "Ġstages": 4082,
  "Ġsomeone": 5990,
  "without": 4422,
  "ĠZero": 6566,
  ".')": 4521,
  "Ġdivide": 3212,
  "',": 1855,
  "Ġsal": 5515,
  "Ġapplication": 4829,
  "ĠVariables": 2525,
  "oth": 933,
  "Ġdefined": 726,
  "ĠDerived": 5939,
  "Ġevaluation": 1894,
  "Ġoverwrit": 6135,
  "Ġguarantees": 3225,
  "Ġarrives": 5096,
  "ĠFortran": 2834,
  "cal": 1918,
  "perial": 4126,
  "Ġpurposes": 6655,
  "ĠAmong": 5746,
  "ĠSTEP": 5281,
  "Ġvertical": 3037,
  "justified": 6428,
  "mtab": 4013,
  "Ġformfeed": 3743,
  "strcat": 3712,
  "Ġdevices": 5135,
  "irent": 2604,
  "ĠIm": 4144,
  "Ġillustrate": 1647,
  "S": 54,
  "Ġfilling": 5700,
  "ĠAssignment": 4457,
  "Ġtruncation": 6386,
  "Ġensures": 4418,
  "unction": 196,
  "Ġthose": 1810,
  "Ġrecursive": 2396,
  "ĠIf": 438,
  "anded": 4753,
  "Ġdetermined": 3823,
  "Ġpopped": 5183,
  "RAN": 3587,
  "ages": 1677,
  "Ġprecedence": 1382,
  "ense": 2880,
  "Ġcompat": 3729,
  "tered": 2154,
  "Ġsometimes": 2294,
  "ĠTutorial": 5822,
  "Ġdetail": 3180,
  "Ġ/,": 5010,
  ".,": 1651,
  "Ġstring": 354,
  "ĠCompare": 6472,
  "Ġgraphics": 6717,
  "Ġsupplement": 6224,
  "iagnost": 3273,
  "most": 2317,
  "Ġuse": 502,
  "Ġyear": 1201,
  "Ġvolatile": 2581,
  "sized": 4616,
  "Ġfrom": 358,
  "Ġprinted": 1319,
  "Ġsimpler": 6302,
  "ance": 1081,
  "Ġproduce": 1958,
  "Ġto": 138,
  "Ġemail": 6218,
  "Ġswitching": 6188,
  "ĠAlso": 3003,
  "!='\\": 6512,
  "Ġtells": 5496,
  "acter": 1402,
  "rist": 5461,
  "Ġrestriction": 4390,
  "itive": 1161,
  "Ġassigning": 4377,
  "Ġ?": 1173,
  "_": 66,
  "Ġstorage": 679,
  "Ġinclusion": 4675,
  "Ġsoon": 4182,
  "Ġorgan": 2460,
  "apt": 4565,
  "ĠPrima": 6411,
  "Ġ173": 4359,
  "Ġimpl": 2254,
  "Ġlibrary": 695,
  "Ġleast": 1316,
  "Ġannounces": 3896,
  "Ġsignificance": 5076,
  "ĠFiles": 5810,
  "Ġsetvbuf": 4865,
  "SIG": 3171,
  "Ġva": 1622,
  "Ġsituation": 3864,
  "sys": 1908,
  "aight": 5376,
  "Ġgiven": 1045,
  "Ġmess": 4077,
  "ively": 1558,
  "Ġgroups": 3208,
  "Ġstate": 398,
  "Ġconditions": 2983,
  "sets": 2284,
  "Ġshatter": 5882,
  "Ġquestion": 2828,
  "Ġstrlen": 1765,
  "freopen": 6564,
  "Ġ148": 4397,
  "Ġrout": 915,
  "Ġde": 272,
  "Ġsyntax": 1687,
  "level": 4690,
  "Ġsubscript": 1596,
  "Archive": 4453,
  "Ġfaster": 3887,
  "Ġstrtod": 6379,
  "Ġminim": 6140,
  "blan": 3985,
  "ifiers": 748,
  "LON": 5346,
  "iz": 224,
  "Ġ0": 261,
  "Ġkeeps": 6330,
  "pro": 658,
  "UMBER": 3979,
  "lean": 5586,
  "Ġpublication": 6656,
  "ĠRitchie": 5291,
  "Appendix": 3047,
  "ativity": 3035,
  "ĠGetting": 6161,
  "ppendix": 1477,
  "Ġmask": 4503,
  "Ġan": 132,
  "size": 870,
  "Ġoff": 1461,
  "ented": 5599,
  "Ġcontin": 1557,
  "Ġintroduce": 6223,
  "enough": 4656,
  "bsearch": 5386,
  "condition": 4374,
  "formfeed": 5989,
  "mat": 1698,
  "Ġmanipulate": 3006,
  "alls": 1718,
  "ociativity": 4985,
  "ultiplicative": 2984,
  "Ġcheck": 1803,
  "that": 3726,
  "Ġproceeds": 6492,
  "Ġdetailed": 5164,
  "sin": 5465,
  "ples": 1629,
  "Ġfree": 804,
  "ident": 1553,
  "Ġremaining": 4350,
  "WORD": 2537,
  "Ġafter": 852,
  "gation": 5415,
  "Ġ||,": 5001,
  "Ġprototypes": 3843,
  "ĠLINE": 5969,
  "Ġafree": 2873,
  "ĠPars": 4289,
  "Ġcs": 1802,
  "Ġinstru": 4676,
  "ob": 2043,
  "stract": 1818,
  "hand": 3314,
  "sg": 5464,
  "Ġqualified": 5059,
  "Ġcalling": 1490,
  "Ġsol": 2936,
  "TE": 2210,
  "PER": 3973,
  "Ġcritical": 6521,
  "Two": 3299,
  "ĠFunctions": 1261,
  "ĠCon": 1069,
  "Ġprint": 386,
  "ooo": 3863,
  "Ġinadvert": 6657,
  "Ġ<=": 1435,
  "EB": 5334,
  "initializer": 3012,
  "set": 1146,
  "ber": 341,
  "udi": 3229,
  "Thus": 4463,
  "ĠSET": 6405,
  "search": 1486,
  "inrect": 4636,
  "Ġlinks": 6490,
  "til": 1456,
  "ith": 203,
  "Ġph": 2885,
  "NKEYS": 3969,
  "aries": 2596,
  "Ġversions": 2374,
  "ĠFormat": 2955,
  "ag": 269,
  "Ġreach": 4709,
  "side": 1005,
  "Ġhardware": 4414,
  "EP": 5336,
  "Ġmere": 2141,
  "Ġexcess": 5644,
  "alu": 233,
  "ain": 273,
  "onents": 2325,
  "form": 617,
  "Ġreserved": 3251,
  "ĠRitch": 4916,
  "Ġdeath": 4778,
  "igh": 372,
  "Ġexpensive": 5274,
  "Ġpush": 1311,
  "Ġthrough": 1246,
  "Ġ48": 6063,
  "Ġelsewhere": 4957,
  "Ġaction": 2871,
  "ĠSpec": 4158,
  "ifier": 350,
  "ected": 3711,
  "equal": 1979,
  "Ġnecessarily": 4307,
  "ental": 4696,
  "ĠHASHSIZE": 6026,
  "clus": 1232,
  "Ġsymbol": 1534,
  "Ġsubstitut": 4459,
  "ĠNames": 4834,
  "ĠPrograms": 6461,
  "pendent": 951,
  "ĠHaley": 6027,
  "levant": 3362,
  "ĠK": 1797,
  "hour": 3611,
  "Ġcat": 1926,
  "Ġincorpor": 5235,
  "Ġenco": 2612,
  "ĠOperator": 1040,
  "ĠAllow": 5742,
  "omatic": 1054,
  "Ġcompilation": 2497,
  "ĠLinkage": 3933,
  "Ġlifetime": 6664,
  "addtree": 6247,
  "crement": 3460,
  "Ġbefore": 790,
  "endar": 2928,
  "stru": 4165,
  "..": 328,
  "Ġconspire": 6581,
  "Ġhow": 635,
  "acent": 2062,
  "Ġprice": 4978,
  "Ġaddressing": 6110,
  "Ġitems": 3263,
  "32767": 3523,
  "Ġdisappear": 4253,
  "Ġgoto": 2240,
  "Ġartic": 3554,
  "character": 3132,
  "default": 2369,
  "Ġ1024": 4984,
  "ĠNKEYS": 2766,
  "Ġthey": 633,
  "allocbuf": 4267,
  "em": 276,
  "Ġinclud": 931,
  "Ġedit": 4304,
  "cise": 565,
  "Ġdependent": 4776,
  "Ġfprintf": 2447,
  "Ġpromoted": 2027,
  "ONLY": 3205,
  "ple": 285,
  "act": 204,
  "Ġestablished": 4474,
  "Ġhandful": 6085,
  "ĠOr": 3731,
  "ĠAdditive": 6287,
  "rather": 4609,
  "Ġlookup": 2815,
  "Ġfalls": 4660,
  "Ġqual": 1799,
  "Ġdeclaring": 5595,
  "Ġmodulo": 4468,
  "Ġ)": 1754,
  "od": 779,
  "oft": 5450,
  "ĠCond": 2921,
  "Ġrel": 958,
  "Ġright": 615,
  "Ġ->": 4817,
  "idth": 1527,
  "Ġterminate": 4286,
  "Ġeas": 1226,
  "Ġdetermining": 6186,
  "BF": 3953,
  "Ġnested": 2138,
  "random": 3852,
  "urpose": 2343,
  "Ġexist": 1296,
  "Ġempty": 1740,
  "Ġnow": 1362,
  "Ġsynon": 3445,
  "ĠU": 694,
  "specifiersopt": 3007,
  "strdup": 4167,
  "Ġcreating": 4970,
  "assigns": 5963,
  "ĠBC": 4205,
  "čĊ": 109,
  "Ġrows": 2961,
  "vail": 1795,
  "Ġsymbolic": 2291,
  "iteration": 6130,
  "eaning": 3993,
  "Ġsubexpression": 4884,
  "Ġ6": 1142,
  "root": 3370,
  "ĠCaesar": 6681,
  "Ġjump": 4906,
  "Ġenfor": 4845,
  "Ġexecute": 4949,
  "Ġincrement": 1259,
  "Ġac": 1755,
  "of": 631,
  "Ġuniform": 5716,
  "Ġ9": 1863,
  "Ġcould": 1109,
  "Ġshell": 3638,
  "TOKEN": 3918,
  "ĠBRACKETS": 4507,
  "Ġsubse": 4883,
  "Ġgreater": 2203,
  "ĠFLOAT": 5283,
  "entype": 2572,
  "Ġmultiple": 2811,
  "Ġsubscripting": 4363,
  "Ġdelimited": 6584,
  "cs": 1917,
  "move": 4591,
  "Ġquickly": 6606,
  "Ġ65": 4988,
  "Ġachieve": 4454,
  "ording": 1721,
  "]": 64,
  "nl": 2553,
  "Ġappending": 6414,
  "9": 29,
  "ĠUnlink": 6202,
  "ĠKeywords": 5295,
  "Ġfinds": 2632,
  "Ġcommutative": 4904,
  "Ġprevious": 1274,
  "Ġ2018": 6176,
  "Ġtranslated": 6554,
  "Ġseveral": 1039,
  "ices": 2579,
  "Ġmany": 1379,
  "Ġwant": 2137,
  "Ġ*)": 1522,
  "Ġincrements": 2175,
  "ptic": 5706,
  "pet": 4605,
  "Ġappl": 1181,
  "eclarators": 2777,
  "Ġshorthand": 3541,
  "ĠWhether": 4819,
  "mmet": 5141,
  "date": 3604,
  "iate": 1332,
  "djacent": 5262,
  "ters": 1702,
  "Ġaug": 4639,
  "Ġpa": 1176,
  "Ġequivalence": 6072,
  "Ġfi": 207,
  "ĠSubstit": 5187,
  "Ġsearch": 1489,
  "Ġtarget": 4499,
  "ĠSequences": 6098,
  "Ġcoordin": 2746,
  "loat": 508,
  "gap": 3312,
  "Ġrestri": 1963,
  "Ġfollowing": 1166,
  "ĠWith": 2009,
  "Ġmnemonic": 6663,
  "Ġear": 1706,
  "ief": 3317,
  "single": 4614,
  "ificial": 6220,
  "LL": 611,
  "Ġmultiplying": 5258,
  "te": 832,
  "nam": 1609,
  "ero": 488,
  "is": 190,
  "Ġtrans": 1344,
  "Ġindicators": 5165,
  "iopian": 6448,
  "Ġlimited": 4395,
  "G": 42,
  "Ġden": 3106,
  "re": 113,
  "Ġexclusive": 3377,
  "<sep>": 4,
  "Ġins": 2888,
  "ily": 2857,
  "Ġlabels": 2391,
  "Ġrepl": 830,
  "spec": 1041,
  "Ġintent": 4104,
  "ĠEx": 831,
  "26": 5306,
  "verted": 3129,
  "ging": 5414,
  "including": 3340,
  "Ġfetch": 5130,
  "d": 71,
  "Ġrepresentable": 2788,
  "pday": 5451,
  "echan": 2201,
  "Ġcompact": 2939,
  "Ġassociates": 6121,
  "Ġ-.": 4186,
  "everal": 4283,
  "Ġlist": 532,
  "Ġtrunc": 2776,
  "purpose": 4025,
  "Ġscr": 4649,
  "1": 21,
  "All": 4535,
  "loy": 4754,
  "ĠUnion": 6197,
  "Ġnumcmp": 2931,
  "Ġfstat": 4663,
  "Ġfirst": 434,
  "Ġ(<": 4726,
  "llegal": 1843,
  "Ġftell": 5551,
  "Ġunwant": 5715,
  "ful": 1116,
  "Ġrecords": 3248,
  "l": 79,
  "Ġscreen": 1869,
  "Ġcomma": 2169,
  "add": 1712,
  "Ġdis": 682,
  "Ġ[": 1986,
  "Ġparent": 1094,
  "Ġexceeds": 5179,
  "Ġout": 437,
  "ĠMAR": 5957,
  "ĠEvery": 5836,
  "px": 4022,
  "Ġj": 632,
  "Ġshow": 1015,
  "Ġhashval": 3841,
  "Ġdele": 2353,
  "end": 298,
  "Ġatof": 1301,
  "Y": 60,
  "described": 6722,
  "mas": 4012,
  ">.": 1977,
  "Ġbottom": 5236,
  "Ġwithdraw": 4752,
  "Ġmultiplication": 4339,
  "che": 3986,
  "Ġglob": 3928,
  "Ġdenot": 4456,
  "ization": 1552,
  "Ġredirect": 4086,
  "Ġcreation": 4969,
  "Ġevaluate": 3780,
  "Ġellipsis": 5158,
  "LE": 777,
  "P": 51,
  "ĠBefore": 5913,
  "Ġstory": 4702,
  "Con": 3579,
  "Ġsh": 431,
  "|": 95,
  "Ġstren": 5613,
  "Ġaddresses": 4310,
  "<mask>": 5,
  "Ġdiscusses": 4314,
  "ĠAs": 1273,
  "concatenate": 5292,
  "Ġfastest": 5131,
  "Ġclean": 4389,
  "Ġcarried": 6306,
  "Ġsaves": 6261,
  "Ġcon": 168,
  "ives": 2359,
  "typ": 1660,
  "Ġstores": 3188,
  "DE": 3957,
  "izer": 2913,
  "24": 2840,
  "same": 5467,
  "Ġalso": 568,
  "Ġdescription": 3207,
  "Ġspecify": 1443,
  "urity": 5667,
  "Rather": 5360,
  "Ġidentified": 3740,
  "Ġlooping": 6007,
  "Ġadds": 3455,
  "face": 2113,
  "Declarators": 5332,
  "Ġknown": 2817,
  "ok": 786,
  "Ġpar": 320,
  "operator": 2557,
  "Ġyields": 3266,
  "Ġauto": 3483,
  "AME": 5327,
  "Ġreplaces": 3468,
  "ĠCompound": 6213,
  "dddddde": 6418,
  "white": 1946,
  "Ġhandle": 1839,
  "Structures": 6374,
  "ĠTherefore": 3810,
  "Ġmanual": 2967,
  "Ġ},": 2503,
  "Ġrecording": 6083,
  "Ġextended": 3545,
  "char": 309,
  "ĠThen": 1933,
  "Ġorder": 738,
  "Ġfilecopy": 3428,
  "Ġproperty": 3832,
  "Ġquick": 4930,
  "ER": 1386,
  "Ġconcentrate": 3881,
  ")();": 6242,
  "Ġintentionally": 5673,
  "istent": 4768,
  "Ġ\\\\": 4996,
  "ong": 368,
  "Ġbackspace": 6116,
  "ĠNUMBER": 4194,
  "UL": 3300,
  "gate": 2550,
  "Ġsubset": 4231,
  "ĠHear": 6025,
  "Ġhold": 1670,
  "!=": 3934,
  "ĠString": 2387,
  "returns": 4255,
  "Ġomit": 4368,
  "Ġconverts": 1446,
  "TERNAL": 3917,
  "Ġcharacter": 299,
  "Ġhandled": 6086,
  "Ġnbr": 5584,
  "Ġswap": 1569,
  "ably": 2461,
  "Ġbase": 1428,
  "Ġconverting": 2970,
  "stream": 1481,
  "iated": 5423,
  "Ġvalues": 669,
  "Ġkeep": 2266,
  "Ġdiscarding": 6289,
  "\\\\": 5374,
  "ĠFinally": 3716,
  "Ġoptionally": 4306,
  "Ġclarifies": 6469,
  "Ġsome": 619,
  "Ġmention": 2227,
  "198": 5110,
  "reenode": 5174,
  "cumstances": 6635,
  "lib": 2428,
  "abor": 4121,
  "ĠStruct": 1502,
  "kip": 1541,
  "66": 3283,
  "Ġincom": 2055,
  "Ġofp": 5573,
  "Ġconcise": 4096,
  "Ġbuild": 3869,
  "ians": 3999,
  "Ġ_": 1175,
  "ĠRome": 4915,
  "Ġenough": 1343,
  "Ġinterests": 6037,
  "\".": 3936,
  "Ġ49": 6064,
  "Ġbreak": 1177,
  "Ġwhich": 322,
  "Ġincrementing": 3811,
  "Ġexecuted": 1380,
  "Ġ~": 2049,
  "Ġconsistent": 4323,
  "Ġdif": 681,
  "ister": 1216,
  "Ġidentical": 1680,
  "Ġsplitting": 6390,
  "int": 152,
  "concaten": 4921,
  "Ġpractice": 2030,
  "uel": 5476,
  "Ġshifting": 3737,
  "Ġuns": 3122,
  "Ġofficial": 6614,
  "Ġsimple": 1896,
  "Ġarrange": 3531,
  "iliar": 4792,
  "Ġ100": 1716,
  "Ġassociativity": 3805,
  "ding": 3990,
  "Ġfetching": 6617,
  "ode": 838,
  "Ġrequires": 3201,
  "itte": 5571,
  "Ġillustration": 4332,
  "increment": 5502,
  "Ġunion": 718,
  "Ġspelled": 5156,
  "Ġexperience": 4446,
  "goto": 3609,
  "Ġassign": 1776,
  "ĠDuring": 4868,
  "atures": 2444,
  "Ġwrote": 2837,
  "Ġoper": 262,
  "ĠWord": 5855,
  "Ġunlike": 4749,
  "Ġstr": 205,
  "ub": 2323,
  "Ġinterfere": 6038,
  "Ġpermission": 2629,
  "Ġmak": 1252,
  "ĠCom": 1528,
  "Ġinvol": 1737,
  "h": 75,
  "Ġmanagement": 3781,
  "hing": 1475,
  "AR": 1914,
  "ot": 183,
  "ithmetic": 728,
  "Ġprocess": 1121,
  "Ġabbreviated": 5981,
  "Ġdigits": 1113,
  "denom": 6376,
  "hapt": 618,
  "Ġdisappearing": 6545,
  "let": 3360,
  "Ġarbitrary": 2408,
  "Ġvsprintf": 4718,
  "ph": 2865,
  "i": 76,
  "An": 1308,
  "Ġacc": 703,
  "Ġstatic": 1008,
  "Ġgro": 1249,
  "Ġlevel": 2075,
  "Ġperipher": 3784,
  "ĠInte": 2660,
  "Ġlanguages": 2274,
  "Ġmain": 625,
  "Ġdiv": 1398,
  "(...)": 3937,
  "DIRSIZ": 6304,
  "no": 1476,
  "Ġgiving": 4281,
  "uly": 4620,
  "Ġfre": 1360,
  "The": 166,
  "constant": 1783,
  "ĠWhat": 4448,
  "lect": 2891,
  "Ġcost": 4162,
  "Ġparser": 4173,
  "float": 1574,
  "Ġcomb": 2242,
  "Ġadv": 1633,
  "Ġunderg": 3497,
  "Ġ{": 461,
  "Ġu": 1864,
  "Ġturn": 1865,
  "dst": 5399,
  "iends": 5425,
  "(\"\\": 3461,
  ":%": 2843,
  "Ġabs": 2264,
  "Chapter": 1654,
  "RONG": 2543,
  "closed": 5396,
  "uary": 3333,
  "Ġrecently": 4967,
  "RAC": 3975,
  "ulti": 1110,
  "Ġisspace": 4070,
  "Ġevalu": 817,
  "Ġwriting": 1127,
  "Ġfir": 433,
  "words": 4912,
  "initial": 2124,
  "Ġcol": 2072,
  "Ġthen": 624,
  "changed": 2533,
  "Ġmem": 575,
  "<pad>": 0,
  "Ġptr": 2886,
  "floatnode": 6222,
  "Ġprogre": 4120,
  "Ġvalu": 263,
  "ĠVari": 1905,
  "ĠRussian": 6707,
  "What": 6426,
  "ash": 1815,
  "Ġpeople": 3561,
  "Ġanswer": 3099,
  "Ġsl": 2562,
  "Th": 3298,
  "Ġ(*(*": 4981,
  "Ġbuilding": 6506,
  "Second": 3591,
  "Ġallocate": 4266,
  "esting": 3436,
  "pressions": 1550,
  "SI": 770,
  "Ġneed": 744,
  "ĠOPEN": 4821,
  "Ġopend": 3348,
  "Ġformula": 6595,
  "Ġdown": 3107,
  "Ġclosing": 6429,
  "dr": 3989,
  "Ġcentral": 3924,
  "turns": 5720,
  "Ġnext": 592,
  "Ġev": 567,
  "my": 5431,
  "Ġmagnitud": 6524,
  "Ġdefining": 5851,
  "vailable": 1854,
  "Ġversion": 725,
  "ĠPr": 2941,
  "Ġenumerators": 6389,
  "ors": 4679,
  "generator": 5227,
  "Ġtm": 2050,
  "Ġbec": 710,
  "ĠFormatted": 3039,
  "Ġprefixed": 6325,
  "Ġguaranteed": 2643,
  "MAX": 907,
  "uppose": 3148,
  "Ġseed": 2748,
  "ermost": 3143,
  "active": 5695,
  "vertical": 6456,
  "fully": 2687,
  "Ġregister": 1417,
  "Ġhe": 457,
  "Ġprogrammers": 3231,
  "th": 367,
  "Ġanswered": 6430,
  "EN": 2034,
  "Ġlet": 1055,
  "Ġalread": 1370,
  "Ġreadily": 4848,
  "Ġmachine": 1114,
  "ide": 499,
  "stdlib": 2620,
  "Ġinverse": 5558,
  "ĠL": 590,
  "Ġuser": 1938,
  "isable": 4734,
  "Ġlocation": 2278,
  "Ġv": 162,
  "Ġpadding": 3543,
  "Ġideas": 5112,
  "Ġindented": 5133,
  "Ġyou": 810,
  "Ġcompilers": 1830,
  "octal": 4021,
  "Ġchanging": 6030,
  "tmpnam": 4445,
  "''.": 3742,
  "Ġparenthes": 1185,
  "Ġaccessed": 2091,
  "must": 4589,
  "Ġnest": 4687,
  "Ġ(\"": 4723,
  "asure": 5756,
  "there": 4320,
  "Ġrequests": 6279,
  "haps": 2770,
  "Ġinterr": 5671,
  "ĠSub": 3411,
  "Similarly": 3592,
  "ĠBUF": 5911,
  "Ġwalk": 5580,
  "Ġcombined": 3532,
  "ener": 766,
  "Ġfourth": 5108,
  "ometimes": 6210,
  "ĠPrecedence": 5255,
  "Ġfcn": 5549,
  "Ġlabeled": 3821,
  "Ġmet": 3365,
  "Ġdefin": 384,
  "enumerator": 3036,
  "otation": 5678,
  "Ġbeyond": 2145,
  "\\'": 5372,
  "Ġptinrect": 5072,
  "hen": 929,
  "Ġiop": 4652,
  "Ġgot": 5703,
  "ĠSelf": 6682,
  "Ġtemporary": 3504,
  "Ġcent": 4051,
  "imization": 4761,
  "Ġspecifying": 3503,
  "stfix": 1243,
  "Ġensure": 3258,
  "Ġthree": 1120,
  "Ġtwenty": 4213,
  "Ġcount": 892,
  "icky": 5087,
  "Ġperforms": 5020,
  "rent": 1357,
  "Ġdecimal": 1167,
  "ĠHeart": 6710,
  "Ġroot": 4909,
  "Ġearly": 4369,
  "[][": 5992,
  "ĠMoreover": 6436,
  "Ġpf": 4666,
  "Ġindeed": 5205,
  "cial": 5393,
  "LO": 4552,
  "ying": 5487,
  "Ġexponentiation": 6357,
  "low": 975,
  "Ġpossible": 1152,
  "Ġgeneration": 4936,
  "Ġblesses": 6575,
  "ror": 2692,
  "ĠNaturally": 6693,
  "verse": 1628,
  "bytes": 6342,
  "Ġpushback": 3814,
  "Ġ??": 2988,
  "Ġz": 1987,
  "Ġ*/": 270,
  "ates": 708,
  "ĠCaes": 5781,
  "ĠUnnamed": 6199,
  "Ġmodific": 4344,
  "Ġtie": 5493,
  "install": 6482,
  "Ġevery": 2057,
  "ns": 5440,
  "Ġthird": 2032,
  "Ġkeybo": 3169,
  "Ġcp": 3349,
  "Ġsurrounded": 5150,
  "ĠStatement": 4400,
  "Ġstdout": 1736,
  "Let": 2309,
  "Ġsm": 1158,
  "Ġrespectively": 4485,
  "Ġevaluates": 4941,
  "Ġour": 1756,
  "ield": 1333,
  "sing": 4610,
  "Ġser": 2052,
  "Ġencyc": 6267,
  "chive": 4154,
  "talloc": 5472,
  "Ġlinear": 4836,
  "ting": 1239,
  ">": 34,
  "tell": 4945,
  "Ġqu": 781,
  "ential": 2719,
  "ĠThis": 616,
  "Ġhashing": 5901,
  "year": 2047,
  "umps": 5724,
  "where": 1544,
  "Ġdistinct": 2297,
  "ĠJoh": 3901,
  "Ġtwo": 557,
  "Ġredu": 3680,
  "Relational": 5361,
  "Ġhar": 1798,
  "Ġimmediately": 2665,
  "There": 1297,
  "means": 5200,
  "Ġ*(": 3115,
  "Ġpower": 997,
  "ĠNew": 4835,
  "Ġprocedure": 6583,
  "clude": 542,
  "nem": 5445,
  "ĠLength": 4240,
  "ĠSummary": 5790,
  "ĠStatic": 6091,
  "Ġ[]);": 5117,
  "Ġfashion": 6654,
  "Ġrestore": 5081,
  "pp": 1190,
  "ĠIteration": 5751,
  "Ġ()": 4098,
  "Ġwater": 5581,
  "mode": 2116,
  "Ġpotentionally": 6582,
  "Ġstdin": 2096,
  "Ġadvances": 4365,
  "ped": 2044,
  "Ġconstraints": 6195,
  "istic": 5754,
  "routines": 5240,
  "leap": 3105,
  "Ġinterval": 6035,
  "ĠF": 325,
  "Ġprin": 6102,
  "ĠEquality": 5839,
  "ving": 1703,
  "olved": 4862,
  "Ġpieces": 2404,
  "Ġ300": 2488,
  "Ġas": 236,
  "aut": 3598,
  "aning": 1667,
  "Ġaccess": 859,
  "lan": 1171,
  "Ġlooked": 6182,
  "Ġbind": 3665,
  "ipsis": 4913,
  "ferror": 5850,
  "Ġpiec": 2102,
  "element": 6638,
  "Ġ,": 1661,
  "allow": 5562,
  "ĠFile": 2161,
  "before": 5389,
  "integer": 3891,
  "?": 35,
  "ength": 3649,
  "um": 235,
  "cmp": 2037,
  "Ġdocuments": 6463,
  "Ġgr": 1814,
  "ĠCall": 5775,
  "ences": 1426,
  "Ġkinds": 2644,
  "Ġentered": 3190,
  "Ġdetected": 4952,
  "itect": 4682,
  "ead": 826,
  "lle": 1189,
  "Ġsyscalls": 5893,
  "ources": 6253,
  "onger": 5845,
  "vi": 1515,
  "Ġ25": 4195,
  "Ġup": 803,
  "214": 5308,
  "Identifiers": 4550,
  "imilar": 2464,
  "og": 1794,
  "Ġtransl": 4340,
  "ĠLabeled": 5973,
  "Ġsorted": 2627,
  "Ġappended": 6413,
  "Ġabove": 1564,
  "ack": 603,
  "Ġimplementation": 836,
  "Ġintern": 1639,
  "ultaneous": 4818,
  "Ġcontinued": 5033,
  "Ġexisting": 2515,
  "Ġselection": 5798,
  "Ġexact": 2455,
  "(\"%": 1085,
  "Ġconcerned": 5120,
  "Ġcommonly": 6132,
  "Ġ\\,": 6125,
  "Ġmo": 490,
  "Tr": 5363,
  "Ġnumbers": 1559,
  "Ġdropped": 6576,
  "Ġtyp": 482,
  "Ġ&,": 4859,
  "Ġcur": 1359,
  "!": 6,
  "lim": 2041,
  "buffered": 3775,
  "ĠRules": 6015,
  "Ġbuffer": 1132,
  "posite": 5049,
  "tes": 1513,
  "ĠSy": 2158,
  "ĠSee": 2189,
  "ultaneously": 5286,
  "abel": 1229,
  "1000": 5116,
  "print": 545,
  "Ġnumerically": 6204,
  "Ġcertainly": 4375,
  "ĠDefinitions": 6542,
  "ĠDIRSIZ": 5162,
  "Ġset": 522,
  "matic": 2042,
  "Ġvariables": 494,
  "Ġescape": 1848,
  "ĠM": 579,
  "Ġcelsius": 2565,
  "W": 58,
  "Ġimplied": 4408,
  "ision": 924,
  "Ġelif": 2963,
  "ighan": 4816,
  "Ġmatter": 2177,
  "Ġimplement": 671,
  "Ġobtain": 2165,
  "Ġfreep": 3176,
  "erman": 4841,
  "Ġfollow": 672,
  "Ġ>>": 2258,
  "ination": 2870,
  "ĠUngetc": 6200,
  "Ġreturns": 473,
  "Ġaside": 2736,
  "sis": 4611,
  "ĠPERMS": 3570,
  "Ġscanf": 1613,
  "Ġwr": 3356,
  "UCHAR": 5366,
  "binsearch": 3600,
  "Ġfreed": 2813,
  "Suppose": 4559,
  ")(": 1692,
  "ĠSp": 5783,
  "fer": 376,
  "Ġworks": 2624,
  "Ġquantities": 3241,
  "ino": 3080,
  "Ġcombination": 4406,
  "Ġalthough": 1772,
  "Ġbrevity": 5569,
  "unication": 6361,
  "ha": 483,
  "Ġ#,": 3749,
  "ecause": 1621,
  "Ġbit": 1118,
  "Ġ==": 524,
  "ast": 554,
  "Ġconcatenates": 5040,
  "ual": 1031,
  "andom": 4134,
  "ible": 740,
  "Ġgetch": 1342,
  "Ġhorizontal": 4737,
  "Notice": 3056,
  "Ġincor": 4062,
  "Ġci": 5525,
  "fix": 917,
  "Ġrece": 3373,
  "Ġlink": 1485,
  "ĠExclusive": 6052,
  "dent": 414,
  "sl": 2216,
  "uct": 259,
  "Ġ*;": 2723,
  "IG": 3582,
  "lict": 3070,
  "Ġvari": 308,
  "nce": 5444,
  "Ġmessage": 2894,
  "Ġinstruction": 6574,
  "48": 4527,
  "Ġdecrement": 2658,
  "ayed": 4730,
  "Ġoriginal": 1845,
  "des": 3307,
  "Ġ198": 3521,
  "specifiers": 1840,
  "ome": 517,
  "Ġprogramm": 1769,
  "Ġhowever": 1184,
  "Ġextens": 2410,
  "edef": 938,
  "ilar": 1405,
  "logical": 2065,
  "Ġ|": 895,
  "Ġcollect": 2200,
  "Ġclar": 3490,
  "Ġill": 1267,
  "fil": 2213,
  "Ġruns": 5065,
  "Ġ203": 6173,
  "Ġdeveloped": 6585,
  "Ġtruncates": 6388,
  "ortun": 5864,
  "compound": 6144,
  "Ġnormalized": 3866,
  "+/": 3944,
  "icient": 2232,
  "Ġindic": 1027,
  "Ġbranch": 5250,
  "Ġcurrently": 3502,
  "Ġmin": 1244,
  "save": 4612,
  "Ġpreference": 6350,
  "screen": 4030,
  "Ġnotation": 1673,
  "ĠDIR": 3153,
  "Ġredefined": 5624,
  "nunits": 5447,
  "Ġpeace": 6378,
  "Ġprograms": 809,
  "Ġround": 4910,
  "itecture": 5270,
  "Ġo": 116,
  "Ġstill": 2336,
  "nd": 4593,
  "issible": 5050,
  "link": 3614,
  "dle": 2425,
  "...)": 3150,
  "Ġaltered": 3417,
  "ĠDiagnost": 5937,
  "Ġexamined": 5907,
  "Ġspecifications": 3204,
  "Ċ": 101,
  "ĠLseek": 5971,
  "Ġplaced": 2172,
  "fprintf": 2854,
  "Ġportable": 2652,
  "its": 500,
  "strncpy": 4798,
  "<unk>": 1,
  "Ġtentative": 3275,
  "kens": 5950,
  "atur": 1924,
  "inue": 3632,
  "Ġfam": 3650,
  "Ġargc": 1782,
  "ĠFate": 5806,
  "defn": 3750,
  "Ġoccurren": 1469,
  "Ġdivid": 3211,
  "ak": 715,
  "oneous": 4294,
  "imal": 767,
  "ble": 462,
  "Ġtak": 1517,
  "ĠV": 1191,
  "Ġfive": 4743,
  "ma": 2860,
  "lder": 4003,
  "ote": 2726,
  "arro": 5540,
  "%.": 4512,
  "Ġlib": 656,
  "Ġsy": 447,
  "Ġchildren": 5109,
  "It": 1608,
  "Ġmatching": 3508,
  "Ġcommands": 6150,
  "then": 2559,
  ",'',": 6159,
  "Ġ',": 5843,
  "Ġfd": 1928,
  "Ġgood": 2021,
  "angent": 5920,
  "Ġprovision": 6039,
  "Ġgap": 3121,
  "ĠHandling": 6028,
  "ĠBecause": 2167,
  "ĠArithmetic": 2799,
  "span": 4887,
  "Ġcomparatively": 6185,
  "po": 535,
  "Ġpadded": 4429,
  "ĠAccordingly": 3929,
  "ĠAsk": 5008,
  "Ġindicate": 2506,
  "raph": 3074,
  "Alan": 5326,
  "Ġ147": 6297,
  "Ġeffects": 1837,
  "Ġfewer": 2507,
  "Ġsuffice": 5030,
  "ĠCount": 3409,
  "iar": 4581,
  "Ġdefines": 2250,
  "ĠPreced": 4407,
  "agement": 3138,
  "ĠCo": 5774,
  "m": 80,
  "itu": 1994,
  "etween": 5658,
  "he": 110,
  "Ġ01": 4147,
  "Ġwarning": 3534,
  "Ġsimultaneously": 6067,
  "ures": 1179,
  "ĠFILE": 1371,
  "Ġlin": 3679,
  "ĠExperi": 4944,
  "53": 5312,
  "Ġinvocation": 4993,
  "Ġalone": 4802,
  "Ġgo": 1122,
  "sopt": 5934,
  "Many": 3965,
  "ĠState": 2095,
  "pped": 6128,
  "Ġsepar": 1038,
  "Ġoccup": 6573,
  "typedef": 1968,
  "oes": 4017,
  "Ġvector": 6668,
  "ass": 587,
  "ĠFren": 5808,
  "Ġr": 330,
  "Ġassociative": 4318,
  ")": 13,
  "backspace": 6290,
  "bers": 771,
  "Ġsight": 4648,
  "ued": 4033,
  "Ġlabel": 1430,
  "Ġenh": 4843,
  "oa": 2864,
  "Ġcpi": 6449,
  "())[])()": 6226,
  "Ġdom": 3672,
  "readdir": 6106,
  "Ġpr": 1051,
  "ĠSo": 2354,
  "Ġallocates": 4927,
  "Ġneeded": 1727,
  "checking": 6637,
  "Ġsupplies": 6473,
  "ĠPolish": 3931,
  "Ġenclosing": 4382,
  "edia": 3353,
  "ched": 2311,
  "Ġ29": 4196,
  "AT": 2418,
  "ner": 1983,
  "Ġtaking": 3826,
  "Ġcomplex": 5121,
  "Ġconver": 511,
  "Ġenviron": 1970,
  "ĠManual": 6543,
  "Ġsimilar": 1836,
  "Ġproviding": 4977,
  "Ġmark": 3262,
  "Ġmethod": 3906,
  "Ġdisagrees": 6604,
  "Ġaccount": 4257,
  "aggregate": 4149,
  "Ġpair": 1842,
  "ĠNote": 4193,
  "len": 861,
  "61": 5313,
  "Ġputc": 2279,
  "Ġlatter": 2821,
  "Ġsynthes": 6146,
  "Ġcompute": 3804,
  "Ġrevers": 3018,
  "digit": 1288,
  "prints": 4226,
  "Ġremoves": 4419,
  "ifi": 244,
  "while": 733,
  "ĠTypedef": 4482,
  "Ġ'+": 3724,
  "Ġminimal": 3809,
  "alnum": 3661,
  "Ġmemory": 2260,
  "Ġoptional": 1327,
  "Ġproced": 4740,
  "Ġrecovery": 6362,
  "Ġ%),": 5962,
  "ĠOper": 3732,
  "rp": 5455,
  "Ġoptions": 6107,
  "vio": 5482,
  "Ġpromot": 1369,
  "ulation": 4127,
  "Ġfetched": 6377,
  "),": 692,
  "Ġlargest": 2802,
  "ĠBesides": 4852,
  "Ġatexit": 5813,
  "Ġsqueez": 3923,
  "Ġnice": 3670,
  "5": 25,
  "Ġnormal": 2390,
  "Ġonly": 540,
  "llo": 4108,
  "utions": 5634,
  "Ġconf": 1880,
  "Ġenc": 1822,
  "Ġconfusion": 6616,
  "Ġbetween": 903,
  "ype": 560,
  "Ġ-": 380,
  "ĠTreeptr": 5821,
  "Ġproper": 876,
  "Ġrecognize": 6474,
  "rou": 1119,
  "Ġq": 1356,
  "767": 2842,
  "ep": 980,
  "dimensional": 1743,
  "ignals": 5750,
  "PATH": 6633,
  "Ġ200": 2945,
  "Ġ-=": 3435,
  "Ġreplacing": 6049,
  "ĠPERM": 3440,
  "not": 1222,
  "Ġindicator": 3194,
  "Ġillegal": 1989,
  "Ġwidth": 1579,
  "INE": 1286,
  "Ġfgetc": 5548,
  "isalnum": 4735,
  "q": 84,
  "ĠBUFSIZ": 3147,
  "roy": 5618,
  "num": 2431,
  "Ġrefer": 1082,
  "ĠIntegers": 6372,
  "Ġrev": 2230,
  "Ġowner": 3858,
  "Ġinterface": 3174,
  "Ġsingle": 871,
  "ails": 1377,
  "Ġbehavio": 6263,
  "WRONLY": 6395,
  "Ġessential": 5202,
  "Ġexplicitly": 1416,
  "Ġdigit": 1897,
  "elsius": 1720,
  "V": 57,
  "Ġstop": 2059,
  "Ġfill": 3391,
  "Ġrequire": 1260,
  "EXTERNAL": 6442,
  "ĠFields": 4805,
  "ĠSCHAR": 5787,
  "ambled": 6453,
  "Ġconstructed": 5180,
  "log": 4135,
  "elson": 5825,
  "ĠYES": 5078,
  "cont": 3464,
  "Ġ((": 834,
  "Ġsimplicity": 6068,
  "Ġagree": 2639,
  "000": 3763,
  "double": 1089,
  "question": 6676,
  "Ġproperties": 1850,
  "Ġalready": 1385,
  "est": 382,
  "++;": 1492,
  "Ġcharact": 232,
  "Ġequival": 883,
  "Ġungets": 6131,
  "Ġcl": 1225,
  "dp": 1978,
  "White": 6427,
  "stddef": 3167,
  "Ġnorm": 1397,
  "Ġattributes": 4492,
  "Ġ14": 2069,
  "Ġ(;;)": 5653,
  "Ġtypes": 642,
  "Ġissues": 3878,
  "ered": 2441,
  "Ġbackslash": 2982,
  "Ġ||.": 5002,
  "ddddddE": 6619,
  "ele": 5404,
  "ables": 467,
  "Ġsetjmp": 2774,
  "Ġsuppression": 4360,
  "Ġinitializations": 4858,
  "ĠDeclarators": 3152,
  "Ġmarch": 5604,
  "Ġtop": 1580,
  "Ġstraight": 5699,
  "Ġ^": 2699,
  "Ġcapable": 6383,
  "ĠMacro": 3755,
  "Ġimperial": 4204,
  "erived": 4043,
  "Ġhence": 5900,
  "Ġinterrupt": 6671,
  "Ġresulting": 2484,
  "Ġautomatic": 1153,
  "Ġjob": 3166,
  "port": 1610,
  "orizontal": 3926,
  "Ġsummarizes": 3557,
  "Ġplaces": 2785,
  "olatile": 2257,
  "Ġconvert": 879,
  "Ġarch": 4736,
  "ĠMulti": 4236,
  "Ġlonger": 2010,
  "vant": 3334,
  "Ġquicksort": 4509,
  "Ġinclusive": 3660,
  "Ġanything": 2762,
  "show": 6246,
  "Ġrarely": 6535,
  "ant": 282,
  "ft": 468,
  "Ġrecurs": 1535,
  "what": 3754,
  "Ġpattern": 1312,
  "Ġinform": 1032,
  "or": 128,
  "Ġ207": 5014,
  "()))": 3765,
  "Ġstatement": 506,
  "Ġidioms": 6421,
  "Pars": 3798,
  "ĠMake": 3756,
  "Ġappend": 2942,
  "Ġfo": 480,
  "ics": 1548,
  "itioning": 4782,
  "const": 978,
  "Ġbook": 1646,
  "big": 5384,
  "rol": 3111,
  "ĠHo": 4924,
  "unday": 4877,
  "ĠAny": 2186,
  "Ġseem": 3713,
  "antics": 4155,
  "Ġpresents": 6158,
  "Ġadjustment": 4421,
  "Ġconditional": 1903,
  "ĠAdjacent": 5748,
  "yond": 2122,
  "Ġprovid": 1044,
  "Ġpostfix": 1582,
  "ect": 300,
  "Ġexhaust": 3927,
  "mary": 3320,
  "pty": 1551,
  "Ġdefault": 1418,
  "spond": 1102,
  "Ġlarg": 1144,
  "ĠPar": 893,
  "())": 1597,
  "Ġbug": 5113,
  "va": 2433,
  "Ġoccurrences": 2290,
  "Ġnews": 4857,
  "Ġfash": 5546,
  "alp": 2332,
  "Ġformul": 4842,
  "ism": 2587,
  "Ġvalid": 2285,
  "Ġsmallest": 2807,
  "Ġunit": 1524,
  "Ġcontrast": 3429,
  "ĠYou": 2827,
  "Ġwrit": 393,
  "ĠAugustus": 4765,
  "Ġstraightforward": 6673,
  "Ġparenthesized": 2804,
  "Ġguarant": 1690,
  "adians": 4141,
  "Ġthings": 2649,
  "cks": 3988,
  "cr": 578,
  "Ġloss": 5860,
  "ver": 264,
  "idually": 4764,
  "Ġconc": 2583,
  "ĠEm": 5831,
  "unit": 4079,
  "hell": 1241,
  "...]": 4864,
  "Because": 3048,
  "Ġinvolving": 3228,
  "structure": 5983,
  "Ġobservation": 4490,
  "Ġmake": 901,
  "Ġqualifiers": 2103,
  "vel": 1766,
  "Ġed": 1063,
  "Ġadding": 3155,
  "Syntactically": 6563,
  "Ġcour": 3413,
  "Ġadvisable": 5042,
  "Ġhash": 1821,
  "Ġabort": 4243,
  "Ġpadd": 2567,
  "Ġfloat": 598,
  "Ġhis": 2728,
  "Ġvalue": 310,
  "piled": 5454,
  "BUF": 3578,
  "Ġest": 3629,
  "Ġsigned": 1077,
  "Ġi": 117,
  "Ġell": 3109,
  "Ġtree": 1516,
  "Ġprot": 1671,
  "keytab": 5137,
  "roduction": 3822,
  "Ġdefine": 2019,
  "Ġranges": 4176,
  "ĠO": 412,
  "/%": 3574,
  "declares": 2522,
  "Ġunambiguous": 5277,
  "ĠPross": 5873,
  "ience": 4584,
  "sen": 3330,
  "Ġfinding": 6115,
  "abilities": 5692,
  "Ġ++,": 4991,
  "Ġunf": 5708,
  "do": 2852,
  "Ġassert": 3738,
  "Ġsmall": 1237,
  "ĠC": 279,
  "Ġ212": 4197,
  "origin": 4680,
  "Ġpoint": 212,
  "Ġstrictly": 6527,
  "Ġsequences": 1891,
  "Ġtrailing": 2085,
  "Us": 3978,
  "ES": 3285,
  "ĠSyntactically": 6311,
  "Ġal": 318,
  "Ġgu": 1625,
  "Ġsupports": 4434,
  "Ġindirection": 4287,
  "Ġcommas": 3762,
  "Ġhelped": 6256,
  "Ġpreferred": 6351,
  "Ġdetermine": 2518,
  "Ġinterle": 4931,
  "Ġlen": 971,
  "Ġsuccessful": 5090,
  "Ġadditional": 4225,
  "Ġelaborate": 6546,
  "return": 688,
  "Ġmatched": 4953,
  "Ġsyntactic": 3872,
  "ĠCOM": 5780,
  "ĠDeclarations": 2011,
  "ĠIncrementation": 6540,
  "Ġbits": 1079,
  "DEF": 6513,
  "Ġdeclarations": 690,
  "malloc": 3321,
  "stderr": 2781,
  "Ġnesting": 5585,
  "ium": 5422,
  "Ġpract": 1602,
  "ĠExt": 4943,
  "toupper": 6565,
  "ning": 1004,
  "Ġsubsets": 5951,
  "Ġsatisfy": 4391,
  "ĠDoug": 4869,
  "calls": 2546,
  "inate": 5499,
  "style": 1578,
  "Ġadvantage": 3034,
  "Ġwrites": 2757,
  "Ġready": 5904,
  "ci": 3601,
  "Ġquest": 2089,
  "Ġparameter": 795,
  "ĠLoops": 4410,
  "Ġbsearch": 5566,
  "[]": 628,
  "ĠUtil": 6002,
  "renheit": 3198,
  "Ġintended": 3118,
  "Ġstack": 1314,
  "ĠANSI": 1307,
  "ĠOur": 2761,
  "ation": 170,
  "enumer": 2881,
  "Ġargs": 4275,
  "ers": 167,
  "Ġnumer": 1491,
  "en": 120,
  "uf": 486,
  "Ġweek": 4183,
  "Ġassum": 1886,
  "Ġnote": 2735,
  "Ġshows": 2280,
  "Ġ151": 6365,
  "MAXWORD": 4960,
  "ĠLo": 2262,
  "ĠMAXLEN": 6168,
  "100": 2539,
  "Ġfield": 877,
  "sqrt": 4031,
  "vers": 5481,
  "Finally": 3050,
  "ĠRo": 6011,
  "Ġbitwise": 2800,
  "Ġsubtract": 2536,
  "args": 5953,
  "Ġmagic": 5605,
  "Ġundcl": 4131,
  "ough": 684,
  "Ġrecorded": 6316,
  "lineptr": 1723,
  "Chapters": 5331,
  "Ġ5": 796,
  "Ġexplains": 6580,
  "ris": 5460,
  "Ġsummary": 4355,
  "tain": 1611,
  "ĠOpen": 4188,
  "Ġeverything": 3854,
  "Ġstyle": 1879,
  "Ġe": 144,
  "ĠE": 353,
  "Ġ35": 4242,
  "Ġcomment": 3695,
  "Ġcomplicated": 1674,
  "Ġ...).": 4940,
  "referential": 4475,
  "rror": 3329,
  "ĠWikipedia": 3912,
  "kentype": 3319,
  "Ġexhausted": 5222,
  "Ġisalpha": 4684,
  "freep": 5055,
  "can": 884,
  "ĠPointer": 2992,
  "Ġlength": 1104,
  "Ġsurround": 3014,
  "ĠElse": 5837,
  "bor": 4568,
  "mong": 4590,
  "ĠPARENS": 3932,
  "Pointers": 5169,
  "Ġpurpose": 2887,
  "Ġinterested": 6036,
  "ency": 3234,
  "Ġk": 968,
  "ĠDate": 5936,
  "(*++": 5075,
  "Ġargu": 327,
  "Ġcorre": 936,
  "eturn": 5656,
  "Ġoften": 1337,
  "ring": 4028,
  "xy": 5486,
  ",%": 4520,
  "wh": 571,
  "Ġexample": 528,
  "ĠHere": 2965,
  "ĠLow": 5967,
  "4": 24,
  "ĠTesting": 5820,
  "feed": 2830,
  "Ġable": 2872,
  "Parentheses": 5357,
  "EC": 5335,
  "ĠIt": 721,
  "Ġmonastery": 5607,
  "ĠUL": 6001,
  "Ġhenceforth": 6696,
  "Par": 1073,
  "Ġ4": 862,
  "Ġsque": 3641,
  "Ġsubsequent": 1911,
  "assert": 3757,
  "atis": 1925,
  "ĠLet": 3458,
  "ĠStderr": 6092,
  "Ġcauses": 1679,
  "Ġdivision": 3213,
  "Ġpe": 2710,
  "Ġexists": 3495,
  "dex": 1298,
  "ĠDirectories": 6541,
  "Ġexecut": 845,
  "ĠRevise": 5218,
  "Ġcopying": 3187,
  "the": 1172,
  "ck": 1510,
  "ibility": 3425,
  "imitive": 5730,
  "K": 46,
  "inally": 2324,
  "Ġwhite": 1231,
  "Ġnew": 493,
  "ĠIts": 4259,
  "asion": 5755,
  "Ġapart": 3739,
  "Ġturned": 6271,
  "atives": 5523,
  "Ġ83": 6154,
  "Ġlog": 3140,
  "[": 62,
  "eclaration": 288,
  "romotion": 5842,
  "gical": 1352,
  "ars": 4657,
  "Ġequally": 6058,
  "ĠBlanks": 5288,
  "ersion": 402,
  "Ġs": 115,
  "Ġare": 193,
  "Ġinde": 3659,
  "Ġblanks": 1961,
  "ither": 853,
  "Ġmodest": 5018,
  "Ġpredefined": 5827,
  "pragma": 6045,
  "ptember": 5707,
  "Ġparticulary": 6081,
  "Ġfamiliarity": 6723,
  "Ġregist": 3193,
  "Ġ18": 1627,
  "right": 1512,
  "Ġbot": 4065,
  "Ġhad": 2911,
  "Ġpopp": 3385,
  "Ġ44": 6062,
  "()": 639,
  "opy": 2083,
  "Ġparts": 1824,
  "Ġindependent": 2223,
  "ction": 178,
  "Ġhomogeneous": 6672,
  "Ġindent": 2712,
  "tp": 2046,
  "inber": 5500,
  "ocation": 4872,
  "entially": 5600,
  "Ġappear": 848,
  "Ġopen": 949,
  "Ġfgetpos": 4664,
  "cope": 1018,
  "nother": 4595,
  "Ġconcept": 3683,
  "hed": 1192,
  "np": 2554,
  "ĠBut": 1592,
  "first": 5412,
  "Ġmean": 4948,
  "Ġenv": 1724,
  "SH": 3296,
  "ou": 293,
  "MAN": 4554,
  "ĠPl": 5871,
  "ween": 882,
  "Nom": 5350,
  "aiss": 5380,
  "Ġungetch": 1350,
  "irm": 5866,
  "ific": 1549,
  "translation": 4508,
  "putchar": 3127,
  "Ġbigger": 3499,
  "Ġserves": 6294,
  "bit": 1424,
  "Ġfreopen": 6170,
  "In": 724,
  "Ġdisc": 760,
  "Ġrole": 3768,
  "Ġsuffices": 5031,
  "Ġequivalents": 4290,
  "Ġthat": 188,
  "ard": 381,
  "Ġbeginning": 1283,
  "token": 2505,
  "Ġincluding": 1568,
  "Preface": 4471,
  "ial": 323,
  "Ġtrue": 1376,
  "TAB": 3977,
  "Ġdecremented": 4431,
  "argv": 1321,
  "ases": 1714,
  "Ġexperienced": 6403,
  "pper": 4023,
  "idden": 3125,
  "ĠCl": 2743,
  "ĠKern": 5058,
  "ĠPoint": 1277,
  "Ġillustr": 1289,
  "Function": 3288,
  "Ġexerc": 3380,
  "units": 2895,
  "Ġvoid": 652,
  "athematical": 4050,
  "Ġrelative": 4964,
  "ĠCelsius": 3408,
  "external": 3124,
  "Ġsyntactically": 3542,
  "Ġchapter": 1871,
  "Ġcategories": 5233,
  "Table": 3058,
  "icks": 4090,
  "Ġdealing": 6300,
  "ERR": 3818,
  "pf": 3071,
  "Ġtypewrit": 5740,
  "Ġshifts": 6249,
  "Ġcomputation": 2508,
  "Ġns": 5583,
  "Ġconvenience": 5027,
  "mend": 5434,
  "ont": 2702,
  "Ġoperating": 1676,
  "ugust": 3277,
  "Ġeffectively": 6071,
  "Ġrequ": 891,
  "Ġ'": 357,
  "utorial": 4089,
  "Ġeliminates": 5259,
  "ĠI": 250,
  "ĠAutomatic": 3700,
  "aints": 5382,
  "write": 2121,
  "iles": 4791,
  "ĠUnary": 4347,
  "Ġwithdrawn": 5278,
  "Ġg": 218,
  "word": 709,
  "ĠCopying": 6586,
  "Ġincrease": 4946,
  "ĠOf": 5867,
  "ascal": 2351,
  "cp": 3304,
  "buf": 761,
  "Ġcome": 2917,
  "Ġprogram": 275,
  "OS": 3291,
  "Ġwherever": 4918,
  "Ġoperator": 429,
  "lap": 4005,
  "mally": 5435,
  "occurs": 6518,
  "unary": 2058,
  "agma": 3703,
  "Ġ8": 1310,
  "Ġmixed": 5177,
  "Throughout": 6446,
  "Ġ10": 1097,
  "Ġlo": 401,
  "Ġemperor": 6219,
  "ations": 653,
  "Ġsplit": 2836,
  "Ġtruth": 4229,
  "127": 6074,
  "version": 1543,
  "Ġcopied": 2398,
  "ĠThese": 1934,
  "Ġthereafter": 5948,
  "Ġconsisting": 2805,
  "Ġsubtracted": 3873,
  "oked": 3466,
  ")/": 3044,
  "Ġdistinguish": 3547,
  "Ġincre": 839,
  "Ġdecisions": 6370,
  "Ġseparated": 2381,
  "But": 5329,
  "Ġim": 471,
  "Ġsuccessfully": 6314,
  "UNBUF": 5198,
  "Ġexcept": 959,
  "trans": 4250,
  "(),": 5995,
  "Ġrepresentation": 1470,
  "Ġlarge": 1786,
  "Ġcourse": 3908,
  "Ġsomewhere": 2956,
  "Ġaccurate": 6569,
  "Ġartificial": 6404,
  "Ġpreceding": 4301,
  "Ġpipe": 4376,
  "Ġcomplete": 1584,
  "cept": 739,
  "nf": 4594,
  "Ġembedding": 6626,
  "plicity": 5944,
  "IF": 2308,
  "Ġfclose": 2709,
  "one": 918,
  "Ġown": 3015,
  "entional": 4697,
  "lation": 1657,
  "Ġrecommend": 6548,
  "ĠUtility": 6705,
  "Ġskip": 1868,
  "Ġrepresents": 3177,
  "abeled": 3492,
  "Ġunknow": 3395,
  "Ġpage": 3657,
  "Ġsubstitution": 5163,
  "Ġom": 1705,
  "ĠOrdinary": 5214,
  "Ġenvironment": 2104,
  "Ġ((*": 3782,
  "ypes": 2020,
  "Ġelimin": 4486,
  "Ġsuch": 900,
  "optional": 6033,
  "turn": 230,
  "ugh": 5477,
  "Ġrequired": 1959,
  "BS": 3954,
  "Ġseconds": 6090,
  "Ġ!": 606,
  "Ġreplaced": 1497,
  "ier": 1353,
  "argument": 3350,
  "Ġand": 148,
  "Ġalph": 3418,
  "Ġeasy": 1844,
  "non": 1982,
  "Ġcopy": 925,
  "ĠNUL": 5887,
  "ĠWhen": 1532,
  "Ġenumer": 1129,
  "switch": 3844,
  "Ġcanon": 4172,
  "list": 559,
  "swer": 3075,
  "Ġconstr": 1464,
  "str": 301,
  "istics": 4145,
  "Ġ+": 640,
  "Ġbest": 3097,
  "Ġdval": 5591,
  "Ġanswers": 3564,
  "Ġothers": 1531,
  "Ġlegal": 1941,
  "Ġ75": 6112,
  "Ġflags": 1966,
  "Ġearlier": 2031,
  "Ġadvance": 4364,
  "ĠInclusion": 3451,
  "ĠCh": 4151,
  "ĠLangu": 4896,
  "Ġcir": 5529,
  "line": 439,
  "BUFSIZE": 6480,
  "mtime": 4014,
  "Ġderefer": 5238,
  "plicative": 1945,
  "horizontal": 5419,
  "ĠPointers": 1505,
  "ĠSh": 3410,
  "ĠEth": 5833,
  "3647": 6391,
  "\";": 3042,
  "Ġuntil": 1525,
  "ordingly": 3836,
  "(*": 1975,
  "ĠP": 421,
  "Ġregisters": 3900,
  "ĠOn": 1591,
  "Ġsval": 5518,
  "Ġnwhite": 4072,
  "plain": 3714,
  "Ġmax": 962,
  "Ġpot": 4731,
  "order": 2752,
  "Ġstrcpy": 1685,
  "orta": 5863,
  "Ġmulti": 1338,
  "Ġcalendar": 2998,
  "Ġcasts": 2796,
  "AI": 5322,
  "Ġactual": 2823,
  "Ġ&=": 3748,
  "Ġstruct": 339,
  "Ġnam": 574,
  "ĠSIG": 4788,
  "multiplicative": 3323,
  "open": 1253,
  "Ġignoring": 6231,
  "iq": 5420,
  "Ġtype": 247,
  "Ġsee": 1165,
  "Ġrepe": 2338,
  "Ġad": 432,
  "77": 3577,
  "isor": 4733,
  "Ġsuitable": 3024,
  "week": 4942,
  "cape": 1787,
  "Ġconnected": 2655,
  "maximum": 2199,
  "Ġpi": 1758,
  "Ġfollowed": 1322,
  ")-": 3043,
  "Ġgoes": 2986,
  "only": 5508,
  "ĠPorta": 5879,
  "Ġleap": 2469,
  "ually": 1391,
  "wise": 730,
  "graph": 2739,
  "refers": 3345,
  "Ġforbidden": 4732,
  "ĠHence": 4925,
  "ELL": 4547,
  "Ġ188": 6237,
  "arentheses": 4488,
  "ĠRight": 6013,
  "Ġcentury": 5232,
  "Ġdi": 5588,
  "gettoken": 4870,
  "localtime": 5123,
  "ĠWh": 2938,
  "Ġdes": 607,
  "Ġadequate": 5264,
  "ĠLikewise": 5975,
  "Ġb": 129,
  "ĠEnumerations": 3722,
  "Ġdeclare": 539,
  "Ġlocated": 3791,
  "Once": 6425,
  "cap": 4570,
  "ĠApp": 5743,
  "Ġordinary": 2344,
  "'',": 2481,
  "earday": 4497,
  "ĠASCII": 2411,
  "Ġmaking": 3493,
  "Ġevent": 4882,
  "Ġmas": 4076,
  "Ġassigns": 5054,
  "ighting": 5880,
  "ccess": 1775,
  "Ġcareful": 6285,
  "ĠSuppose": 4159,
  "attle": 4653,
  "Ġmeets": 6055,
  "mer": 4010,
  "Ġ22": 2366,
  "Ġfields": 2180,
  "Ġnumber": 428,
  "Ġmeant": 3179,
  "Ġ12": 2006,
  "Ġfacility": 4392,
  "Ġsame": 450,
  "asing": 2068,
  "Ġrelevant": 5626,
  "Ġaccepts": 6337,
  "Il": 5341,
  "Ġunderscore": 3032,
  "Ġrecompiled": 6549,
  "ern": 3342,
  "dentifiers": 2763,
  "Ġsorts": 6075,
  "Ġoverflow": 2388,
  "Ġetc": 1760,
  "60": 3949,
  "(": 12,
  "Ġtake": 1731,
  "Ġdomain": 4477,
  "ĠLexical": 4241,
  "aneous": 3364,
  "Ġcounts": 2791,
  "rout": 4085,
  "Ġincorporates": 6622,
  "TEM": 4405,
  "Ġ++": 1156,
  "Ġautomatically": 2636,
  "Ġanywhere": 4822,
  "Ġsatisfied": 2526,
  "allocp": 4928,
  "Ġdeclarators": 2188,
  "Ġsafe": 5060,
  "ĠPAR": 3736,
  "entrate": 3879,
  "ktime": 4585,
  "Paro": 6109,
  "Point": 3292,
  "decre": 4576,
  "ULL": 686,
  "independent": 4040,
  "enty": 3674,
  "Ġreferring": 4309,
  "ĠKey": 5057,
  "Ġtempfile": 6189,
  "Ġct": 1870,
  "Ġcommand": 1304,
  "Ġmacros": 1833,
  "Ġsur": 2221,
  "Ġphysical": 6721,
  "ms": 4587,
  "breviated": 4493,
  "ike": 492,
  "Ġshown": 1956,
  "ocator": 5943,
  "outfile": 5906,
  "ply": 1921,
  "bj": 3062,
  "Ġrespons": 5247,
  "Ġsqu": 4045,
  "kipedia": 3827,
  "Ġpipes": 5269,
  "Ġmode": 1593,
  "Ġsmax": 4992,
  "ĠJ": 1458,
  "Ġtested": 3186,
  "ASH": 4536,
  "sequenceopt": 4428,
  "Ġuseful": 1594,
  "Ġreal": 2577,
  "Ġnumerical": 6203,
  "Ġmonthname": 4322,
  "ĠScanf": 4156,
  "decimal": 3991,
  "une": 3367,
  "ared": 2245,
  "ĠInter": 4211,
  "Ġtimeline": 6646,
  "Ġquicks": 4268,
  "Ġ211": 5896,
  "Ġcause": 2940,
  "ose": 1047,
  "Ġrequirement": 6142,
  "empty": 4780,
  "Ġindex": 1804,
  "second": 4615,
  "Ġpictured": 6451,
  "akes": 4258,
  "[])": 1467,
  "Ġconventional": 4871,
  "min": 2114,
  "Ġtnode": 1545,
  "ĠEBCDIC": 6687,
  "ĠOne": 1632,
  "alle": 4678,
  "Ġomitting": 5254,
  "Ġstore": 940,
  "Ġ/*": 356,
  "55": 3576,
  "Ġf": 123,
  "Ġapplications": 6594,
  "Ġprotot": 1852,
  "env": 4655,
  "Ġbinsearch": 2225,
  "Ġtmp": 4039,
  "Ġversus": 6347,
  "Ġreads": 1778,
  "ia": 1861,
  "MON": 5348,
  "pa": 2320,
  "Ġquote": 3813,
  "Ġman": 829,
  "ize": 348,
  "Ġjust": 914,
  "Ġ'(')": 6591,
  "Ġtemper": 2097,
  "Ġrescan": 5916,
  "Ġcalculator": 2204,
  "heless": 3633,
  "ration": 5459,
  "ĠReturn": 6020,
  "Ġnotations": 4139,
  "ĠMAX": 1345,
  "Ġgetchar": 1056,
  "077": 4523,
  "Ġunad": 5709,
  "Ġstrong": 3389,
  "ions": 1211,
  "Ġtry": 2616,
  "pear": 798,
  "gg": 2549,
  "Ġquoted": 2513,
  "Ġreturn": 257,
  "lookup": 4755,
  "ĠPost": 4189,
  "Ġcompares": 2634,
  "Ġoverhead": 5004,
  "numer": 2318,
  "Variables": 5225,
  "Ġstrt": 2731,
  "Ġinsertion": 6476,
  "ile": 405,
  "Ġclosedir": 3551,
  "Ġperman": 4298,
  "Ġmeaningfully": 6278,
  "Ġcal": 1518,
  "Ġuni": 2462,
  "Ġintegers": 1026,
  "`": 67,
  "[++": 5369,
  "aes": 5375,
  "Ġescapes": 6177,
  "readable": 6105,
  "ling": 2314,
  "il": 296,
  "Ġfits": 4058,
  "Ġcommunicating": 6415,
  "Ġnotational": 5721,
  "IOF": 5343,
  "ca": 1425,
  "pound": 4224,
  "Ġmerely": 2304,
  "ĠDesire": 6464,
  "seek": 1707,
  "unsigned": 1484,
  "Ġthing": 1809,
  "ONG": 2025,
  "will": 3336,
  "Ġdocumentation": 6558,
  "ĠJo": 3214,
  "tou": 4618,
  "Ġprov": 793,
  "Ġ199": 5064,
  "ĠBELL": 4853,
  "Ġinstruct": 5556,
  "Ġdocu": 3442,
  "Ġlegitim": 4801,
  "Ġservices": 5080,
  "Ġthought": 4394,
  "Ġsuf": 4804,
  "Ġmanipulating": 6268,
  "often": 6640,
  "Ġwe": 375,
  "Ġwhat": 1251,
  "ightly": 3141,
  "Ġmissing": 3030,
  "Ġstreams": 3474,
  "pe": 187,
  "Ġsuggestions": 6556,
  "Ġtrigraph": 4875,
  "Ġd": 141,
  "ange": 1320,
  "Ġdescriptors": 4373,
  "Ġ400": 6065,
  "];": 696,
  "ior": 5421,
  "ĠFloating": 3420,
  "Ġhexadecimal": 1636,
  "ĠHowever": 2401,
  "encing": 6273,
  "ama": 5630,
  "ach": 334,
  "]))": 3981,
  "ĠBreak": 5910,
  "ff": 605,
  "eclarations": 1817,
  "ons": 2439,
  "his": 478,
  "Ġthemsel": 2962,
  "have": 3998,
  "Ġnotice": 4758,
  "imens": 1626,
  "ĠExpressions": 1640,
  "Ġfact": 2053,
  "ĠScope": 2745,
  "ENS": 3851,
  "asctime": 5758,
  "Static": 6444,
  "ator": 254,
  "ĠAgain": 4766,
  "utype": 3113,
  "creen": 1684,
  "Nominate": 6632,
  "processor": 3796,
  "Ġouter": 2765,
  "Ġidentifiers": 1438,
  "mid": 2691,
  "Ġline": 452,
  "Ġinstance": 1728,
  "Ġsequ": 722,
  "mbolic": 5021,
  "Ġthus": 1433,
  "n": 81,
  "umn": 2591,
  "uck": 5479,
  "ically": 1145,
  "ĠWould": 5857,
  "ssion": 209,
  "Ġassumed": 3847,
  "arily": 2922,
  "anced": 4695,
  "ĠSunday": 5789,
  "748": 5315,
  "Ġexpand": 2190,
  "hello": 1504,
  "small": 5470,
  "b": 69,
  "Ġcorrect": 2275,
  "Ġbased": 3217,
  "Ġquotes": 2287,
  "Ġdefer": 5769,
  "ĠLanguage": 5289,
  "Ġchun": 4901,
  "treeprint": 5045,
  "ĠStatements": 2528,
  "Ex": 630,
  "...);": 5928,
  "ĠExpansion": 6547,
  "quote": 5734,
  "Ġtemperature": 2529,
  "ifdef": 5661,
  "ĠControl": 3556,
  "Ġfamiliar": 6484,
  "Ġused": 436,
  "28": 3946,
  "oid": 377,
  "Ġobserve": 6408,
  "Ġsurprising": 5219,
  "Ġ\");": 4895,
  "rary": 622,
  "Ġsetbuf": 5931,
  "Ġgoing": 3489,
  "Ġstat": 1364,
  "Ġkeyword": 1414,
  "Ġunderflow": 5012,
  "Ġcond": 1024,
  "ĠMost": 3162,
  "Ġ*));": 6209,
  "Ġreverse": 1762,
  "Ġcoercions": 6531,
  "ĠTable": 3426,
  "Ġspecial": 1372,
  "Ġroutine": 1348,
  "great": 5417,
  "Ġper": 864,
  "ĠBlock": 2772,
  "Ġtreatment": 5111,
  "Ġ...,": 3467,
  "since": 4613,
  "Ġdiagnostic": 5207,
  "intain": 2337,
  "H": 43,
  "arant": 1663,
  "Ġsubstatement": 3456,
  "Ġtaken": 1285,
  "Ġdefinitions": 1303,
  "vior": 1965,
  "ĠNumber": 5890,
  "Ġupper": 1258,
  "mall": 5433,
  "ĠMiscellaneous": 6700,
  "Ġbrace": 2182,
  "Ġaccessing": 2625,
  "ays": 912,
  "Ġquotient": 5009,
  "R": 53,
  "ĠRecursion": 5215,
  "que": 2066,
  "Ġforce": 2725,
  "Ġinteger": 512,
  "Ġexplain": 4720,
  "Ġcompatibility": 6499,
  "ĠCup": 5776,
  "Ġcan": 316,
  "Ġvariable": 580,
  "Ġact": 1922,
  "ĠMcIlroy": 6725,
  "ray": 283,
  "Ġrepet": 5628,
  "actions": 5378,
  "ĠUnless": 6198,
  "incre": 4634,
  "Ġsent": 5516,
  "Ġpromotions": 5013,
  "atic": 516,
  "Ġsens": 4650,
  "ĠRec": 3774,
  "light": 4586,
  "By": 2845,
  "ifting": 3686,
  "Ġnother": 3399,
  "Ġoffset": 2393,
  "Ġdiscu": 902,
  "Ġliteral": 1399,
  "Ġinstructive": 6658,
  "left": 1212,
  "Ġ*))": 4722,
  "E": 40,
  "Ġreturned": 1068,
  "Ġ19": 1816,
  "ĠConvent": 6108,
  "Ġwar": 2333,
  "Ġconflict": 3235,
  "Ġm": 145,
  "Ġtend": 4630,
  "Ġdevice": 3888,
  "ĠAccess": 3699,
  "Ġunwanted": 6675,
  "ĠPos": 5876,
  "Ġduplicate": 5271,
  "Ġ``": 503,
  "Ġprocessed": 3488,
  "ĠFunction": 1125,
  ";": 31,
  "ly": 192,
  "Ġtim": 5492,
  "fsize": 5409,
  "mould": 5436,
  "Ġdistin": 1846,
  "Ġbelong": 5639,
  "ĠAfter": 3698,
  "With": 3061,
  "ennis": 4055,
  "Ġbee": 4714,
  "Ġmatches": 2790,
  "Ġexchange": 3378,
  "Ġliterals": 2028,
  "ĠNo": 3443,
  "Ġlogically": 5161,
  "+/-": 4495,
  "Ġfundamental": 5268,
  "Ġdenotes": 5256,
  "ious": 1000,
  "nwhite": 3616,
  "Ġambiguity": 3915,
  "Any": 3203,
  "Ġ=\");": 5691,
  "limits": 3243,
  "Ġbu": 2449,
  "definition": 3773,
  "umer": 866,
  "strlen": 2929,
  "Ġaccur": 4638,
  "Ġbetter": 2173,
  "Ġcomputations": 4990,
  "Ġfp": 2132,
  "Ġsuit": 2600,
  "Ġbuilt": 5114,
  "Ġstrtok": 5134,
  "Ġn": 139,
  "``": 465,
  "IFMT": 4416,
  "pow": 4606,
  "Ġpointer": 295,
  "ah": 916,
  "ĠComma": 6212,
  "essage": 1937,
  "IC": 3052,
  "ility": 1587,
  "cc": 387,
  "Ġabsent": 4244,
  "Ġowners": 6420,
  "Thereafter": 6149,
  "Ġarg": 846,
  "value": 1538,
  "Ġsign": 736,
  "Ġunsigned": 648,
  "O": 50,
  "Ġneither": 4807,
  "[],": 1281,
  "ammar": 2142,
  "ĠTreenode": 5823,
  "Ġinitialized": 998,
  "jor": 3612,
  "Ġparsing": 5804,
  "ĠEX": 3430,
  "Ġ(++": 4727,
  "Ġascending": 5727,
  "ater": 3645,
  "Ġfrees": 3816,
  "forward": 5870,
  "ĠBudd": 5914,
  "We": 1790,
  "f": 73,
  "shifted": 5046,
  "acted": 5694,
  "Ġaddition": 1827,
  "start": 2890,
  "Ġnlist": 2716,
  "says": 3332,
  "Ġbehavior": 1971,
  "6": 26,
  "erned": 4643,
  "Ġ/": 1335,
  "extern": 1935,
  "partsopt": 6354,
  "--)": 5034,
  "Ġ||": 1203,
  "im": 238,
  "Ġvisible": 2340,
  "Ġahead": 5504,
  "ames": 2231,
  "Ġstates": 3368,
  "Exercise": 674,
  "Ġbel": 4092,
  "ax": 1003,
  ",''": 1329,
  "ĠRelational": 4261,
  "Ġpack": 4669,
  "Ġdeclared": 643,
  "ĠBUFSIZE": 6697,
  "Ġcity": 5530,
  "Ġcom": 242,
  "writ": 2560,
  "ĠMark": 6601,
  "Ġcontain": 553,
  "xhh": 4035,
  "vp": 5480,
  "Ġstd": 1052,
  "ories": 3663,
  "class": 3419,
  "Augustus": 4537,
  "ĠDennis": 4220,
  "ws": 2217,
  "Ġcaten": 6281,
  "Ġrare": 4175,
  "ntax": 4201,
  "Ġconfuse": 6274,
  "ference": 4184,
  "ted": 456,
  "ef": 850,
  "ĠHol": 6024,
  "Ġsubtr": 2259,
  "gration": 5752,
  "Ġ'(": 4811,
  "copy": 2312,
  "Ġinitial": 451,
  "Ġtransfer": 4341,
  "Ġnotably": 5722,
  "On": 3057,
  "Ġphases": 5144,
  "Ġunions": 1780,
  "ider": 1341,
  "Ġforces": 4105,
  "ken": 558,
  "Ġpresent": 1317,
  "elines": 2750,
  "Ġidentifier": 577,
  "Ġmoment": 3448,
  "w": 90,
  "Ġreser": 2256,
  "Ġcharacteristics": 4164,
  "February": 6515,
  "Ġ*.": 2146,
  "iom": 2856,
  "PPER": 4557,
  "canf": 1028,
  "Ġexercises": 3566,
  "At": 3952,
  "oring": 3095,
  "Ġpropert": 1600,
  "Ġhist": 3387,
  "Ġprintd": 2756,
  "y": 92,
  "ven": 2695,
  "ĠLogical": 3252,
  "ON": 1330,
  "Ġsemicolons": 5126,
  "jump": 5426,
  "los": 1230,
  "Ġcomes": 2918,
  "Ġunamb": 4750,
  "sent": 612,
  "Ġfraction": 2105,
  "Ġactually": 4388,
  "Ġwchar": 3357,
  "ĠR": 743,
  "arg": 573,
  "ĠMcIl": 6600,
  "as": 256,
  "Ġerroneous": 4423,
  "ename": 2331,
  "Ġchance": 5985,
  "Ġinst": 746,
  "itialization": 2476,
  "Ġintroduced": 2819,
  "Ġregular": 4973,
  "WR": 2850,
  "Ġdividing": 5166,
  "err": 441,
  "fered": 3434,
  "Ġpractical": 3221,
  "draw": 4575,
  "Ġcollected": 5094,
  "Ġexceptions": 3189,
  "syscalls": 3008,
  "();": 1856,
  "Ġtest": 909,
  "Ġnever": 2470,
  "ĠMAXLINES": 3842,
  "Ġyet": 2764,
  "jmp": 1656,
  "nect": 1984,
  "Ġsuppress": 3220,
  "checks": 6516,
  "ift": 1400,
  "ĠMAXWORD": 3498,
  "hod": 3610,
  "WRITE": 3890,
  "ĠGreen": 5011,
  "Ġpl": 756,
  "Ġ*=": 3383,
  "ĠComp": 3510,
  "Storage": 6445,
  "Ġdidn": 5086,
  "Ġforms": 2166,
  "Ġdisallow": 6000,
  "Ġuninitialized": 5276,
  "ru": 5456,
  "Ġaddress": 1084,
  "Ġifndef": 5736,
  "ake": 2682,
  "strchr": 5794,
  "Ġtoget": 1581,
  "Ġdatatype": 4693,
  "Ġignored": 2295,
  "specifier": 1644,
  "isalpha": 3119,
  "Ġeven": 1101,
  "erm": 458,
  "we": 828,
  "iss": 1747,
  "div": 2685,
  "Ġintegral": 986,
  "ĠDam": 5935,
  "stdio": 935,
  "Ġcalls": 961,
  "caten": 1500,
  "15": 2106,
  "quate": 4763,
  "Ġabnormal": 5982,
  "Ġcmp": 5531,
  "Ġconcatenate": 3222,
  "Ġ00": 4146,
  "Ġshort": 1254,
  "Ġmentioned": 2535,
  "Ġ62": 6119,
  "Ġeasiest": 6137,
  "ase": 778,
  "Ġreg": 996,
  "Br": 4539,
  "Ġ--": 1774,
  "na": 4592,
  "Ġisdigit": 3102,
  ")->": 2839,
  "NIX": 1262,
  "Ġtightly": 5495,
  "ictly": 6145,
  "Ġposs": 960,
  "igin": 1215,
  "head": 2874,
  "DOS": 4546,
  "Ġ206": 6175,
  "ac": 182,
  "Ġregistration": 6438,
  "Ġindividually": 5216,
  "Ġprob": 4119,
  "Ġnewlines": 2773,
  "full": 5410,
  "16": 2672,
  "Ġsprintf": 3406,
  "dddd": 2980,
  "Ġcomple": 2593,
  "urther": 1709,
  "Ġpersists": 3548,
  "exclusive": 3398,
  "ill": 343,
  "Ġmeaningful": 4387,
  "Ġsugg": 2930,
  "Ġ|=": 3472,
  "Ġprotected": 6241,
  "Ġdiscussed": 1383,
  "ĠShell": 4786,
  "Ġchanged": 1831,
  "Ġsynonym": 3571,
  "Ġ32": 2487,
  "Ġinitializ": 498,
  "ĠImplementation": 6528,
  "Ġprefer": 2472,
  "Ġlong": 453,
  "++)": 1099,
  "Ġdesignator": 5101,
  "lock": 581,
  "ĠIdentifiers": 3402,
  "Most": 3290,
  "occur": 4019,
  "],": 1290,
  "ĠPragmas": 6412,
  "Ġsuppl": 3513,
  "SEC": 6443,
  "sscanf": 4715,
  "ust": 335,
  "o": 82,
  "etheless": 3685,
  "Ġswitch": 1448,
  "mar": 1658,
  "Ġreport": 5625,
  "Ġstandard": 479,
  "ited": 3100,
  "clusion": 2806,
  "ingle": 842,
  "Ġwell": 1373,
  "Ġimplementations": 2087,
  "key": 2742,
  "Ġisn": 3358,
  "Ġelement": 1130,
  "Ġvariety": 3131,
  "Ġunnamed": 2463,
  "ummary": 5725,
  "Ġflus": 4059,
  "Ġbut": 476,
  "Ġprepared": 5245,
  "Ġdistingu": 2640,
  "UG": 5364,
  "''": 463,
  "Ġindices": 3795,
  "Ġraise": 3423,
  "Ġsaid": 4380,
  "parts": 4427,
  "Ġbr": 888,
  "ets": 2457,
  "Ġphys": 6400,
  "space": 2617,
  "filename": 2407,
  "Ġdiagram": 5596,
  "red": 1576,
  "Ġmaxlines": 6078,
  "greater": 6639,
  "ities": 1395,
  "String": 3884,
  "stbuf": 3667,
  "Ġbe": 160,
  "Ġeventually": 6598,
  "ish": 2234,
  "Ġimproved": 6538,
  "BC": 4538,
  "Ġrepeated": 3256,
  "ĠX": 3626,
  "Ġmay": 311,
  "irection": 2082,
  "Ġsense": 3347,
  "'')": 2768,
  "ex": 229,
  "core": 2111,
  "Ġparamet": 576,
  "Ġemploy": 6401,
  "&&": 5299,
  "uation": 5474,
  "Ġbehaviour": 6716,
  "Ġnl": 3669,
  "Ġperforming": 6187,
  "j": 77,
  "Ġterminal": 3181,
  "comp": 2192,
  "Ġexpress": 2900,
  "ĠAir": 5741,
  "EK": 3581,
  "'t": 928,
  "Ġfmt": 3653,
  "Ġrule": 2163,
  "Ġenvironments": 6283,
  "Ġimportant": 1913,
  "symtab": 5025,
  "Ġdepend": 1315,
  "qrt": 2409,
  "Ġmultip": 4478,
  "Ġdefn": 6095,
  "Ġhand": 974,
  "Ġacross": 3230,
  "nc": 1793,
  "on": 111,
  "Ġ12345": 6441,
  "Ġless": 1366,
  "Ġsw": 957,
  "Ġwhose": 1767,
  "mbol": 1450,
  "lsius": 4006,
  "loped": 5718,
  "gets": 2084,
  "igher": 2148,
  "ontal": 3886,
  "Ġferror": 2883,
  "ĠRandom": 4263,
  "Ġsomet": 1614,
  "Ġ(!": 3684,
  "ĠASCI": 2350,
  "undant": 3157,
  "Ġstudying": 6578,
  "Ġexpansion": 2637,
  "Ġtaste": 5498,
  "Ġpart": 489,
  "Ġshare": 5881,
  "hash": 3315,
  "ĠLookup": 6329,
  "Ġapproach": 3506,
  "ified": 1434,
  "Ġones": 2063,
  "Ġyield": 2477,
  "Ġreplace": 1347,
  "13": 1653,
  "listopt": 1562,
  "Ġsituations": 3255,
  "%": 9,
  "shift": 3516,
  "Ġsquare": 5231,
  "Ġcolle": 1771,
  "Ġend": 591,
  "Ġaccessible": 4282,
  "Ġnames": 741,
  "Ġdra": 5592,
  "otice": 2233,
  "lection": 3104,
  "Ġretain": 2721,
  "Ġse": 302,
  "Ġclosely": 6399,
  "opt": 780,
  "ntactically": 4202,
  "Ġcomplement": 2737,
  "ĠHow": 1781,
  "onast": 4642,
  "Ġdev": 2741,
  "Ġinstall": 2964,
  "Ġreached": 5627,
  "utative": 4712,
  "arrower": 6653,
  "val": 1021,
  "'];": 5301,
  "TOKE": 3594,
  "Ġpartition": 3447,
  "Ġtabs": 2093,
  "Ġtemp": 1449,
  "Ġtags": 2514,
  "Ġflushes": 5234,
  "Ġtreeprint": 3825,
  "Ġpossib": 2277,
  "fcntl": 3922,
  "Ġrect": 1806,
  "etime": 5657,
  "Ġhigher": 2237,
  "enaiss": 5538,
  "...": 519,
  "iation": 4583,
  "Ġfeatures": 2978,
  "RD": 3294,
  "ĠAmeric": 5747,
  "oi": 2117,
  "Ġyour": 2478,
  "ir": 411,
  "AB": 2541,
  "Ġ23": 4837,
  "Ġforget": 5674,
  "Ġretr": 5622,
  "rite": 821,
  "ĠABSDIFF": 6679,
  "which": 2086,
  "Ġtrouble": 6568,
  "strstr": 4797,
  "Ġprevp": 4441,
  "uctures": 5761,
  "Ġsuffixed": 3237,
  "fin": 294,
  "Ġways": 2494,
  "Ġcalc": 1910,
  "Ġstored": 1204,
  "ech": 1808,
  "icol": 2580,
  "vices": 4624,
  "Ġreflecting": 5220,
  "ĠInclusive": 5921,
  "Ġlooking": 6183,
  "Ġlvalue": 1668,
  "Ġfunction": 206,
  "ĠConstant": 2383,
  "sort": 1455,
  "ally": 423,
  "Ġstatements": 977,
  "iguous": 3013,
  "Ġminprintf": 2991,
  "sel": 897,
  "Ġexpanding": 6318,
  "Ġiteration": 2459,
  "'\\": 3572,
  "Ġrectangular": 6371,
  "Ġnlines": 1995,
  "Ġkeycount": 6009,
  "Ġ(--": 2585,
  "acro": 776,
  "Ġbod": 1759,
  "/*": 268,
  "ifted": 4729,
  "Ġnicely": 6488,
  "ĠArray": 1645,
  "Ġhard": 2296,
  "ION": 5344,
  "READ": 3550,
  "Ġflush": 5547,
  "dom": 5400,
  "conversion": 4922,
  "characters": 5802,
  "fter": 755,
  "Ġfin": 2133,
  "Ġreadlines": 3145,
  "Ġpowers": 6526,
  "ming": 5432,
  "ĠIn": 497,
  "Ġdirective": 3462,
  "Ġmantissa": 6662,
  "own": 2740,
  "eclaring": 4143,
  "Ġconsecutive": 5249,
  "Ġvprintf": 4094,
  "Ġpositions": 2792,
  "Ġheader": 987,
  "Ġoption": 4305,
  "ĠExperiment": 6609,
  "onic": 5507,
  ">>": 5319,
  "Ġ**": 3116,
  "tmpfile": 6398,
  "Ġimpro": 4203,
  "Ġbecause": 952,
  "z": 93,
  "exit": 3397,
  "Ġcounted": 5188,
  "Ġsp": 266,
  "Ġpreprocessors": 6169,
  "Ġlikewise": 5942,
  "cos": 4251,
  "Ġ186": 6236,
  "Ġillustrated": 6147,
  "Ġprocesses": 4987,
  "ison": 1488,
  "Ġduring": 2056,
  "Ġ1000": 3004,
  "Ġ226": 5107,
  "llig": 5682,
  "Ġloc": 964,
  "Ġfac": 1991,
  "ul": 217,
  "Ġstrncpy": 5697,
  "oc": 541
}